<pad>	0
<unk>	0
<s>	0
</s>	0
开车	-0
/{	-1
礼盒	-2
感谢	-3
上车	-4
▁感谢	-5
级头	-6
盒子	-7
送的	-8
▁我	-9
七夕	-10
七夕礼盒	-11
谢谢	-12
保镖	-13
成盒	-14
▁开车	-15
个礼盒	-16
sh	-17
▁这	-18
红点	-19
落地	-20
▁你	-21
个七夕礼盒	-22
66	-23
落地成盒	-24
三级头	-25
摩托	-26
摩托车	-27
炸鱼	-28
倍镜	-29
跑毒	-30
快递	-31
翻车	-32
▁保镖	-33
可以	-34
▁小	-35
轰炸	-36
的礼盒	-37
??	-38
在开车	-39
▁谢谢	-40
▁大	-41
▁一	-42
怎么	-43
二级头	-44
装甲	-45
装甲车	-46
握把	-47
主播	-48
天命	-49
哈哈	-50
什么	-51
▁不	-52
天命圈	-53
么么	-54
么么哒	-55
!/{	-56
送快递	-57
车技	-58
..	-59
没有	-60
吉利	-61
吉利服	-62
怀疑	-63
不要	-64
司机	-65
一个	-66
▁送的	-67
轰炸区	-68
老司机	-69
可爱	-70
不是	-71
▁有	-72
jx	-73
真的	-74
▁红点	-75
▁小可爱	-76
▁小可爱送的	-77
▁盒子	-78
怀疑你	-79
10	-80
亲亲	-81
吃药	-82
fe	-83
亲亲抱	-84
亲亲抱抱	-85
!!	-86
!/{66	-87
就是	-88
。。	-89
厉害	-90
xd	-91
▁上车	-92
大哥	-93
▁三级头	-94
那个	-95
证据	-96
▁的	-97
宝宝	-98
▁,	-99
▁落地成盒	-100
20	-101
▁摩托车	-102
▁开	-103
队友	-104
dx	-105
来了	-106
hx	-107
▁还	-108
直播	-109
▁宝宝	-110
全息	-111
炸鱼塘	-112
描边	-113
▁我怀疑你	-114
八倍镜	-115
▁宝宝送的	-116
上车吗	-117
真的是	-118
开车了	-119
▁他	-120
tx	-121
的小	-122
真的是厉害	-123
▁人	-124
...	-125
现在	-126
▁刚	-127
▁怎么	-128
都是	-129
欢迎	-130
▁主播	-131
▁阿	-132
▁老	-133
吃鸡	-134
6666	-135
快递员	-136
▁装甲车	-137
▁二级头	-138
▁吉利服	-139
▁为	-140
的七夕礼盒	-141
今天	-142
▁老司机	-143
???	-144
子弹	-145
▁又	-146
▁翻车	-147
▁大佬	-148
▁看	-149
▁这个	-150
▁我怀疑你在开车	-151
辛苦	-152
饮料	-153
▁礼盒	-154
保安	-155
还是	-156
on	-157
时候	-158
▁大佬送的	-159
▁别	-160
个礼盒亲亲抱抱	-161
个礼盒么么哒	-162
▁/{	-163
喜欢	-164
▁天命圈	-165
yb	-166
▁好	-167
▁阿里	-168
嘎多	-169
▁阿里嘎多	-170
辛苦大哥	-171
▁轰炸区	-172
爱你	-173
▁跑毒	-174
辛苦大哥的小	-175
▁要	-176
礼物	-177
▁没	-178
辛苦大哥的小手	-179
个七夕礼盒么么哒	-180
开船	-181
直接	-182
死于	-183
哈哈哈	-184
谢谢礼盒	-185
▁车技	-186
知道	-187
98	-188
▁那	-189
个盒子	-190
▁康	-191
咪哒	-192
桑哈	-193
▁康桑哈	-194
▁康桑哈咪哒	-195
个七夕礼盒亲亲抱抱	-196
体描边	-197
一下	-198
不能	-199
自己	-200
死了	-201
要上车	-202
一级头	-203
会我	-204
感觉	-205
▁天	-206
游戏	-207
▁上	-208
但是	-209
止痛	-210
这么	-211
社会我	-212
都不	-213
▁欢迎	-214
止痛药	-215
多少	-216
社会我榜	-217
▁可以	-218
喝饮料	-219
虎牙	-220
这个	-221
▁炸鱼	-222
没有证据	-223
直播间	-224
????	-225
sq	-226
上车了	-227
谴圈	-228
姐姐	-229
za	-230
不会	-231
你们	-232
dk	-233
开车的	-234
▁七夕礼盒	-235
▁三	-236
▁盒	-237
吃药了	-238
~~	-239
▁这是	-240
的盒子	-241
▁现在	-242
▁为什么	-243
杀人	-244
哈哈哈哈	-245
个礼盒真的是厉害	-246
兄弟	-247
▁3	-248
▁1	-249
上树	-250
魔法	-251
▁打	-252
▁送快递	-253
▁就	-254
▁快	-255
▁能	-256
是不是	-257
里有	-258
级甲	-259
魔法书	-260
上车啊	-261
▁开车了	-262
▁谢谢礼盒	-263
▁2	-264
是有	-265
▁握把	-266
▁来	-267
一枪	-268
告白	-269
想上车	-270
中国	-271
。。。	-272
个七夕礼盒真的是厉害	-273
▁全息	-274
▁把	-275
还有	-276
盒子精	-277
垂直	-278
▁6666	-279
▁4	-280
谢谢七夕礼盒	-281
看到	-282
▁送	-283
坐车	-284
!!!!	-285
死于跑毒	-286
翻车了	-287
▁人体描边	-288
▁6	-289
▁队友	-290
不开车	-291
昨天	-292
给你	-293
第一	-294
▁带	-295
▁说	-296
▁今天	-297
一样	-298
▁开船	-299
hh	-300
dg	-301
去了	-302
盒子了	-303
....	-304
▁八倍镜	-305
~/{	-306
一直	-307
应该	-308
我没有证据	-309
ss	-310
▁是	-311
牛逼	-312
豪哥	-313
▁四	-314
意思	-315
gd	-316
不好	-317
▁刚才	-318
▁在	-319
了吗	-320
24	-321
你的	-322
喝药	-323
哥哥	-324
▁不是	-325
牌子	-326
的时候	-327
感情	-328
/{66	-329
个礼盒辛苦大哥的小手	-330
也是	-331
空投	-332
▁你们	-333
╰⋛	-334
天谴圈	-335
盒盒	-336
看你	-337
越是有	-338
▁蟹	-339
不用	-340
六倍镜	-341
▁蟹蟹	-342
▁感谢我	-343
上车的	-344
然后	-345
老板	-346
越是有感情	-347
fess	-348
onfess	-349
有个	-350
的二级头	-351
两个	-352
垂直握把	-353
confess	-354
00	-355
水友	-356
跑圈	-357
▁榜	-358
zan	-359
不行	-360
不到	-361
没了	-362
虎粮	-363
天天	-364
▁盒子精	-365
出来	-366
我们	-367
一个礼盒	-368
~~~/{	-369
人家	-370
准备	-371
平底	-372
就开车	-373
▁感谢社会我榜	-374
盒饭	-375
个七夕礼盒辛苦大哥的小手	-376
▁下	-377
他们	-378
有人	-379
起来	-380
怀疑你在开车	-381
▁谢谢七夕礼盒	-382
别人	-383
▁刚刚	-384
把落地成盒	-385
▁一个	-386
不了	-387
大师	-388
那么	-389
这样	-390
不要停	-391
平底锅	-392
没证据	-393
送快递了	-394
▁去	-395
过去	-396
▁那个	-397
成盒了	-398
▁快递员	-399
技术	-400
!!!	-401
▁8	-402
▁这车技	-403
▁全	-404
东西	-405
▁抽	-406
开始	-407
高级	-408
日常	-409
yw	-410
▁叫	-411
▁文	-412
礼物不要停	-413
一起	-414
手榴	-415
为什么	-416
手榴弹	-417
▁让	-418
每次	-419
订阅	-420
bi	-421
▁等	-422
晚上	-423
▁保安	-424
▁m	-425
你开车	-426
▁真	-427
巴西	-428
▁我的	-429
夕阳	-430
ic	-431
举报	-432
可以上车	-433
过来	-434
▁我是	-435
职业	-436
都没	-437
▁A	-438
了吧	-439
▁最	-440
一把	-441
可能	-442
我就	-443
▁你这	-444
不上车	-445
在跑毒	-446
里面	-447
666	-448
▁没有	-449
▁炸鱼塘	-450
魔法书上车	-451
▁豪哥	-452
中国队	-453
▁怎么上车	-454
我看	-455
▁哈哈	-456
干嘛	-457
▁描边	-458
小姐姐	-459
决赛	-460
▁我怀疑	-461
好了	-462
▁不要	-463
⋚╯	-464
战舰	-465
找人	-466
有点	-467
龙哥	-468
▁人家	-469
能上车	-470
▁给	-471
大家	-472
▁轰炸	-473
200	-474
▁昨天	-475
▁还是	-476
的人	-477
的吗	-478
觉得	-479
的三级头	-480
▁只	-481
压枪	-482
走了	-483
▁为啥	-484
子弹袋	-485
......	-486
xk	-487
好用	-488
已经	-489
62	-490
肯定	-491
都不要	-492
。。。。	-493
▁想	-494
现场	-495
不拿	-496
完了	-497
血瓶	-498
▁这把	-499
高级礼盒	-500
▁对	-501
100	-502
决赛圈	-503
▁吃药	-504
▁刷	-505
▁楼	-506
▁大家	-507
▁天天	-508
三级甲	-509
▁二	-510
容易	-511
黑盒	-512
▁感觉	-513
▁谁	-514
▁都	-515
反向	-516
▁大妈	-517
哈撒	-518
阿尼	-519
哈撒哟	-520
▁哈哈哈	-521
▁一个礼盒	-522
阿尼哈撒哟	-523
后面	-524
送快递的	-525
▁死于跑毒	-526
我的	-527
看看	-528
▁一级头	-529
in	-530
哪里	-531
就有	-532
手雷	-533
时间	-534
死的	-535
钞票	-536
需要	-537
会开车	-538
▁开车去	-539
该吃药了	-540
▁66666666	-541
成盒子	-542
骑摩托车	-543
▁明	-544
一盒	-545
的好	-546
看见	-547
轻型	-548
⋚╯/{	-549
来的	-550
▁大郎	-551
变盒子	-552
以为	-553
的是	-554
▁换	-555
▁用	-556
几个	-557
▁还有	-558
▁我要上车	-559
比赛	-560
这是	-561
▁直接	-562
▁止痛药	-563
一点	-564
枪法	-565
▁天谴圈	-566
不错	-567
不住	-568
▁上保镖	-569
▁再	-570
光棒	-571
▁兄弟	-572
是什么	-573
谢谢我	-574
▁小姐姐	-575
轻型握把	-576
有钱	-577
biza	-578
人体描边	-579
▁找	-580
毫米	-581
注意	-582
爆头	-583
钞票枪	-584
▁翻车了	-585
14	-586
ak	-587
哪个	-588
▁什么	-589
▁5	-590
▁M	-591
▁拿	-592
不过	-593
妹子	-594
舔包	-595
苟活	-596
人开车	-597
四倍镜	-598
就可以	-599
,,	-600
多了	-601
▁日常	-602
我没证据	-603
▁虎牙	-604
▁这么	-605
▁哈哈哈哈	-606
WM	-607
是个	-608
谢谢社会我榜	-609
zi	-610
一次	-611
还没	-612
▁就是	-613
▁狗	-614
一号	-615
因为	-616
座位	-617
开了	-618
给我	-619
开车啊	-620
但是我没有证据	-621
也不	-622
右边	-623
声音	-624
▁成盒	-625
▁落地	-626
我看过	-627
荧光棒	-628
▁可以上车吗	-629
一波	-630
三倍镜	-631
抽盒子	-632
▁你是	-633
装红点	-634
落地成盒了	-635
宝图	-636
灰盒	-637
▁咋	-638
在线	-639
安全	-640
旁边	-641
级包	-642
马上	-643
Nic	-644
▁喝饮料	-645
个三级头	-646
大哥有钱	-647
▁第	-648
▁我榜	-649
▁死于	-650
骨灰盒	-651
▁十	-652
▁千	-653
我是	-654
还不	-655
估计	-656
Ion	-657
▁我的天	-658
能上车吗	-659
confessIon	-660
加油	-661
记得	-662
▁我要	-663
上车么	-664
bk	-665
kx	-666
▁新	-667
好的	-668
弹幕	-669
音乐	-670
▁文家	-671
厕所	-672
好像	-673
来就	-674
路上	-675
有证据	-676
pu	-677
舰队	-678
赶紧	-679
铁骑	-680
▁你开车	-681
沙漠	-682
送了	-683
▁巴西	-684
▁盒勇	-685
▁单	-686
了啊	-687
你是	-688
uzi	-689
▁大哥	-690
▁来了	-691
可以上车吗	-692
56	-693
家的	-694
左边	-695
悲喜	-696
房子	-697
拉风	-698
▁不开车	-699
反向跑毒	-700
▁文家铁骑	-701
▁送的礼盒	-702
个人	-703
弟弟	-704
房间	-705
无敌	-706
▁第一	-707
▁六倍镜	-708
▁开车撞	-709
以前	-710
我上车	-711
能不能	-712
你在开车	-713
▁太	-714
粉丝	-715
▁差	-716
今晚	-717
你就	-718
坐船	-719
把把	-720
污污	-721
火箭	-722
镰刀	-723
要开车	-724
角握把	-725
到了	-726
喷子	-727
小时	-728
说话	-729
▁7	-730
▁9	-731
▁请	-732
刚刚	-733
就行	-734
有船	-735
一个盒子	-736
▁风	-737
开挂	-738
所以	-739
lon	-740
▁我们	-741
▁开车的	-742
16	-743
▁光	-744
以后	-745
位置	-746
拇指	-747
疯狂	-748
上保镖	-749
而且	-750
自动	-751
是真的	-752
的车技	-753
▁送的七夕礼盒	-754
都能	-755
▁6.	-756
▁每次	-757
▁四倍镜	-758
confesslon	-759
gl	-760
问题	-761
麻瓜	-762
上车不	-763
开礼盒	-764
ibiza	-765
50	-766
sk	-767
上去	-768
刚才	-769
地方	-770
好看	-771
居然	-772
开的	-773
▁大师	-774
▁有没有	-775
才能	-776
扔手雷	-777
▁又开车	-778
▁开车不	-779
感谢大哥	-780
?????	-781
▁前	-782
免费	-783
可是	-784
地图	-785
块钱	-786
绝地	-787
开摩托车	-788
里送快递	-789
▁你在开车	-790
▁怀疑你在开车	-791
为了	-792
继续	-793
am	-794
不捡	-795
为啥	-796
分钟	-797
托马	-798
操作	-799
还能	-800
韦神	-801
有三级头	-802
▁垂直握把	-803
▁我怀疑你开车	-804
▁两	-805
突然	-806
胖子	-807
跑了	-808
sks	-809
▁我也	-810
▁日常翻车	-811
▁先	-812
一颗	-813
轿车	-814
选手	-815
▁他们	-816
▁龙哥	-817
污污污	-818
un	-819
▁哇	-820
▁肥	-821
刷屏	-822
炸死	-823
▁一直	-824
▁我就	-825
▁我想	-826
开车撞	-827
用红点	-828
跑毒了	-829
13	-830
▁学	-831
▁手	-832
机会	-833
舒服	-834
▁坐车	-835
托马斯	-836
▁我想上车	-837
12	-838
▁喜	-839
▁被	-840
回放	-841
开枪	-842
打不	-843
▁10	-844
多礼盒	-845
拉风龙	-846
▁子弹袋	-847
▁魔法书上车	-848
不合	-849
菠萝	-850
要是	-851
.62	-852
个虎粮	-853
小虎牙	-854
带我	-855
的一	-856
说了	-857
▁都是	-858
拆礼盒	-859
个平底锅	-860
的摩托车	-861
盒盒盒盒	-862
11	-863
▁无	-864
你了	-865
只能	-866
朋友	-867
没拿	-868
▁然后	-869
不要吗	-870
卡牌子	-871
开车去	-872
什么握把	-873
▁我怀疑你们	-874
只有	-875
回来	-876
永远	-877
老哥	-878
▁98	-879
▁把把	-880
就好了	-881
盒子里	-882
▁老司机开车	-883
▁女	-884
▁猪	-885
宝贝	-886
鱼塘	-887
▁20	-888
小黑盒	-889
都没有	-890
▁中国队	-891
xh	-892
啊啊	-893
没人	-894
牌牌	-895
的话	-896
看不	-897
节奏	-898
.56	-899
AWM	-900
▁有人	-901
不知道	-902
▁感谢小	-903
拇指握把	-904
ar	-905
▁王	-906
如果	-907
绿色	-908
被打	-909
那里	-910
▁反向跑毒	-911
上了	-912
不然	-913
之前	-914
军团	-915
最后	-916
校霸	-917
都有	-918
▁明天	-919
喝药了	-920
炸鱼的	-921
▁uzi	-922
个装甲车	-923
66667	-924
▁6.66667	-925
▁车	-926
下来	-927
小药	-928
帝国	-929
火锅	-930
结果	-931
自闭	-932
适合	-933
▁盒盒	-934
没吃药	-935
言不合	-936
▁保镖你	-937
▁保镖直播间	-938
AK	-939
杀了	-940
这把	-941
进圈	-942
▁一楼	-943
带水友	-944
领盒饭	-945
翻车现场	-946
一颗小虎牙	-947
▁死	-948
永久	-949
▁送礼盒	-950
▁送快递的	-951
ka	-952
▁跟	-953
告诉	-954
开出	-955
文哥	-956
炸了	-957
狙击	-958
距离	-959
▁多少	-960
切座位	-961
盒子有	-962
好的二级头	-963
我怀疑你在开车	-964
▁吃	-965
上线	-966
其实	-967
半截	-968
机场	-969
▁中国	-970
▁有个	-971
他开车	-972
an	-973
er	-974
也没	-975
回去	-976
好菜	-977
小心	-978
正常	-979
皮肤	-980
经常	-981
表演	-982
▁你的	-983
藏宝图	-984
▁能上车吗	-985
▁专	-986
▁玩	-987
入座	-988
基本	-989
我要	-990
那种	-991
飞机	-992
有什么	-993
跑毒的	-994
▁三倍镜	-995
感谢社会我榜	-996
伤害	-997
孤存	-998
拉满	-999
速度	-1000
难了	-1001
▁举报	-1002
▁感谢榜	-1003
成盒子了	-1004
穿吉利服	-1005
▁二级头换	-1006
但我没有证据	-1007
不多	-1008
每天	-1009
比较	-1010
终于	-1011
▁应该	-1012
▁职业	-1013
啥时候	-1014
抽礼盒	-1015
欢迎欢迎	-1016
99	-1017
▁从	-1018
一般	-1019
不动	-1020
你这	-1021
雨墨	-1022
▁后面	-1023
开车吗	-1024
快上车	-1025
找人杀	-1026
Nice	-1027
▁跑毒了	-1028
wm	-1029
不开	-1030
信号	-1031
发现	-1032
来个	-1033
看了	-1034
起风	-1035
还行	-1036
▁因为	-1037
▁别开车	-1038
哥的礼盒	-1039
有二级头	-1040
的快递员	-1041
▁盒子里有	-1042
▁我怀疑你们在开车	-1043
▁求	-1044
八倍	-1045
就不	-1046
很多	-1047
男人	-1048
车位	-1049
▁直播	-1050
▁这集	-1051
开盒子	-1052
起风了	-1053
▁抽礼盒	-1054
落地成盒挂	-1055
30	-1056
▁平	-1057
▁甜	-1058
可惜	-1059
好玩	-1060
子豪	-1061
让你	-1062
进来	-1063
▁完了	-1064
▁看看	-1065
压不住	-1066
有没有	-1067
有红点	-1068
送礼盒	-1069
▁开车啊	-1070
开车开车	-1071
送的礼盒	-1072
▁开车开车	-1073
▁多	-1074
带你	-1075
打药	-1076
昨晚	-1077
▁小妹	-1078
▁我觉得	-1079
▁盒子里	-1080
▁千里送快递	-1081
但是我没证据	-1082
▁和	-1083
中奖	-1084
出去	-1085
大妈	-1086
开镜	-1087
打了	-1088
排名	-1089
还在	-1090
这里	-1091
进去	-1092
▁上树	-1093
▁喝药	-1094
不要了	-1095
▁开车走	-1096
▁捡	-1097
人头	-1098
指挥	-1099
流局	-1100
又开车	-1101
感谢我	-1102
▁车技粉	-1103
▁轻型握把	-1104
拆高级礼盒	-1105
言不合就开车	-1106
▁原	-1107
▁走	-1108
小号	-1109
屁股	-1110
建议	-1111
才是	-1112
见过	-1113
▁来个	-1114
吃鸡了	-1115
▁是不是	-1116
落地成盒的	-1117
▁n	-1118
▁她	-1119
三个	-1120
上班	-1121
四排	-1122
真菜	-1123
老铁	-1124
000	-1125
▁麻瓜	-1126
怎么不	-1127
开车杀人	-1128
▁人体描边大师	-1129
zc	-1130
▁?	-1131
一会	-1132
不如	-1133
压的	-1134
各位	-1135
多久	-1136
大爷	-1137
我也	-1138
翻译	-1139
连续	-1140
?/{	-1141
炸鱼了	-1142
▁手榴弹	-1143
虎牙一号	-1144
▁【	-1145
▁当	-1146
▁早	-1147
你不	-1148
国内	-1149
我想	-1150
盒了	-1151
移动	-1152
多少钱	-1153
的主播	-1154
的红点	-1155
▁我感觉	-1156
Xx	-1157
el	-1158
▁干	-1159
一天	-1160
卡个	-1161
在哪	-1162
带着	-1163
打人	-1164
打死	-1165
橙的	-1166
毒死	-1167
笑死	-1168
我的天	-1169
沐橙的	-1170
要翻车	-1171
这么多	-1172
▁兄弟们	-1173
我有证据	-1174
我要上车	-1175
造轰炸区	-1176
▁比	-1177
几点	-1178
或者	-1179
标题	-1180
模式	-1181
消音	-1182
点个	-1183
绝对	-1184
难受	-1185
高手	-1186
awm	-1187
▁喜欢	-1188
▁差点	-1189
▁文哥	-1190
一个人	-1191
▁保镖是	-1192
炸鱼主播	-1193
15	-1194
On	-1195
▁X	-1196
▁按	-1197
又要	-1198
变成	-1199
就没	-1200
特别	-1201
试试	-1202
那些	-1203
除了	-1204
762	-1205
▁两个	-1206
▁沙漠	-1207
▁肥龙	-1208
▁马上	-1209
不要嘛	-1210
地翻车	-1211
的那个	-1212
秀车技	-1213
红枪法	-1214
??????	-1215
od	-1216
tp	-1217
▁也	-1218
▁外	-1219
了解	-1220
地上	-1221
打的	-1222
樱桃	-1223
爆了	-1224
盒勇	-1225
睡觉	-1226
确实	-1227
翠花	-1228
▁一本	-1229
▁又是	-1230
▁大型	-1231
▁自己	-1232
▁抽盒子	-1233
礼物上车	-1234
▁这集我看过	-1235
拆拆高级礼盒	-1236
▁五	-1237
▁公	-1238
▁听	-1239
▁空	-1240
▁马	-1241
一辆	-1242
不去	-1243
你要	-1244
叫你	-1245
守护	-1246
的啊	-1247
的大	-1248
▁单排	-1249
▁突然	-1250
你送的	-1251
包里有	-1252
在炸鱼	-1253
怎么办	-1254
脚开车	-1255
血瓶上车	-1256
可以装红点	-1257
夕阳红枪法	-1258
▁感谢起风了	-1259
▁落地成盒挂	-1260
但是没有证据	-1261
丢了	-1262
习惯	-1263
全是	-1264
后缀	-1265
实力	-1266
对面	-1267
抽奖	-1268
跟你	-1269
还要	-1270
这种	-1271
驾驶	-1272
▁准备	-1273
▁吃鸡	-1274
▁怀疑	-1275
▁有船	-1276
信号枪	-1277
用全息	-1278
注意安全	-1279
▁描边大师	-1280
▁主播带水友	-1281
▁S	-1282
▁啊	-1283
▁强	-1284
▁本	-1285
一局	-1286
冲锋	-1287
凉凉	-1288
挚爱	-1289
特么	-1290
稳了	-1291
老是	-1292
锤子	-1293
ini	-1294
▁不能	-1295
▁大朗	-1296
▁如果	-1297
▁左边	-1298
就行了	-1299
差不多	-1300
的开车	-1301
苟排名	-1302
or	-1303
▁。	-1304
人称	-1305
六倍	-1306
效果	-1307
果然	-1308
路人	-1309
▁小暖	-1310
▁真的	-1311
开车不	-1312
我开车	-1313
▁小黑盒	-1314
个荧光棒	-1315
去送快递	-1316
右边拉满	-1317
把把落地成盒	-1318
18	-1319
AM	-1320
▁I	-1321
▁主	-1322
▁满	-1323
下去	-1324
好多	-1325
就能	-1326
扔了	-1327
维克	-1328
绷带	-1329
莎莎	-1330
装备	-1331
运气	-1332
▁你要	-1333
▁悲喜	-1334
▁翠花	-1335
▁决赛圈	-1336
▁叫保镖	-1337
▁搜	-1338
▁自	-1339
▁艾	-1340
其他	-1341
包里	-1342
只是	-1343
好吗	-1344
工资	-1345
敌人	-1346
没用	-1347
球球	-1348
瓦迪	-1349
电视	-1350
石头	-1351
童话	-1352
解说	-1353
▁榜一	-1354
会不会	-1355
没意思	-1356
瓦迪卡	-1357
的地方	-1358
的路上	-1359
边开车	-1360
▁想上车	-1361
▁这礼盒	-1362
萨瓦迪卡	-1363
▁怎么上车啊	-1364
!!!!!!!!	-1365
▁主播带水友上车么	-1366
▁C	-1367
▁哎	-1368
▁白	-1369
▁红	-1370
不敢	-1371
单排	-1372
反正	-1373
我了	-1374
明天	-1375
气球	-1376
独宠	-1377
玩家	-1378
电话	-1379
给他	-1380
老师	-1381
老弟	-1382
让他	-1383
说的	-1384
那边	-1385
▁13	-1386
▁人工	-1387
▁又要	-1388
▁老板	-1389
▁要是	-1390
▁跑圈	-1391
▁这局	-1392
上车嘛	-1393
冲锋枪	-1394
想开车	-1395
▁666	-1396
▁能不能	-1397
▁感谢莎莎	-1398
▁好的二级头	-1399
17	-1400
en	-1401
lh	-1402
▁心	-1403
▁该	-1404
▁陈	-1405
】,	-1406
上面	-1407
办法	-1408
呵呵	-1409
回家	-1410
感人	-1411
捧场	-1412
样子	-1413
白羊	-1414
看着	-1415
超帅	-1416
钦钦	-1417
镖客	-1418
▁一会	-1419
▁绝地	-1420
▁那是	-1421
比红点	-1422
1000	-1423
▁吃药了	-1424
点个订阅	-1425
▁7.62	-1426
▁一言不合就开车	-1427
▁万	-1428
▁水	-1429
下播	-1430
人的	-1431
换位	-1432
是啥	-1433
能打	-1434
遇到	-1435
▁我在	-1436
▁有为	-1437
▁空投	-1438
不跑毒	-1439
二级甲	-1440
白羊丶	-1441
还开车	-1442
▁他来了	-1443
不用红点	-1444
什么时候	-1445
挚爱樱桃	-1446
盒子里有	-1447
▁送快递了	-1448
怀疑你开车	-1449
▁夏	-1450
▁美	-1451
名字	-1452
好久	-1453
掉了	-1454
最好	-1455
▁全程	-1456
▁喜子	-1457
▁开始	-1458
▁没人	-1459
▁保镖在	-1460
▁拉风龙	-1461
保镖保镖	-1462
有摩托车	-1463
哈哈哈哈哈	-1464
33	-1465
zs	-1466
▁乐	-1467
▁可	-1468
▁很	-1469
一定	-1470
不够	-1471
不起	-1472
人气	-1473
体验	-1474
刺激	-1475
各种	-1476
开播	-1477
房管	-1478
打架	-1479
日本	-1480
正在	-1481
玩了	-1482
说你	-1483
骑着	-1484
una	-1485
▁入座	-1486
▁好像	-1487
▁最后	-1488
▁榜二	-1489
▁赶紧	-1490
▁镰刀	-1491
个红点	-1492
也可以	-1493
太难了	-1494
小哥哥	-1495
▁谢谢老板	-1496
▁这摩托车	-1497
▁骑摩托车	-1498
你落地成盒	-1499
▁菜	-1500
▁非	-1501
几天	-1502
切圈	-1503
只会	-1504
妹控	-1505
开心	-1506
性感	-1507
总是	-1508
爸爸	-1509
被封	-1510
跟我	-1511
过桥	-1512
颜色	-1513
▁AK	-1514
▁下面	-1515
▁别人	-1516
▁在线	-1517
▁晚上	-1518
三级包	-1519
就知道	-1520
开车跑	-1521
点订阅	-1522
看保镖	-1523
那么多	-1524
被轰炸区	-1525
感谢大哥的礼盒	-1526
感谢大哥的七夕礼盒	-1527
▁@	-1528
▁穿	-1529
▁花	-1530
中心	-1531
中的	-1532
了一	-1533
仙女	-1534
喝酒	-1535
坏了	-1536
安排	-1537
支持	-1538
驾照	-1539
Mel	-1540
▁不用	-1541
▁今晚	-1542
▁所以	-1543
▁没事	-1544
▁继续	-1545
他来了	-1546
号盒子	-1547
大菠萝	-1548
大镖客	-1549
看不到	-1550
▁托马斯	-1551
不会开车	-1552
MelOn	-1553
▁该吃药了	-1554
▁二级头不要	-1555
▁666666	-1556
▁s	-1557
▁南	-1558
▁胖	-1559
下车	-1560
久伴	-1561
也能	-1562
人了	-1563
从来	-1564
到处	-1565
刷了	-1566
又是	-1567
步枪	-1568
看他	-1569
瞬间	-1570
老公	-1571
能量	-1572
▁帝国	-1573
上车吧	-1574
刷礼物	-1575
动不动	-1576
就没了	-1577
赠送了	-1578
▁sks	-1579
▁好车技	-1580
变盒子了	-1581
在开车吗	-1582
的好多礼盒	-1583
▁感谢起风了丶	-1584
▁二级头换一级头	-1585
▁b	-1586
▁x	-1587
▁拉	-1588
区别	-1589
半天	-1590
呜呜	-1591
好好	-1592
我都	-1593
永生	-1594
猛男	-1595
路费	-1596
跳伞	-1597
都要	-1598
门口	-1599
随时	-1600
鼠标	-1601
▁以后	-1602
▁但是	-1603
▁光头	-1604
▁全是	-1605
▁厕所	-1606
▁昨晚	-1607
▁疯狂	-1608
▁胖子	-1609
▁韦神	-1610
▁风声	-1611
不行啊	-1612
开车走	-1613
换座位	-1614
有盒子	-1615
红点都	-1616
进来就	-1617
乐的盒子	-1618
开船开船	-1619
▁队友好菜	-1620
▁人造轰炸区	-1621
????????	-1622
KE	-1623
NG	-1624
^_	-1625
▁U	-1626
▁啥	-1627
▁雪	-1628
世界	-1629
丶小	-1630
倒了	-1631
就好	-1632
我不	-1633
有啥	-1634
求带	-1635
瞎子	-1636
都在	-1637
▁以前	-1638
▁估计	-1639
▁其实	-1640
▁喷子	-1641
▁对面	-1642
▁小心	-1643
▁我去	-1644
上树了	-1645
小可爱	-1646
房间号	-1647
把自己	-1648
有意思	-1649
没看到	-1650
翻车的	-1651
这车技	-1652
5.56	-1653
▁AWM	-1654
▁1314	-1655
▁拇指握把	-1656
但我没证据	-1657
的礼盒刷屏	-1658
藏宝图上车	-1659
/{66/{66	-1660
88	-1661
ol	-1662
▁问	-1663
不及	-1664
不来	-1665
不死	-1666
也就	-1667
关注	-1668
嘿嘿	-1669
小暖	-1670
干拉	-1671
必须	-1672
灵敏	-1673
玩的	-1674
电脑	-1675
算了	-1676
结束	-1677
而已	-1678
视角	-1679
视频	-1680
ice	-1681
▁终于	-1682
▁老迪	-1683
▁请问	-1684
出战舰	-1685
菜盒子	-1686
载音乐	-1687
▁上车了	-1688
▁开盒子	-1689
▁开车冲	-1690
▁快上车	-1691
▁这不是	-1692
会开车的	-1693
的装甲车	-1694
▁开车杀人	-1695
0.	-1696
▁哪	-1697
▁神	-1698
不换	-1699
专业	-1700
你还	-1701
全程	-1702
出了	-1703
心动	-1704
快点	-1705
我来	-1706
挂件	-1707
摔死	-1708
新号	-1709
普通	-1710
更新	-1711
版本	-1712
看的	-1713
真是	-1714
解释	-1715
随便	-1716
RNG	-1717
▁15	-1718
▁好多	-1719
▁小海	-1720
▁看到	-1721
▁钦钦	-1722
上车就	-1723
刷礼盒	-1724
叫保镖	-1725
可还行	-1726
带带我	-1727
第一个	-1728
维克托	-1729
落地盒	-1730
过路费	-1731
还不如	-1732
▁开礼盒	-1733
了解一下	-1734
炸鱼塘的	-1735
职业选手	-1736
领盒饭了	-1737
!!!!!	-1738
▁光脚开车	-1739
一个天命圈	-1740
▁吉利服不要	-1741
▁大型翻车现场	-1742
3-	-1743
▁卡	-1744
▁少	-1745
不算	-1746
两枪	-1747
天下	-1748
的车	-1749
▁原来	-1750
▁性感	-1751
▁我还	-1752
就有了	-1753
送人头	-1754
▁200	-1755
▁保镖啊	-1756
▁谢谢小	-1757
三级头了	-1758
三角握把	-1759
个摩托车	-1760
半截握把	-1761
又开车了	-1762
怎么上车	-1763
的直播间	-1764
老司机啊	-1765
▁5.56	-1766
▁红点不要	-1767
▁盒盒盒盒盒盒	-1768
▁F	-1769
▁T	-1770
▁g	-1771
▁九	-1772
▁安	-1773
▁难	-1774
一级	-1775
下班	-1776
不在	-1777
也太	-1778
也有	-1779
他的	-1780
教练	-1781
没捡	-1782
竟然	-1783
老文	-1784
车上	-1785
重要	-1786
钢枪	-1787
隔壁	-1788
▁给你	-1789
▁苟活	-1790
▁那么	-1791
成盒的	-1792
轰炸机	-1793
▁上车啊	-1794
▁这就是	-1795
十个礼盒	-1796
收过路费	-1797
有八倍镜	-1798
那个盒子	-1799
▁66666	-1800
25	-1801
▁B	-1802
▁L	-1803
▁桥	-1804
▁海	-1805
▁蓝	-1806
不上	-1807
不带	-1808
媳妇	-1809
子哥	-1810
导播	-1811
就要	-1812
左右	-1813
拿了	-1814
是挂	-1815
架枪	-1816
皮皮	-1817
端游	-1818
茄子	-1819
被人	-1820
要求	-1821
跟班	-1822
鲸鱼	-1823
▁ak	-1824
▁想看	-1825
▁手哥	-1826
保镖吗	-1827
兄弟们	-1828
喊保镖	-1829
开车吧	-1830
打不过	-1831
灵敏度	-1832
红点了	-1833
▁开车无	-1834
▁第一个	-1835
▁骨灰盒	-1836
摩托车了	-1837
毫米子弹	-1838
ZI	-1839
▁-	-1840
▁、	-1841
▁出	-1842
▁后	-1843
▁点	-1844
下面	-1845
不想	-1846
四倍	-1847
回忆	-1848
奖励	-1849
妹妹	-1850
学生	-1851
差点	-1852
希望	-1853
恭喜	-1854
权威	-1855
烟雾	-1856
走路	-1857
,,,	-1858
300	-1859
ing	-1860
~~~	-1861
▁二楼	-1862
▁我家	-1863
▁最近	-1864
▁楼下	-1865
喜欢看	-1866
找不到	-1867
被轰炸	-1868
都不会	-1869
▁三级甲	-1870
有装甲车	-1871
能上车不	-1872
!!!!!!	-1873
▁我是一颗小虎牙	-1874
▁哦	-1875
▁嗯	-1876
▁德	-1877
▁月	-1878
如何	-1879
开着	-1880
情况	-1881
手枪	-1882
故意	-1883
比我	-1884
的吧	-1885
看过	-1886
繁华	-1887
血亏	-1888
降临	-1889
▁免费	-1890
▁坐船	-1891
▁弟弟	-1892
▁水友	-1893
不可能	-1894
全自动	-1895
出来了	-1896
别开车	-1897
吃不了	-1898
还可以	-1899
7.62	-1900
▁跑毒啊	-1901
炸鱼塘了	-1902
▁开摩托车	-1903
▁翻车现场	-1904
去送快递了	-1905
▁人工轰炸区	-1906
▁书	-1907
▁头	-1908
▁怪	-1909
▁放	-1910
两天	-1911
严重	-1912
中间	-1913
你好	-1914
和你	-1915
四个	-1916
多好	-1917
大号	-1918
对枪	-1919
小蓝	-1920
忘记	-1921
成功	-1922
是你	-1923
杀手	-1924
溜了	-1925
白色	-1926
第二	-1927
老外	-1928
老婆	-1929
考拉	-1930
获得	-1931
要不	-1932
这些	-1933
追着	-1934
透视	-1935
911	-1936
▁你看	-1937
▁果然	-1938
▁看你	-1939
▁让你	-1940
▁除了	-1941
上车呀	-1942
不喜欢	-1943
开车就	-1944
怎么调	-1945
来上车	-1946
炸死了	-1947
给保镖	-1948
▁大菠萝	-1949
▁开车跑	-1950
▁我上车	-1951
▁落地盒	-1952
主播开车	-1953
四白羊丶	-1954
开车了吗	-1955
▁老司机啊	-1956
▁车技感人	-1957
▁夕阳红枪法	-1958
▁感谢榜四白羊丶	-1959
▁感谢社会我榜一	-1960
86	-1961
CC	-1962
PP	-1963
ab	-1964
▁半	-1965
▁正	-1966
▁牛	-1967
▁进	-1968
▁骑	-1969
下午	-1970
专属	-1971
了个	-1972
你说	-1973
双排	-1974
堵桥	-1975
大叔	-1976
孩子	-1977
完美	-1978
小海	-1979
并且	-1980
把你	-1981
的枪	-1982
竞猜	-1983
蹦蹦	-1984
还好	-1985
遇见	-1986
配件	-1987
风声	-1988
飘了	-1989
😂😂	-1990
▁你在	-1991
▁加油	-1992
▁只有	-1993
▁小药	-1994
倍镜啊	-1995
厉害了	-1996
可以啊	-1997
当保安	-1998
证据确	-1999
里面有	-2000
▁在开车	-2001
▁女司机	-2002
▁拆礼盒	-2003
▁这么多	-2004
人称开车	-2005
号盒子精	-2006
天天开车	-2007
就成盒了	-2008
我想上车	-2009
摩托车的	-2010
日常翻车	-2011
直角握把	-2012
▁什么时候	-2013
▁虎牙一号	-2014
大家的礼盒	-2015
还是一级头	-2016
▁人体描边挂	-2017
89	-2018
de	-2019
ia	-2020
ng	-2021
▁会	-2022
▁几	-2023
▁坐	-2024
▁枪	-2025
▁高	-2026
买个	-2027
人啊	-2028
你在	-2029
倒地	-2030
凉了	-2031
后座	-2032
外挂	-2033
娱乐	-2034
怕是	-2035
我去	-2036
捡到	-2037
换号	-2038
搞笑	-2039
撞死	-2040
条件	-2041
被你	-2042
越野	-2043
送滴	-2044
都会	-2045
▁专业	-2046
▁你不	-2047
▁凉凉	-2048
▁前面	-2049
▁好好	-2050
个保镖	-2051
再开车	-2052
和保镖	-2053
就死了	-2054
打游戏	-2055
红点的	-2056
▁扔手雷	-2057
▁有红点	-2058
▁魔法书	-2059
三级头吗	-2060
才能上车	-2061
直接开车	-2062
证据确凿	-2063
都在跑毒	-2064
▁一个盒子	-2065
▁二级头啊	-2066
▁能上车不	-2067
点个订阅呗	-2068
可是我没有证据	-2069
40	-2070
KS	-2071
kd	-2072
▁K	-2073
▁Y	-2074
▁龙	-2075
一边	-2076
上的	-2077
不懂	-2078
减速	-2079
前面	-2080
天上	-2081
好啊	-2082
恩可	-2083
战神	-2084
手游	-2085
暗示	-2086
水平	-2087
没事	-2088
满血	-2089
炸的	-2090
用的	-2091
训练	-2092
近战	-2093
▁可能	-2094
▁孤存	-2095
▁恭喜	-2096
▁我有	-2097
▁旁边	-2098
回来了	-2099
是开车	-2100
的保镖	-2101
盒子的	-2102
级头啊	-2103
起来了	-2104
越野车	-2105
都可以	-2106
▁???	-2107
▁上车的	-2108
▁不是有	-2109
▁你怎么	-2110
▁开车吗	-2111
▁开车啦	-2112
▁我喜欢	-2113
三级头的	-2114
别开车了	-2115
告白气球	-2116
笑死我了	-2117
装甲车吗	-2118
装甲车啊	-2119
▁三级头啊	-2120
▁大佬降临	-2121
▁突然开车	-2122
▁队友真菜	-2123
摩托车来了	-2124
▁落地成盒了	-2125
▁感谢社会我榜二	-2126
le	-2127
▁某	-2128
▁清	-2129
▁秀	-2130
▁表	-2131
▁飞	-2132
三倍	-2133
三把	-2134
三轮	-2135
不见	-2136
不让	-2137
为你	-2138
了你	-2139
仙人	-2140
先生	-2141
全部	-2142
关键	-2143
即可	-2144
只要	-2145
可乐	-2146
喜子	-2147
坦克	-2148
大神	-2149
干啥	-2150
明明	-2151
是我	-2152
有毒	-2153
柠檬	-2154
玩玩	-2155
男孩	-2156
相信	-2157
红色	-2158
胖胖	-2159
脸上	-2160
节目	-2161
警告	-2162
▁不会	-2163
▁反正	-2164
▁右边	-2165
▁翻译	-2166
半截式	-2167
没上车	-2168
玩游戏	-2169
音乐盒	-2170
▁他开车	-2171
▁平底锅	-2172
▁开车呀	-2173
▁开车就	-2174
▁第一次	-2175
个二级头	-2176
火箭上车	-2177
装甲车的	-2178
▁有三级头	-2179
大哥的礼盒	-2180
▁ibiza	-2181
动不动就开车	-2182
▁V	-2183
▁发	-2184
▁喝	-2185
三级	-2186
休息	-2187
加速	-2188
单身	-2189
叫我	-2190
和我	-2191
好吧	-2192
忽吹	-2193
托腮	-2194
来看	-2195
赢了	-2196
追人	-2197
错了	-2198
陪玩	-2199
▁一般	-2200
▁上次	-2201
▁之前	-2202
▁居然	-2203
▁本来	-2204
▁童话	-2205
▁这种	-2206
上车呢	-2207
不是有	-2208
吃药药	-2209
的都是	-2210
▁来了呀	-2211
为了守护	-2212
变成盒子	-2213
吃不了鸡	-2214
天天炸鱼	-2215
把天命圈	-2216
要上车的	-2217
▁三角握把	-2218
▁天天炸鱼	-2219
▁死于轰炸	-2220
▁肥龙军团	-2221
保镖直播间	-2222
▁送一个礼盒	-2223
哈哈哈哈哈哈	-2224
▁这把落地成盒	-2225
为了守护你送的	-2226
▁666666666	-2227
60	-2228
ee	-2229
▁r	-2230
▁云	-2231
▁微	-2232
▁挂	-2233
▁炸	-2234
▁顺	-2235
▁黑	-2236
一人	-2237
一半	-2238
三盒	-2239
也要	-2240
事了	-2241
优秀	-2242
俊俊	-2243
光临	-2244
去找	-2245
国队	-2246
大佬	-2247
大炮	-2248
女的	-2249
实锤	-2250
就会	-2251
带上	-2252
怎样	-2253
思念	-2254
房区	-2255
手机	-2256
把车	-2257
明显	-2258
是谁	-2259
服了	-2260
流年	-2261
满配	-2262
留着	-2263
白给	-2264
盒烟	-2265
着你	-2266
豆子	-2267
超级	-2268
面前	-2269
416	-2270
▁他是	-2271
▁导播	-2272
▁开了	-2273
▁我说	-2274
▁战舰	-2275
▁日本	-2276
▁楼上	-2277
▁楼顶	-2278
▁牛逼	-2279
▁老文	-2280
▁茄子	-2281
。/{	-2282
一直在	-2283
不要啊	-2284
个血瓶	-2285
可以吗	-2286
成这样	-2287
没看见	-2288
牌子的	-2289
盒盒盒	-2290
看到了	-2291
被毒死	-2292
~~~~	-2293
▁你这个	-2294
▁保镖有	-2295
▁快跑毒	-2296
▁还开车	-2297
个天命圈	-2298
二级头吗	-2299
可以开车	-2300
就开车了	-2301
▁nice	-2302
▁多少上车	-2303
▁炸鱼主播	-2304
▁这吉利服	-2305
▁哈哈哈哈哈	-2306
▁老司机求带	-2307
▁为什么不开车	-2308
4-	-2309
ug	-2310
yy	-2311
▁抢	-2312
▁染	-2313
▁疑	-2314
一队	-2315
两行	-2316
你有	-2317
你能	-2318
傻子	-2319
公子	-2320
回事	-2321
在你	-2322
大大	-2323
小可	-2324
广西	-2325
开启	-2326
扫射	-2327
抽了	-2328
来越	-2329
根本	-2330
棒棒	-2331
死亡	-2332
浪费	-2333
身体	-2334
过了	-2335
那是	-2336
酱的	-2337
队长	-2338
魔王	-2339
aby	-2340
▁XZ	-2341
▁只要	-2342
▁听说	-2343
▁哥哥	-2344
▁好久	-2345
▁摩托	-2346
▁来到	-2347
▁游戏	-2348
▁这波	-2349
不是挂	-2350
你上车	-2351
保镖了	-2352
保镖的	-2353
好车技	-2354
怎么说	-2355
有机会	-2356
盒子啊	-2357
绿色的	-2358
自闭了	-2359
越来越	-2360
mini	-2361
▁小哥哥	-2362
▁成盒了	-2363
▁跑毒吧	-2364
三级头啊	-2365
倍镜压枪	-2366
喜欢开车	-2367
天命圈啊	-2368
恩可的小	-2369
该喝药了	-2370
▁刚才那个	-2371
。。。。。	-2372
主播在开车	-2373
半截式握把	-2374
绿色吉利服	-2375
▁快乐的盒子	-2376
▁来到直播间	-2377
▁老司机带带我	-2378
(⊙	-2379
cl	-2380
ou	-2381
⊙)	-2382
▁D	-2383
▁_	-2384
▁t	-2385
▁假	-2386
▁左	-2387
一看	-2388
不怕	-2389
不打	-2390
两把	-2391
养员	-2392
危险	-2393
女人	-2394
实话	-2395
小白	-2396
急救	-2397
我在	-2398
扩容	-2399
捡了	-2400
新手	-2401
早点	-2402
满足	-2403
牛批	-2404
真好	-2405
端局	-2406
等会	-2407
简单	-2408
虽然	-2409
观众	-2410
让我	-2411
辈子	-2412
输入	-2413
过分	-2414
闭嘴	-2415
飞天	-2416
(^_	-2417
)/{	-2418
▁一把	-2419
▁七夕	-2420
▁告白	-2421
▁国内	-2422
▁开挂	-2423
▁猪头	-2424
▁盒饭	-2425
▁这样	-2426
▁那你	-2427
两行泪	-2428
俊俊丶	-2429
出来的	-2430
妹家的	-2431
摔死了	-2432
第一次	-2433
红点吗	-2434
跑毒跑	-2435
饲养员	-2436
▁不上车	-2437
▁你不是	-2438
▁啥时候	-2439
▁我今天	-2440
▁盒仙人	-2441
▁红点啊	-2442
▁这游戏	-2443
天命圈了	-2444
就可以了	-2445
换一级头	-2446
是老司机	-2447
有人开车	-2448
独宠小可	-2449
礼盒刷屏	-2450
自己开车	-2451
▁上车上车	-2452
▁不要开车	-2453
▁又开车了	-2454
▁天命圈啊	-2455
▁平地翻车	-2456
▁开车过去	-2457
▁有人开车	-2458
▁有摩托车	-2459
▁车技不错	-2460
▁这个车技	-2461
一个三级头	-2462
荧光棒上车	-2463
三级头三级甲	-2464
▁把把落地成盒	-2465
........	-2466
▁一本魔法书上车	-2467
(✪	-2468
-)	-2469
67	-2470
BI	-2471
▁H	-2472
▁N	-2473
▁❥	-2474
▁买	-2475
▁圈	-2476
▁搞	-2477
▁星	-2478
▁杀	-2479
一发	-2480
一只	-2481
上啊	-2482
不太	-2483
不得	-2484
叫啥	-2485
吃饭	-2486
哥们	-2487
学会	-2488
强行	-2489
得了	-2490
心态	-2491
憨憨	-2492
我一	-2493
战绩	-2494
打完	-2495
打法	-2496
掉分	-2497
提示	-2498
摄像	-2499
显示	-2500
毒里	-2501
猪头	-2502
百万	-2503
神仙	-2504
福利	-2505
耳机	-2506
莫名	-2507
+14	-2508
▁下次	-2509
▁你就	-2510
▁你还	-2511
▁快点	-2512
▁王哥	-2513
▁老王	-2514
▁肯定	-2515
▁隔壁	-2516
举报了	-2517
什么鬼	-2518
似开车	-2519
卡个小	-2520
开始了	-2521
急救包	-2522
有握把	-2523
炸鱼啊	-2524
烟雾弹	-2525
牌牌呗	-2526
的那种	-2527
跑毒啊	-2528
鱼塘局	-2529
1314	-2530
▁158	-2531
▁RNG	-2532
▁god	-2533
▁你这是	-2534
▁保镖的	-2535
▁开车压	-2536
▁开车吧	-2537
▁开车堵	-2538
▁感谢大	-2539
▁赠送了	-2540
▁还不如	-2541
✪)/{	-2542
个一级头	-2543
啊啊啊啊	-2544
在线开车	-2545
开装甲车	-2546
能量饮料	-2547
要上车吗	-2548
辆装甲车	-2549
都不知道	-2550
队友好菜	-2551
韭菜盒子	-2552
(^_-)	-2553
▁天天开车	-2554
▁感谢饲养员	-2555
个七夕礼盒真	-2556
卡个小牌牌呗	-2557
▁❥(^_-)	-2558
开车开车开车开车	-2559
27	-2560
ZA	-2561
pp	-2562
▁七	-2563
▁到	-2564
▁山	-2565
▁连	-2566
▁金	-2567
不信	-2568
乐胖	-2569
亚服	-2570
低调	-2571
保护	-2572
听到	-2573
吸引	-2574
唯一	-2575
外面	-2576
好几	-2577
就在	-2578
开到	-2579
恶心	-2580
我又	-2581
是吧	-2582
曾经	-2583
没看	-2584
爆炸	-2585
牛皮	-2586
甜甜	-2587
的事	-2588
真实	-2589
给您	-2590
菜的	-2591
要么	-2592
设置	-2593
辣条	-2594
迪安	-2595
里的	-2596
阿姨	-2597
+13	-2598
,(⊙	-2599
▁外面	-2600
▁弹幕	-2601
▁明明	-2602
▁等下	-2603
▁这车	-2604
▁雨墨	-2605
个握把	-2606
哥上车	-2607
在哪里	-2608
女主播	-2609
开船了	-2610
是保镖	-2611
比较好	-2612
红握把	-2613
红点啊	-2614
藏起来	-2615
!...	-2616
BIZA	-2617
▁awm	-2618
▁我开车	-2619
▁盒子有	-2620
▁要翻车	-2621
▁这开车	-2622
▁这红点	-2623
上车了吗	-2624
两个盒子	-2625
子的礼盒	-2626
开车找人	-2627
有什么用	-2628
瓶止痛药	-2629
级头不要	-2630
边开车边	-2631
送个礼盒	-2632
⋚╯...	-2633
▁别开车了	-2634
▁帝国干拉	-2635
▁这个礼盒	-2636
个礼盒亲亲	-2637
开车的时候	-2638
开车载音乐	-2639
???????	-2640
▁感谢社会我榜三	-2641
--	-2642
▁P	-2643
▁乖	-2644
▁叶	-2645
▁梦	-2646
▁言	-2647
▁鸡	-2648
不给	-2649
之后	-2650
任务	-2651
传说	-2652
你也	-2653
僵尸	-2654
光头	-2655
兰花	-2656
前十	-2657
去吧	-2658
命换	-2659
喇叭	-2660
大郎	-2661
姑娘	-2662
姿势	-2663
子上	-2664
子的	-2665
小妹	-2666
小盒	-2667
就死	-2668
忘了	-2669
忽悠	-2670
慢点	-2671
我有	-2672
打爆	-2673
找你	-2674
找到	-2675
拿到	-2676
本事	-2677
浮生	-2678
漂亮	-2679
现实	-2680
的么	-2681
秒了	-2682
空头	-2683
规范	-2684
连盒	-2685
送你	-2686
biu	-2687
▁你别	-2688
▁你把	-2689
▁妹子	-2690
▁强行	-2691
▁我看	-2692
▁我都	-2693
▁知道	-2694
▁等会	-2695
▁结果	-2696
▁考拉	-2697
▁虎粮	-2698
▁那边	-2699
一起玩	-2700
下来了	-2701
不适合	-2702
人上车	-2703
兰花指	-2704
关注了	-2705
发工资	-2706
告诉我	-2707
地盒子	-2708
没办法	-2709
的就是	-2710
送盒子	-2711
都不拿	-2712
▁找保镖	-2713
▁跑毒跑	-2714
▁这盒子	-2715
▁陈子豪	-2716
吉利服啊	-2717
在轰炸区	-2718
有个盒子	-2719
点点订阅	-2720
锤子握把	-2721
▁为什么我	-2722
▁半截握把	-2723
▁带我上车	-2724
▁感谢虎牙	-2725
▁直接开车	-2726
▁这三级头	-2727
天天炸鱼塘	-2728
把把天命圈	-2729
是落地成盒	-2730
送一个礼盒	-2731
都是天谴圈	-2732
▁新的二级头	-2733
而且我有证据	-2734
▁开车了开车了	-2735
谢谢社会我榜二	-2736
28	-2737
37	-2738
cc	-2739
ib	-2740
╰。	-2741
▁但	-2742
▁倒	-2743
▁右	-2744
▁孤	-2745
▁稳	-2746
▁臭	-2747
▁追	-2748
▁长	-2749
▁骗	-2750
、、	-2751
久生	-2752
他妈	-2753
再来	-2754
召唤	-2755
垃圾	-2756
多多	-2757
好点	-2758
对手	-2759
尴尬	-2760
开个	-2761
开裆	-2762
得住	-2763
快来	-2764
战术	-2765
换了	-2766
有车	-2767
某人	-2768
欺负	-2769
没钱	-2770
油桶	-2771
渣男	-2772
的了	-2773
的我	-2774
空中	-2775
笑了	-2776
等着	-2777
经验	-2778
计时	-2779
认真	-2780
路过	-2781
迷弟	-2782
追杀	-2783
选择	-2784
▁17	-2785
▁一盒	-2786
▁不然	-2787
▁专家	-2788
▁千里	-2789
▁只能	-2790
▁各位	-2791
▁我赌	-2792
▁每天	-2793
▁这人	-2794
▁连续	-2795
不一样	-2796
不翻车	-2797
久生情	-2798
别说话	-2799
就成盒	-2800
开裆裤	-2801
开车啦	-2802
怎么样	-2803
打不死	-2804
拆盒子	-2805
有一个	-2806
有舰队	-2807
炸鱼吗	-2808
看不见	-2809
看弹幕	-2810
能上树	-2811
自闭城	-2812
色为你	-2813
被封了	-2814
▁IKE	-2815
▁你应该	-2816
▁开船去	-2817
▁我发现	-2818
▁这个人	-2819
在炸鱼塘	-2820
日久生情	-2821
的大男孩	-2822
节目效果	-2823
鱼塘炸鱼	-2824
▁感谢礼盒	-2825
▁疑似开车	-2826
▁职业选手	-2827
个血瓶上车	-2828
新的二级头	-2829
的落地成盒	-2830
老板的礼盒	-2831
▁天天炸鱼塘	-2832
▁我也想上车	-2833
在跑毒的路上	-2834
▁开车注意安全	-2835
开裆裤的大男孩	-2836
,2	-2837
80	-2838
kw	-2839
pi	-2840
st	-2841
▁.	-2842
▁w	-2843
▁回	-2844
▁夜	-2845
▁改	-2846
▁滴	-2847
▁草	-2848
一堆	-2849
一楼	-2850
一百	-2851
三十	-2852
俄罗	-2853
刹车	-2854
剑士	-2855
医疗	-2856
去看	-2857
在这	-2858
女粉	-2859
好压	-2860
弹手	-2861
待会	-2862
快乐	-2863
想看	-2864
打你	-2865
掩体	-2866
新的	-2867
暖丶	-2868
有了	-2869
来啦	-2870
果冻	-2871
没开	-2872
没油	-2873
王子	-2874
的你	-2875
的盒	-2876
眼睛	-2877
确定	-2878
秀了	-2879
等下	-2880
系列	-2881
终极	-2882
翻了	-2883
能开	-2884
脑子	-2885
菜了	-2886
认识	-2887
都比	-2888
鲨鱼	-2889
▁一枪	-2890
▁不拿	-2891
▁为了	-2892
▁你又	-2893
▁你有	-2894
▁叫你	-2895
▁回去	-2896
▁实力	-2897
▁我不	-2898
▁我来	-2899
▁杀人	-2900
▁永远	-2901
▁给我	-2902
▁记得	-2903
▁还好	-2904
▁这些	-2905
也不要	-2906
俄罗斯	-2907
去开车	-2908
小学生	-2909
就翻车	-2910
托腮板	-2911
投弹手	-2912
换红点	-2913
最喜欢	-2914
的声音	-2915
车技术	-2916
陈子豪	-2917
高级盒	-2918
7911	-2919
▁你以为	-2920
▁你可以	-2921
▁你就是	-2922
▁保镖不	-2923
▁刷什么	-2924
▁包里有	-2925
▁学校霸	-2926
▁我记得	-2927
▁沐橙的	-2928
▁轰炸机	-2929
▁这个圈	-2930
不上车吗	-2931
不能开车	-2932
不要开车	-2933
哪个握把	-2934
抽盒子了	-2935
摩托车上	-2936
新二级头	-2937
能装红点	-2938
还有证据	-2939
▁为什么要	-2940
▁全程跑毒	-2941
▁差点翻车	-2942
▁开车直接	-2943
开车找人杀	-2944
有个二级头	-2945
落地成盒啊	-2946
▁为啥不开车	-2947
▁保镖房间号	-2948
▁怀疑你开车	-2949
▁榜一沐橙的	-2950
都是落地成盒	-2951
▁哈哈哈哈哈哈	-2952
▁谢谢大家的礼盒	-2953
哈哈哈哈哈哈哈哈	-2954
,3	-2955
▁(	-2956
▁得	-2957
▁成	-2958
▁整	-2959
▁爱	-2960
▁跳	-2961
▁黄	-2962
一本	-2963
上天	-2964
上路	-2965
不就	-2966
中了	-2967
关系	-2968
再说	-2969
几率	-2970
动员	-2971
千万	-2972
合格	-2973
夏天	-2974
头发	-2975
存存	-2976
小天	-2977
得一	-2978
徽章	-2979
手速	-2980
才会	-2981
早上	-2982
来着	-2983
棉花	-2984
楼顶	-2985
毒圈	-2986
波哥	-2987
火柴	-2988
燃烧	-2989
王者	-2990
用了	-2991
的很	-2992
究极	-2993
穿鞋	-2994
组队	-2995
续费	-2996
美女	-2997
老迪	-2998
视野	-2999
贴身	-3000
走一	-3001
还想	-3002
进入	-3003
连杀	-3004
UZI	-3005
▁一起	-3006
▁上面	-3007
▁乐胖	-3008
▁书声	-3009
▁从来	-3010
▁你咋	-3011
▁你没	-3012
▁你说	-3013
▁地上	-3014
▁大爷	-3015
▁快递	-3016
▁我一	-3017
▁校霸	-3018
▁看了	-3019
▁看来	-3020
▁看见	-3021
▁石头	-3022
▁雪地	-3023
一块钱	-3024
丶久伴	-3025
叫什么	-3026
好不好	-3027
就不会	-3028
怎么了	-3029
无敌了	-3030
有福利	-3031
棉花糖	-3032
毒死了	-3033
求上车	-3034
给队友	-3035
轰炸了	-3036
这么快	-3037
Jing	-3038
▁rng	-3039
▁不知道	-3040
▁保镖呢	-3041
▁等一个	-3042
▁红握把	-3043
不能上车	-3044
容易翻车	-3045
思念成盒	-3046
轰炸区的	-3047
队友开车	-3048
▁mini	-3049
▁三级头来	-3050
▁保镖今天	-3051
▁保镖保镖	-3052
▁开车主播	-3053
▁我在开车	-3054
▁死于翻车	-3055
▁疯狂开车	-3056
▁高级礼盒	-3057
中国队天命圈	-3058
▁第一人称开车	-3059
▁6666666	-3060
▁感谢社会我榜八	-3061
MP	-3062
Mr	-3063
Oh	-3064
YY	-3065
bg	-3066
ch	-3067
id	-3068
su	-3069
▁G	-3070
▁̆	-3071
▁伟	-3072
▁偷	-3073
▁冰	-3074
▁吴	-3075
▁国	-3076
▁帅	-3077
▁张	-3078
▁扔	-3079
▁李	-3080
▁熊	-3081
▁破	-3082
▁缺	-3083
▁远	-3084
▁野	-3085
▁青	-3086
一梦	-3087
上次	-3088
不亏	-3089
久帝	-3090
也行	-3091
买票	-3092
了么	-3093
二号	-3094
交往	-3095
你个	-3096
克力	-3097
利亚	-3098
到的	-3099
刷个	-3100
十个	-3101
十年	-3102
可怕	-3103
可怜	-3104
唱歌	-3105
圈边	-3106
宝盒	-3107
封烟	-3108
帽子	-3109
当然	-3110
换成	-3111
控制	-3112
改改	-3113
放心	-3114
水里	-3115
永伴	-3116
求人	-3117
求生	-3118
烂尾	-3119
玩过	-3120
的嘛	-3121
粉色	-3122
细节	-3123
致命	-3124
菜鸡	-3125
被扫	-3126
跑的	-3127
转移	-3128
这局	-3129
通宵	-3130
那人	-3131
那波	-3132
队伍	-3133
除非	-3134
非要	-3135
高速	-3136
鹰眼	-3137
arl	-3138
ibi	-3139
▁my	-3140
▁主要	-3141
▁包里	-3142
▁四排	-3143
▁我愿	-3144
▁房管	-3145
▁机场	-3146
▁注意	-3147
▁老婆	-3148
▁说了	-3149
▁输入	-3150
▁还没	-3151
▁阿伟	-3152
一开车	-3153
一样的	-3154
上电视	-3155
也超帅	-3156
保镖吧	-3157
保镖是	-3158
女朋友	-3159
好东西	-3160
巧克力	-3161
应该是	-3162
摄像头	-3163
没见过	-3164
牛逼啊	-3165
红点好	-3166
解释了	-3167
轰炸去	-3168
这样的	-3169
▁光头强	-3170
▁吃药药	-3171
▁咋上车	-3172
▁开车进	-3173
▁换红点	-3174
▁某主播	-3175
▁污污污	-3176
▁那个人	-3177
▁钞票枪	-3178
个吉利服	-3179
出钞票枪	-3180
在线翻车	-3181
宝图上车	-3182
是不可能	-3183
欢迎光临	-3184
永久上车	-3185
永久车位	-3186
牌快递员	-3187
66666	-3188
▁nuna	-3189
▁为什么不	-3190
▁刚刚那个	-3191
▁吉利服啊	-3192
▁开装甲车	-3193
▁开车找人	-3194
▁开车无疑	-3195
▁把三级头	-3196
▁来了来了	-3197
▁翻车翻车	-3198
▁这个盒子	-3199
今天没吃药	-3200
永伴棉花糖	-3201
▁你们在开车	-3202
▁可以上车不	-3203
▁把把天命圈	-3204
是一颗小虎牙	-3205
▁二级头都不要	-3206
▁我怀疑在开车	-3207
▁虎牙一号上车	-3208
可以拆拆高级礼盒	-3209
19	-3210
21	-3211
22	-3212
ID	-3213
Ow	-3214
TE	-3215
▁0	-3216
▁坑	-3217
▁完	-3218
▁每	-3219
▁淡	-3220
▁烟	-3221
▁苟	-3222
▁讲	-3223
一与	-3224
上来	-3225
上茶	-3226
了嘛	-3227
交警	-3228
似水	-3229
兰博	-3230
准心	-3231
出的	-3232
分段	-3233
卧槽	-3234
原来	-3235
吃了	-3236
哥的	-3237
基地	-3238
大法	-3239
头上	-3240
头盔	-3241
姨妈	-3242
娘们	-3243
存在	-3244
少了	-3245
就别	-3246
带的	-3247
弱了	-3248
微信	-3249
懵逼	-3250
所谓	-3251
挂逼	-3252
挑战	-3253
推荐	-3254
早就	-3255
是真	-3256
有为	-3257
杀的	-3258
武器	-3259
没得	-3260
活动	-3261
活着	-3262
火了	-3263
火车	-3264
猥琐	-3265
禮盒	-3266
装上	-3267
豆豆	-3268
越南	-3269
随心	-3270
随风	-3271
麻烦	-3272
▁??	-3273
▁不过	-3274
▁四号	-3275
▁大仓	-3276
▁好的	-3277
▁开门	-3278
▁是的	-3279
▁榜五	-3280
▁死亡	-3281
▁老哥	-3282
▁而且	-3283
▁艾瑞	-3284
▁要不	-3285
▁顺丰	-3286
上班了	-3287
主播的	-3288
乱开车	-3289
你不要	-3290
去炸鱼	-3291
可以上	-3292
干盒子	-3293
开车冲	-3294
怎么打	-3295
敢开车	-3296
是多少	-3297
来看你	-3298
柯一梦	-3299
檬小暖	-3300
没什么	-3301
烂尾楼	-3302
燃烧瓶	-3303
牌子吧	-3304
牌牌啦	-3305
要不要	-3306
还不是	-3307
这游戏	-3308
那里有	-3309
飞上去	-3310
高端局	-3311
▁三级包	-3312
▁你自己	-3313
▁又开始	-3314
▁干盒子	-3315
▁没吃药	-3316
▁给保镖	-3317
二级头好	-3318
你的车技	-3319
喜妹家的	-3320
地吉利服	-3321
带着盒子	-3322
怀疑你们	-3323
的盒子精	-3324
的老司机	-3325
给您上茶	-3326
落地盒子	-3327
队友真菜	-3328
▁????	-3329
▁主播开车	-3330
▁开车走了	-3331
▁这装甲车	-3332
人体描边挂	-3333
用什么握把	-3334
▁三级头不要	-3335
。。。。。。	-3336
▁他来了他来了	-3337
谢谢社会我榜一	-3338
▁感谢社会我榜九	-3339
++	-3340
ct	-3341
ve	-3342
▁=	-3343
▁f	-3344
▁l	-3345
▁゙	-3346
▁俩	-3347
▁初	-3348
▁加	-3349
▁哥	-3350
▁唉	-3351
▁托	-3352
▁收	-3353
▁流	-3354
▁电	-3355
▁苏	-3356
▁跑	-3357
▁过	-3358
三枪	-3359
上角	-3360
不烦	-3361
亲人	-3362
人生	-3363
人都	-3364
伏地	-3365
余生	-3366
你会	-3367
出门	-3368
切换	-3369
别的	-3370
叔叔	-3371
吃毒	-3372
吉普	-3373
啦啦	-3374
大气	-3375
天气	-3376
太快	-3377
宝马	-3378
少年	-3379
就像	-3380
就很	-3381
就打	-3382
平时	-3383
很少	-3384
战队	-3385
才有	-3386
打开	-3387
打我	-3388
把我	-3389
抓紧	-3390
提前	-3391
放弃	-3392
方向	-3393
机瞄	-3394
枪口	-3395
检测	-3396
欣姐	-3397
汤姆	-3398
洗脚	-3399
清楚	-3400
点了	-3401
狗冬	-3402
独狼	-3403
猴子	-3404
的呀	-3405
的那	-3406
皮卡	-3407
瞄准	-3408
第三	-3409
等于	-3410
紧张	-3411
罚款	-3412
肥龙	-3413
草垛	-3414
补偿	-3415
表示	-3416
走吧	-3417
轮胎	-3418
边上	-3419
问了	-3420
难道	-3421
504	-3422
IKE	-3423
SKS	-3424
▁12	-3425
▁你能	-3426
▁关键	-3427
▁刚哥	-3428
▁反向	-3429
▁告诉	-3430
▁回放	-3431
▁干嘛	-3432
▁建议	-3433
▁我刚	-3434
▁我靠	-3435
▁故意	-3436
▁教练	-3437
▁狙击	-3438
▁看着	-3439
▁瞎子	-3440
▁老托	-3441
▁老铁	-3442
▁订阅	-3443
▁这里	-3444
▁都不	-3445
一个月	-3446
不好吗	-3447
不炸鱼	-3448
丶球球	-3449
为致命	-3450
也没用	-3451
人四排	-3452
你不是	-3453
出舰队	-3454
小天盒	-3455
就喜欢	-3456
开船的	-3457
很正常	-3458
挺好的	-3459
是红点	-3460
本来就	-3461
没有了	-3462
烦不烦	-3463
的不是	-3464
过去了	-3465
过来了	-3466
Owen	-3467
▁不是说	-3468
▁主播你	-3469
▁保镖我	-3470
▁保镖说	-3471
▁先上车	-3472
▁坐车上	-3473
▁感谢天	-3474
▁我还没	-3475
▁沙漠图	-3476
▁要上车	-3477
▁送盒子	-3478
▁麻瓜龙	-3479
【504	-3480
一个红点	-3481
不开车了	-3482
为什么要	-3483
们的礼盒	-3484
会开车吗	-3485
八倍镜啊	-3486
吉利服的	-3487
天命圈都	-3488
开车过来	-3489
打成这样	-3490
是天命圈	-3491
普通礼盒	-3492
有个红点	-3493
游戏体验	-3494
的小姐姐	-3495
老司机了	-3496
辆摩托车	-3497
▁1000	-3498
▁你这车技	-3499
▁可以上车	-3500
▁开车了吗	-3501
▁盒仙人丶	-3502
不是天命圈	-3503
找不到证据	-3504
都是天命圈	-3505
▁怎么不开车	-3506
▁装甲车可以	-3507
▁轰炸区炸死	-3508
▁这把我看过	-3509
个礼盒真的是	-3510
可以装红点了	-3511
红点都压不住	-3512
▁怎么才能上车	-3513
▁感谢社会我榜十	-3514
保镖保镖保镖保镖	-3515
开船开船开船开船	-3516
▁哈哈哈哈哈哈哈哈	-3517
/{66/{66/{66	-3518
▁66666666666	-3519
,4	-3520
29	-3521
45	-3522
ce	-3523
▁)	-3524
▁a	-3525
▁y	-3526
▁分	-3527
▁咱	-3528
▁子	-3529
▁总	-3530
▁残	-3531
▁背	-3532
▁虎	-3533
一些	-3534
一年	-3535
一笑	-3536
下次	-3537
乌兹	-3538
亏了	-3539
仓鼠	-3540
但我	-3541
作用	-3542
你想	-3543
停车	-3544
全图	-3545
军事	-3546
几次	-3547
击杀	-3548
卤蛋	-3549
去哪	-3550
去打	-3551
团长	-3552
在手	-3553
在那	-3554
头了	-3555
好难	-3556
完全	-3557
屏幕	-3558
录像	-3559
很强	-3560
很稳	-3561
恐怖	-3562
慢慢	-3563
成为	-3564
战机	-3565
打过	-3566
扣分	-3567
挂壁	-3568
救人	-3569
明星	-3570
枪托	-3571
正义	-3572
玩啊	-3573
神秘	-3574
突突	-3575
老子	-3576
老托	-3577
老王	-3578
老鼠	-3579
行吗	-3580
西北	-3581
诺言	-3582
走啊	-3583
跟他	-3584
跟着	-3585
输了	-3586
这边	-3587
逗比	-3588
问你	-3589
飞车	-3590
麻将	-3591
233	-3592
ion	-3593
▁一路	-3594
▁公爵	-3595
▁别说	-3596
▁南南	-3597
▁可惜	-3598
▁呵呵	-3599
▁哎呀	-3600
▁妹妹	-3601
▁小蓝	-3602
▁希望	-3603
▁我擦	-3604
▁换个	-3605
▁权威	-3606
▁皮皮	-3607
▁端游	-3608
▁第二	-3609
▁老牛	-3610
▁表演	-3611
▁轿车	-3612
▁还能	-3613
▁门口	-3614
一会儿	-3615
一晚上	-3616
一枪头	-3617
不行吗	-3618
不需要	-3619
你是条	-3620
保镖啊	-3621
多少啊	-3622
学不会	-3623
寿命换	-3624
就上车	-3625
就是个	-3626
开车开	-3627
我喜欢	-3628
有问题	-3629
桌子上	-3630
的东西	-3631
的握把	-3632
的样子	-3633
礼盒了	-3634
能吃鸡	-3635
都知道	-3636
都这么	-3637
▁100	-3638
▁不跑毒	-3639
▁保镖没	-3640
▁凉凉夜	-3641
▁就喜欢	-3642
▁用红点	-3643
三轮摩托	-3644
不会减速	-3645
个止痛药	-3646
免费上车	-3647
南柯一梦	-3648
敬你是条	-3649
是三级头	-3650
的小哥哥	-3651
装甲车了	-3652
还是全息	-3653
都是一枪	-3654
鲸鱼家的	-3655
▁6.67	-3656
▁三级头呢	-3657
▁你三级头	-3658
▁开车走啊	-3659
▁盒子里面	-3660
▁这轰炸区	-3661
一直在跑毒	-3662
一辆装甲车	-3663
主播炸鱼塘	-3664
可以上车不	-3665
开车换座位	-3666
红点是什么	-3667
能不能上车	-3668
送七夕礼盒	-3669
▁开车不规范	-3670
▁开车找人杀	-3671
▁打个装甲车	-3672
小可爱的礼盒	-3673
▁盒盒盒盒盒盒盒盒盒盒	-3674
?!	-3675
AN	-3676
Mx	-3677
bb	-3678
▁d	-3679
▁́	-3680
▁做	-3681
▁像	-3682
▁八	-3683
▁六	-3684
▁双	-3685
▁地	-3686
▁弄	-3687
▁教	-3688
▁暖	-3689
▁油	-3690
▁瓜	-3691
▁装	-3692
▁赌	-3693
▁骚	-3694
一句	-3695
一手	-3696
一流	-3697
一脸	-3698
上山	-3699
不出	-3700
不大	-3701
不悔	-3702
不慌	-3703
个屁	-3704
之路	-3705
也比	-3706
二级	-3707
你开	-3708
你来	-3709
关了	-3710
到手	-3711
动的	-3712
北鼻	-3713
卡爷	-3714
去啊	-3715
咋办	-3716
嘤嘤	-3717
嚣张	-3718
图图	-3719
增加	-3720
大图	-3721
奔驰	-3722
小虎	-3723
就完	-3724
就想	-3725
带盒	-3726
带走	-3727
幸运	-3728
得快	-3729
心里	-3730
必要	-3731
怕你	-3732
打啊	-3733
掉血	-3734
搜索	-3735
撞人	-3736
是在	-3737
是最	-3738
更好	-3739
有用	-3740
本人	-3741
校长	-3742
梭子	-3743
死他	-3744
泰国	-3745
灭队	-3746
状态	-3747
独爱	-3748
环节	-3749
男的	-3750
看得	-3751
眼瞎	-3752
破产	-3753
科技	-3754
穿上	-3755
网吧	-3756
联系	-3757
脚下	-3758
脚步	-3759
自带	-3760
被偷	-3761
让人	-3762
记忆	-3763
蹦子	-3764
身上	-3765
身法	-3766
车了	-3767
轻情	-3768
还得	-3769
还稳	-3770
迷妹	-3771
退订	-3772
道理	-3773
领个	-3774
马路	-3775
486	-3776
556	-3777
Hsu	-3778
bor	-3779
▁一天	-3780
▁一次	-3781
▁三轮	-3782
▁不行	-3783
▁乐神	-3784
▁可是	-3785
▁基本	-3786
▁夏天	-3787
▁大锤	-3788
▁小图	-3789
▁打死	-3790
▁比赛	-3791
▁水里	-3792
▁真正	-3793
▁究极	-3794
▁终极	-3795
▁老嫖	-3796
▁自动	-3797
一级甲	-3798
下去了	-3799
不小心	-3800
两个人	-3801
仙女乔	-3802
你怎么	-3803
到最后	-3804
卡后缀	-3805
又来了	-3806
可以打	-3807
号炸鱼	-3808
和红点	-3809
喜欢用	-3810
在这里	-3811
坐船头	-3812
坐车上	-3813
坑队友	-3814
好用吗	-3815
姨妈巾	-3816
守不住	-3817
带节奏	-3818
开车来	-3819
开镜快	-3820
我觉得	-3821
描边挂	-3822
是怎么	-3823
汤姆逊	-3824
牛逼了	-3825
的问题	-3826
级头吗	-3827
西北风	-3828
认真的	-3829
那么快	-3830
Marl	-3831
boro	-3832
nuna	-3833
▁你上车	-3834
▁冲锋枪	-3835
▁开车按	-3836
▁我以为	-3837
▁我要看	-3838
▁来捧场	-3839
▁楼酱的	-3840
▁炸鱼了	-3841
▁言大师	-3842
个盒子精	-3843
买个游戏	-3844
二级头啊	-3845
吃药了吗	-3846
大妈上车	-3847
小号炸鱼	-3848
就上车了	-3849
带我上车	-3850
平地翻车	-3851
有点东西	-3852
炸鱼塘吧	-3853
电话轰炸	-3854
的吉利服	-3855
绝地求生	-3856
还是红点	-3857
都是盒子	-3858
48637	-3859
MrHsu	-3860
▁你是不是	-3861
▁保镖现在	-3862
▁又在开车	-3863
▁喝饮料啊	-3864
▁巴西老哥	-3865
▁怀疑开车	-3866
▁描边枪法	-3867
▁握把不要	-3868
一把天命圈	-3869
就落地成盒	-3870
开车切座位	-3871
牌子的宝贝	-3872
西北风军团	-3873
送快递去了	-3874
那个三级头	-3875
骑着摩托车	-3876
▁的七夕礼盒	-3877
▁第一个盒子	-3878
▁这个吉利服	-3879
▁送快递去了	-3880
▁送礼盒就有	-3881
▁顺丰快递员	-3882
看你落地成盒	-3883
▁动不动就开车	-3884
个平底锅么么哒	-3885
仙女乔的快递员	-3886
哈哈哈哈哈哈哈	-3887
我是一颗小虎牙	-3888
敬你是条盒子精	-3889
Marlboro	-3890
▁感谢社会我榜六	-3891
KD	-3892
VV	-3893
ip	-3894
ly	-3895
oy	-3896
vv	-3897
zZ	-3898
▁W	-3899
▁h	-3900
▁→	-3901
▁丶	-3902
▁努	-3903
▁周	-3904
▁接	-3905
▁欧	-3906
▁纸	-3907
▁绿	-3908
▁莫	-3909
▁落	-3910
▁西	-3911
▁话	-3912
▁雨	-3913
▁预	-3914
一打	-3915
一生	-3916
不玩	-3917
专门	-3918
久了	-3919
也会	-3920
二楼	-3921
人就	-3922
人工	-3923
会被	-3924
似的	-3925
住了	-3926
你去	-3927
其妙	-3928
匹配	-3929
原因	-3930
名山	-3931
够了	-3932
大仓	-3933
大包	-3934
大帅	-3935
大的	-3936
大锤	-3937
太多	-3938
太大	-3939
好不	-3940
安静	-3941
宝剑	-3942
家军	-3943
开门	-3944
很快	-3945
很难	-3946
想要	-3947
找个	-3948
把了	-3949
挨打	-3950
放的	-3951
故事	-3952
数据	-3953
有缘	-3954
杰哥	-3955
样的	-3956
歪着	-3957
毛线	-3958
求解	-3959
汽车	-3960
没啥	-3961
海里	-3962
玩意	-3963
盒里	-3964
睡了	-3965
碰到	-3966
祖传	-3967
秀啊	-3968
稳定	-3969
等你	-3970
至少	-3971
艾希	-3972
衣服	-3973
起步	-3974
车票	-3975
远了	-3976
送一	-3977
那一	-3978
阿杰	-3979
随机	-3980
集体	-3981
🇨🇳	-3982
TEL	-3983
ang	-3984
▁上把	-3985
▁五哥	-3986
▁再来	-3987
▁前十	-3988
▁卧槽	-3989
▁去拿	-3990
▁各种	-3991
▁哪个	-3992
▁大炮	-3993
▁子弹	-3994
▁小弟	-3995
▁开个	-3996
▁开局	-3997
▁楼梯	-3998
▁榜六	-3999
▁确实	-4000
▁第三	-4001
▁经常	-4002
▁老子	-4003
▁自带	-4004
▁需要	-4005
一个号	-4006
不吃鸡	-4007
丶为了	-4008
丶送的	-4009
了保镖	-4010
什么的	-4011
厉害啊	-4012
哪里有	-4013
在天上	-4014
太多了	-4015
容易被	-4016
开车呢	-4017
开车要	-4018
很厉害	-4019
捡空投	-4020
求交往	-4021
猪上树	-4022
直播了	-4023
礼轻情	-4024
秋名山	-4025
移动靶	-4026
级头换	-4027
训练赛	-4028
过分了	-4029
运动员	-4030
这不是	-4031
▁一个人	-4032
▁上车吗	-4033
▁上车就	-4034
▁上车要	-4035
▁俄罗斯	-4036
▁刷礼盒	-4037
▁带水友	-4038
▁开船啊	-4039
▁开车把	-4040
▁快开车	-4041
▁感谢快	-4042
▁感谢老	-4043
▁我昨天	-4044
▁盒子怪	-4045
▁盒永生	-4046
▁盒盒盒	-4047
▁直播间	-4048
▁苟排名	-4049
▁让保镖	-4050
▁这主播	-4051
▁这是个	-4052
上摩托车	-4053
为什么不	-4054
小虎宝宝	-4055
把摩托车	-4056
最为致命	-4057
本直播间	-4058
流年似水	-4059
红点全息	-4060
莫名其妙	-4061
贴身保镖	-4062
跑毒回放	-4063
送快递去	-4064
送快递吗	-4065
▁免费上车	-4066
▁咋上车啊	-4067
▁天命圈都	-4068
▁小妹上车	-4069
▁开车换位	-4070
▁打装甲车	-4071
▁有二级头	-4072
▁盒子指挥	-4073
▁红点没拿	-4074
▁被轰炸区	-4075
▁车技可以	-4076
▁这个主播	-4077
丶为了遇见	-4078
亲人两行泪	-4079
但是没证据	-4080
就可以上车	-4081
就可以获得	-4082
局落地成盒	-4083
没有三级头	-4084
独宠檬小暖	-4085
用轻型握把	-4086
那个开车的	-4087
▁决赛圈开车	-4088
▁女司机开车	-4089
▁摩托车来了	-4090
▁红点不要吗	-4091
这把落地成盒	-4092
!!!!!!!	-4093
▁三级头三级甲	-4094
▁我可以上车吗	-4095
拆拆高级礼盒呀	-4096
色为你思念成盒	-4097
谢谢社会我榜八	-4098
个平底锅亲亲抱抱	-4099
丶为了遇见你送的	-4100
大家可以拆拆高级礼盒	-4101
▁感谢莎莎丶为了遇见你送的	-4102
OK	-4103
TV	-4104
zz	-4105
··	-4106
▁北	-4107
▁宁	-4108
▁寻	-4109
▁杨	-4110
▁极	-4111
▁橙	-4112
▁河	-4113
▁爆	-4114
▁祝	-4115
▁超	-4116
▁迟	-4117
▁飘	-4118
一千	-4119
一路	-4120
不服	-4121
不管	-4122
中过	-4123
之敌	-4124
仇恨	-4125
你都	-4126
允许	-4127
准星	-4128
分之	-4129
到位	-4130
刷的	-4131
十二	-4132
单点	-4133
压住	-4134
压得	-4135
压死	-4136
变了	-4137
后坐	-4138
和平	-4139
啵啵	-4140
喝茶	-4141
大型	-4142
大花	-4143
学习	-4144
小图	-4145
就位	-4146
就出	-4147
师傅	-4148
干了	-4149
底下	-4150
开过	-4151
弹夹	-4152
影响	-4153
很好	-4154
快跑	-4155
想法	-4156
我还	-4157
打他	-4158
挂了	-4159
排面	-4160
揽件	-4161
新玥	-4162
明白	-4163
来说	-4164
楼上	-4165
死人	-4166
毛病	-4167
毫无	-4168
涛爷	-4169
温柔	-4170
游泳	-4171
烂了	-4172
物资	-4173
狗墨	-4174
猫咪	-4175
猫猫	-4176
生活	-4177
画面	-4178
留的	-4179
石锤	-4180
等我	-4181
精神	-4182
规矩	-4183
贼稳	-4184
还会	-4185
还敢	-4186
追梦	-4187
送出	-4188
都打	-4189
醒目	-4190
雪地	-4191
露脸	-4192
飙车	-4193
飞啊	-4194
鲁卡	-4195
,10	-4196
500	-4197
^_^	-4198
bgm	-4199
kun	-4200
▁16	-4201
▁Ar	-4202
▁。╯	-4203
▁一看	-4204
▁一群	-4205
▁三个	-4206
▁下把	-4207
▁他在	-4208
▁他说	-4209
▁僵尸	-4210
▁坐等	-4211
▁外国	-4212
▁就差	-4213
▁已经	-4214
▁平时	-4215
▁我没	-4216
▁有点	-4217
▁榜三	-4218
▁步枪	-4219
▁清风	-4220
▁狗子	-4221
▁等您	-4222
▁老外	-4223
▁这图	-4224
▁那些	-4225
▁那就	-4226
▁饮料	-4227
一个点	-4228
不及防	-4229
不拿吗	-4230
个小时	-4231
丶盒子	-4232
保安吗	-4233
倒计时	-4234
刷什么	-4235
刷起来	-4236
可以装	-4237
吃药啊	-4238
和全息	-4239
哪个好	-4240
哪去了	-4241
啊保镖	-4242
在车上	-4243
女司机	-4244
好久啦	-4245
小王子	-4246
小跟班	-4247
就这样	-4248
开摩托	-4249
开车送	-4250
当保镖	-4251
思大叔	-4252
换子弹	-4253
撞死了	-4254
是盒子	-4255
没握把	-4256
的跑毒	-4257
盒永生	-4258
笑死了	-4259
自己的	-4260
舒服了	-4261
请喝茶	-4262
走来了	-4263
跑圈了	-4264
轰炸他	-4265
过来的	-4266
这么稳	-4267
这么远	-4268
都不敢	-4269
问一下	-4270
😂😂😂	-4271
▁一级甲	-4272
▁你今天	-4273
▁应该是	-4274
▁开车有	-4275
▁开车来	-4276
▁开车送	-4277
▁怎么样	-4278
▁感谢星	-4279
▁我就是	-4280
▁描边挂	-4281
▁没红点	-4282
▁看保镖	-4283
▁维克托	-4284
▁说好的	-4285
什么意思	-4286
仓鼠球球	-4287
传说中的	-4288
八倍镜呢	-4289
军事基地	-4290
几个盒子	-4291
小黑盒查	-4292
帝国干拉	-4293
开车撞人	-4294
打三级头	-4295
把三级头	-4296
换二级头	-4297
新玥宝贝	-4298
有吉利服	-4299
比我红点	-4300
的礼盒哟	-4301
直接上车	-4302
看你开车	-4303
落地盒了	-4304
要开车了	-4305
跑运动员	-4306
轰炸区了	-4307
还有一个	-4308
都不要吗	-4309
随时上车	-4310
▁不用红点	-4311
▁四个盒子	-4312
▁学校霸主	-4313
▁开车技术	-4314
▁开车那个	-4315
▁快递员已	-4316
▁有装甲车	-4317
▁豪哥开车	-4318
▁还不跑毒	-4319
一直天命圈	-4320
一辆摩托车	-4321
人造轰炸区	-4322
涛爷老司机	-4323
要送快递了	-4324
▁一本魔法书	-4325
▁开车的时候	-4326
▁把把天谴圈	-4327
▁摩托车可以	-4328
▁榜二沐橙的	-4329
▁等您好久啦	-4330
▁落地成盒就	-4331
▁藏宝图上车	-4332
合格的快递员	-4333
▁老司机开车了	-4334
一言不合就开车	-4335
▁但是我没有证据	-4336
▁哈哈哈哈哈哈哈	-4337
▁6666666666	-4338
-【	-4339
90	-4340
BG	-4341
LR	-4342
TT	-4343
UG	-4344
XZ	-4345
it	-4346
oh	-4347
ye	-4348
▁J	-4349
▁丢	-4350
▁乔	-4351
▁暴	-4352
▁曼	-4353
▁浅	-4354
▁瞎	-4355
▁离	-4356
▁绝	-4357
▁行	-4358
▁起	-4359
▁迷	-4360
▁锤	-4361
▁韦	-4362
一块	-4363
下个	-4364
不对	-4365
两栖	-4366
买的	-4367
二十	-4368
亲密	-4369
优米	-4370
伙子	-4371
你妹	-4372
倒是	-4373
傻了	-4374
儿园	-4375
入魂	-4376
几乎	-4377
别墅	-4378
努力	-4379
十八	-4380
反应	-4381
取消	-4382
变盒	-4383
听风	-4384
咋不	-4385
四号	-4386
外卖	-4387
外国	-4388
大赛	-4389
太慢	-4390
封了	-4391
小孩	-4392
小胖	-4393
就叫	-4394
帅气	-4395
帮我	-4396
开哥	-4397
影子	-4398
彼岸	-4399
很大	-4400
快艇	-4401
想到	-4402
我只	-4403
房顶	-4404
所有	-4405
打靶	-4406
技巧	-4407
抖音	-4408
折腾	-4409
拳击	-4410
拿个	-4411
拿着	-4412
接你	-4413
提升	-4414
日落	-4415
最强	-4416
最近	-4417
有一	-4418
栓狙	-4419
次了	-4420
死啊	-4421
洋洋	-4422
海边	-4423
清风	-4424
滴血	-4425
灵魂	-4426
点的	-4427
熟悉	-4428
牌面	-4429
玩笑	-4430
生命	-4431
的都	-4432
看我	-4433
禁止	-4434
空调	-4435
累了	-4436
红包	-4437
老虎	-4438
能爆	-4439
花花	-4440
花钱	-4441
莱斯	-4442
萎神	-4443
萝卜	-4444
讨厌	-4445
讲究	-4446
走的	-4447
逍遥	-4448
都开	-4449
铁盒	-4450
颜值	-4451
飞的	-4452
～～	-4453
189	-4454
car	-4455
▁一号	-4456
▁一堆	-4457
▁不给	-4458
▁世界	-4459
▁你家	-4460
▁努尤	-4461
▁千万	-4462
▁存存	-4463
▁宝贝	-4464
▁屏幕	-4465
▁带着	-4466
▁怎样	-4467
▁我只	-4468
▁我这	-4469
▁来来	-4470
▁榜四	-4471
▁欣姐	-4472
▁波哥	-4473
▁瞬间	-4474
▁祖传	-4475
▁能量	-4476
▁自从	-4477
▁花花	-4478
▁虽然	-4479
▁让他	-4480
▁越南	-4481
▁还想	-4482
▁这都	-4483
▁飞机	-4484
▁高手	-4485
一梭子	-4486
上车啦	-4487
不存在	-4488
个绷带	-4489
书上车	-4490
二级包	-4491
会上树	-4492
到现在	-4493
削弱了	-4494
发子弹	-4495
叔送的	-4496
吃鸡的	-4497
后坐力	-4498
咋回事	-4499
嘤嘤嘤	-4500
太秀了	-4501
就算了	-4502
带你飞	-4503
干什么	-4504
幼儿园	-4505
开车带	-4506
开飞机	-4507
成盒草	-4508
我就是	-4509
我给你	-4510
杀吃鸡	-4511
来一波	-4512
棒棒糖	-4513
没油了	-4514
炸鱼呢	-4515
然开车	-4516
的兄弟	-4517
看到你	-4518
级牌子	-4519
老开车	-4520
菜队友	-4521
被爆头	-4522
车技粉	-4523
都不用	-4524
飞过去	-4525
骑摩托	-4526
▁UZI	-4527
▁一来就	-4528
▁上树了	-4529
▁主要是	-4530
▁二级甲	-4531
▁坐车里	-4532
▁大家好	-4533
▁太难了	-4534
▁开车都	-4535
▁我刚刚	-4536
▁我每次	-4537
▁我知道	-4538
▁我给你	-4539
▁我还是	-4540
▁握把啊	-4541
▁烂尾楼	-4542
▁的礼盒	-4543
▁红点好	-4544
▁红点是	-4545
▁谢谢三	-4546
▁这么远	-4547
▁这才是	-4548
一直开车	-4549
上车上车	-4550
你是不是	-4551
八白羊丶	-4552
别人开车	-4553
又成盒了	-4554
反向吃鸡	-4555
吉利服吗	-4556
呜呜呜呜	-4557
地的盒子	-4558
好多礼盒	-4559
开出战舰	-4560
开车走了	-4561
来送快递	-4562
炸鱼塘啊	-4563
爆二级头	-4564
留的回忆	-4565
疯狂开车	-4566
白的礼盒	-4567
的礼盒儿	-4568
盒子精了	-4569
看到日落	-4570
红点压枪	-4571
车技不行	-4572
这个车技	-4573
▁上车什么	-4574
▁不会开车	-4575
▁他在开车	-4576
▁好好开车	-4577
▁巴西开车	-4578
▁感谢榜二	-4579
▁我还以为	-4580
▁抽礼盒啦	-4581
▁没人上车	-4582
▁翻车了吧	-4583
▁能上车么	-4584
▁落地盒子	-4585
但没有证据	-4586
好的三级头	-4587
小号炸鱼塘	-4588
开车把自己	-4589
我还有证据	-4590
是什么意思	-4591
来个天命圈	-4592
落地成盒子	-4593
起来喝药了	-4594
▁你在开车吗	-4595
▁你的三级头	-4596
▁我能上车吗	-4597
▁老司机翻车	-4598
▁这个二级头	-4599
个七夕礼盒辛	-4600
乐的盒子送的	-4601
人体描边大师	-4602
就是落地成盒	-4603
本魔法书上车	-4604
感谢社会我榜一	-4605
▁感谢榜八白羊丶	-4606
▁敬你是条盒子精	-4607
▁落地成盒坑队友	-4608
▁我怀疑主播在开车	-4609
▁感谢快乐的盒子送的	-4610
23	-4611
65	-4612
?、	-4613
MX	-4614
NB	-4615
SO	-4616
co	-4617
eZ	-4618
em	-4619
hq	-4620
la	-4621
lo	-4622
lr	-4623
ry	-4624
sy	-4625
um	-4626
up	-4627
▁:	-4628
▁Q	-4629
▁以	-4630
▁妈	-4631
▁寒	-4632
▁怕	-4633
▁报	-4634
▁敢	-4635
▁旺	-4636
▁晚	-4637
▁毛	-4638
▁沙	-4639
▁浪	-4640
▁留	-4641
▁若	-4642
▁豪	-4643
▁躲	-4644
▁邪	-4645
▁靠	-4646
三分	-4647
三号	-4648
不刷	-4649
不知	-4650
不稳	-4651
丶何	-4652
丶无	-4653
主动	-4654
了两	-4655
二倍	-4656
人才	-4657
仓库	-4658
伏特	-4659
优势	-4660
会有	-4661
你打	-4662
兔子	-4663
初心	-4664
到底	-4665
动作	-4666
十万	-4667
卡了	-4668
发了	-4669
可可	-4670
吉大	-4671
哭了	-4672
喊你	-4673
四差	-4674
团灭	-4675
国家	-4676
大队	-4677
嫌弃	-4678
完毕	-4679
家里	-4680
小了	-4681
小哥	-4682
小弟	-4683
就说	-4684
得好	-4685
德伟	-4686
心愿	-4687
惹他	-4688
意识	-4689
意重	-4690
成年	-4691
所欲	-4692
才行	-4693
打包	-4694
挺好	-4695
换个	-4696
改了	-4697
是一	-4698
是要	-4699
智商	-4700
本来	-4701
果果	-4702
格南	-4703
模糊	-4704
比你	-4705
没车	-4706
泡面	-4707
温情	-4708
满了	-4709
特写	-4710
白天	-4711
的锅	-4712
盒的	-4713
直男	-4714
着了	-4715
立马	-4716
简直	-4717
精英	-4718
耐久	-4719
耳朵	-4720
背锅	-4721
能不	-4722
自雷	-4723
艾瑞	-4724
蚂蚁	-4725
补票	-4726
说不	-4727
贵宾	-4728
超过	-4729
趴下	-4730
趴着	-4731
过客	-4732
过河	-4733
近点	-4734
还说	-4735
这波	-4736
退役	-4737
都得	-4738
都炸	-4739
都被	-4740
配合	-4741
醉了	-4742
针对	-4743
高了	-4744
250	-4745
800	-4746
SLR	-4747
cod	-4748
▁上班	-4749
▁严重	-4750
▁云端	-4751
▁人体	-4752
▁全部	-4753
▁八倍	-4754
▁公公	-4755
▁几个	-4756
▁几点	-4757
▁十个	-4758
▁厉害	-4759
▁哎呦	-4760
▁四个	-4761
▁寻欢	-4762
▁待会	-4763
▁德国	-4764
▁必须	-4765
▁怪兽	-4766
▁我用	-4767
▁或者	-4768
▁房子	-4769
▁手枪	-4770
▁手游	-4771
▁早点	-4772
▁曾经	-4773
▁有车	-4774
▁标题	-4775
▁榜十	-4776
▁猛男	-4777
▁现场	-4778
▁白天	-4779
▁礼物	-4780
▁繁华	-4781
▁美国	-4782
▁老七	-4783
▁走了	-4784
▁辛苦	-4785
▁还不	-4786
▁还要	-4787
▁邪夜	-4788
▁除非	-4789
▁难道	-4790
▁马路	-4791
一下吗	-4792
不可以	-4793
不好用	-4794
不就是	-4795
个锤子	-4796
也没有	-4797
你以为	-4798
你可以	-4799
你这样	-4800
又不是	-4801
可以带	-4802
吉大利	-4803
啥上车	-4804
四差一	-4805
地成盒	-4806
坐车里	-4807
头保安	-4808
好用啊	-4809
好看的	-4810
小心点	-4811
小礼物	-4812
就这么	-4813
帮专属	-4814
开挂了	-4815
开船走	-4816
开车么	-4817
怎么没	-4818
情况下	-4819
我感觉	-4820
房间里	-4821
所欲为	-4822
打不了	-4823
拳击馆	-4824
按喇叭	-4825
捡不到	-4826
握把啊	-4827
是因为	-4828
染宝宝	-4829
沙漠图	-4830
的感觉	-4831
的盒饭	-4832
穷吃鸡	-4833
结束了	-4834
行不行	-4835
跑毒被	-4836
跟保镖	-4837
这么久	-4838
进不去	-4839
追人杀	-4840
那个包	-4841
都不捡	-4842
都没了	-4843
ctor	-4844
▁。。。	-4845
▁为啥不	-4846
▁你刚才	-4847
▁保镖也	-4848
▁保镖好	-4849
▁多少钱	-4850
▁好久没	-4851
▁开车开	-4852
▁我怎么	-4853
▁我看到	-4854
▁有开车	-4855
▁没握把	-4856
▁炸鱼吗	-4857
▁秀车技	-4858
▁第一把	-4859
▁红点的	-4860
▁能上车	-4861
▁菜队友	-4862
▁车技好	-4863
▁音乐盒	-4864
一枪一个	-4865
不是有个	-4866
也是一枪	-4867
二级头了	-4868
优米的盒	-4869
保镖厉害	-4870
听你开车	-4871
喝饮料的	-4872
天命圈吗	-4873
就是开车	-4874
巴西老哥	-4875
怎么设置	-4876
描边大师	-4877
死于轰炸	-4878
猝不及防	-4879
的骨灰盒	-4880
老板上车	-4881
还在跑毒	-4882
都压不住	-4883
Ibiza	-4884
codeZ	-4885
▁九菜盒子	-4886
▁他开车了	-4887
▁八倍镜啊	-4888
▁吉利服呢	-4889
▁在线开车	-4890
▁在线翻车	-4891
▁大师上车	-4892
▁好多盒子	-4893
▁开车跑了	-4894
▁怀疑你们	-4895
▁摩托车啊	-4896
▁有个盒子	-4897
▁没三级头	-4898
▁现在礼盒	-4899
▁直角握把	-4900
▁红点妹控	-4901
▁韭菜盒子	-4902
一个平底锅	-4903
不要吉利服	-4904
丶何叔送的	-4905
什么握把好	-4906
千里送快递	-4907
就是在开车	-4908
忘记吃药了	-4909
是个老司机	-4910
暖丶四差一	-4911
没有天命圈	-4912
狗冬帮专属	-4913
的人体描边	-4914
礼轻情意重	-4915
被轰炸区炸	-4916
边开车一边	-4917
▁IBIZA	-4918
▁三级头一枪	-4919
▁不是三级头	-4920
▁开车切座位	-4921
▁怎么上车呀	-4922
▁没有三级头	-4923
▁盒子指挥官	-4924
▁落地成盒吧	-4925
▁送七夕礼盒	-4926
▁都是老司机	-4927
虎牙一号上车	-4928
▁吉利服不要吗	-4929
骑着摩托车来了	-4930
▁一个礼盒卡牌子	-4931
▁谢谢老板的礼盒	-4932
狗冬帮专属牌牌啦	-4933
的礼盒就可以获得	-4934
▁感谢榜二丶何叔送的	-4935
▁我怀疑你在开车但是我没有证据	-4936
的礼盒就可以获得狗冬帮专属牌牌啦	-4937
4,	-4938
?,	-4939
BB	-4940
IP	-4941
Ly	-4942
VS	-4943
YG	-4944
at	-4945
ei	-4946
ev	-4947
zh	-4948
▁东	-4949
▁何	-4950
▁傻	-4951
▁冷	-4952
▁压	-4953
▁吓	-4954
▁君	-4955
▁富	-4956
▁常	-4957
▁您	-4958
▁机	-4959
▁此	-4960
▁爬	-4961
▁笑	-4962
▁筱	-4963
▁组	-4964
▁舞	-4965
▁英	-4966
▁警	-4967
▁雷	-4968
▁顶	-4969
一圈	-4970
一时	-4971
一算	-4972
上把	-4973
下了	-4974
不停	-4975
不叫	-4976
主要	-4977
九八	-4978
也别	-4979
书生	-4980
五哥	-4981
交车	-4982
从不	-4983
你别	-4984
你又	-4985
便宜	-4986
先森	-4987
出过	-4988
即将	-4989
只为	-4990
右眼	-4991
听见	-4992
哪有	-4993
喝了	-4994
喝水	-4995
四处	-4996
圈里	-4997
堵门	-4998
奈何	-4999
奈斯	-5000
妖精	-5001
学的	-5002
家伙	-5003
宿舍	-5004
帅了	-5005
幸福	-5006
德国	-5007
恩蓝	-5008
情人	-5009
我说	-5010
才叫	-5011
打一	-5012
打个	-5013
打头	-5014
打野	-5015
执法	-5016
扫人	-5017
扫车	-5018
找死	-5019
把他	-5020
抽到	-5021
拥有	-5022
拿来	-5023
掐指	-5024
提醒	-5025
放大	-5026
教学	-5027
无语	-5028
时刻	-5029
是假	-5030
暗号	-5031
暴露	-5032
最爱	-5033
月入	-5034
有些	-5035
来点	-5036
枪线	-5037
毕竟	-5038
气不	-5039
淡的	-5040
漂移	-5041
熙毒	-5042
爱了	-5043
爱吃	-5044
牛奶	-5045
瓜皮	-5046
生石	-5047
男神	-5048
番茄	-5049
疯了	-5050
百米	-5051
的不	-5052
盒套	-5053
着点	-5054
知秋	-5055
祖宗	-5056
精彩	-5057
给人	-5058
老阴	-5059
脾气	-5060
腿哥	-5061
芬兰	-5062
蓝洞	-5063
血量	-5064
试过	-5065
诗恒	-5066
谁了	-5067
谨慎	-5068
赛季	-5069
走着	-5070
过海	-5071
迷茫	-5072
部分	-5073
金豆	-5074
锅锅	-5075
队员	-5076
防区	-5077
随缘	-5078
静静	-5079
饭盒	-5080
鸡毛	-5081
🚃🚃	-5082
199	-5083
249	-5084
fpp	-5085
hia	-5086
ohn	-5087
shi	-5088
son	-5089
▁99	-5090
▁一生	-5091
▁万分	-5092
▁三号	-5093
▁下午	-5094
▁下班	-5095
▁乌兹	-5096
▁他要	-5097
▁以为	-5098
▁你个	-5099
▁你去	-5100
▁你好	-5101
▁冰冰	-5102
▁叫他	-5103
▁喝酒	-5104
▁垂直	-5105
▁堵桥	-5106
▁好了	-5107
▁就算	-5108
▁快去	-5109
▁找个	-5110
▁无形	-5111
▁曼妮	-5112
▁柠檬	-5113
▁桥上	-5114
▁榜七	-5115
▁没钱	-5116
▁满血	-5117
▁王者	-5118
▁看您	-5119
▁真就	-5120
▁竟然	-5121
▁给他	-5122
▁老二	-5123
▁舰队	-5124
▁蓝洞	-5125
▁话说	-5126
▁那天	-5127
▁难得	-5128
一上车	-5129
一小时	-5130
一次性	-5131
一辈子	-5132
不吃药	-5133
伏地魔	-5134
但是我	-5135
倍镜吗	-5136
倍镜在	-5137
再也不	-5138
准备好	-5139
半小时	-5140
压死了	-5141
受不了	-5142
变成了	-5143
叙利亚	-5144
吃药啦	-5145
呆中的	-5146
和礼盒	-5147
啥意思	-5148
嘿嘿嘿	-5149
坐飞机	-5150
大帅逼	-5151
好意思	-5152
子弹了	-5153
安全带	-5154
就不是	-5155
就是你	-5156
就没有	-5157
已上线	-5158
带保镖	-5159
开出来	-5160
开车呀	-5161
恩蓝儿	-5162
想看你	-5163
拿出来	-5164
搜东西	-5165
是保安	-5166
是跑毒	-5167
最好的	-5168
有啥用	-5169
有船啊	-5170
求你了	-5171
炸鱼吧	-5172
甜盒子	-5173
男朋友	-5174
百分之	-5175
盒子上	-5176
看不懂	-5177
看主播	-5178
看直播	-5179
睡觉了	-5180
神秘人	-5181
级头的	-5182
脸上了	-5183
让我们	-5184
跑毒吗	-5185
跑毒吧	-5186
边有船	-5187
这个人	-5188
进去了	-5189
送礼物	-5190
那个人	-5191
都一样	-5192
降正义	-5193
马格南	-5194
OnLy	-5195
nice	-5196
▁SKS	-5197
▁会开车	-5198
▁你红点	-5199
▁凉凉月	-5200
▁叶老师	-5201
▁开车追	-5202
▁我严重	-5203
▁我也是	-5204
▁我红点	-5205
▁要不要	-5206
▁谢谢我	-5207
▁跑毒啦	-5208
▁还有个	-5209
▁这个图	-5210
▁这兄弟	-5211
▁远子哥	-5212
▁鱼塘局	-5213
一个握把	-5214
一级头了	-5215
上车的吗	-5216
不上车了	-5217
个八倍镜	-5218
为所欲为	-5219
和止痛药	-5220
在炸鱼吗	-5221
在线成盒	-5222
好好开车	-5223
娱乐主播	-5224
子弹不够	-5225
开船走了	-5226
开船飞啊	-5227
开车到处	-5228
开车技术	-5229
开车换位	-5230
开车跑了	-5231
怎么可能	-5232
总的礼盒	-5233
我就知道	-5234
把把成盒	-5235
掐指一算	-5236
明明家的	-5237
是摩托车	-5238
独爱甜甜	-5239
现在开车	-5240
的天命圈	-5241
维恩蓝儿	-5242
胖胖小胖	-5243
臭大帅逼	-5244
视角开车	-5245
IBIZA	-5246
▁一进来就	-5247
▁万分感谢	-5248
▁你又开车	-5249
▁你的红点	-5250
▁保镖在哪	-5251
▁保镖来了	-5252
▁公然开车	-5253
▁原地翻车	-5254
▁天命圈来	-5255
▁天命圈没	-5256
▁开车了啊	-5257
▁开车堵门	-5258
▁强行开车	-5259
▁快跑毒吧	-5260
▁我怀疑他	-5261
▁摩托车上	-5262
▁收过路费	-5263
▁有吉利服	-5264
▁看您成盒	-5265
▁看看人家	-5266
▁红点好用	-5267
▁能上车嘛	-5268
▁能量饮料	-5269
▁装甲车都	-5270
▁谁在开车	-5271
【504】	-5272
二级头一枪	-5273
你们在开车	-5274
可以上车了	-5275
可以上车嘛	-5276
呆中的老鼠	-5277
忽吹牌子吧	-5278
来送快递的	-5279
老司机求带	-5280
还有个盒子	-5281
vector	-5282
▁一直在跑毒	-5283
▁主播开车了	-5284
▁半截式握把	-5285
▁可以上车么	-5286
▁怎么上车的	-5287
▁战舰有福利	-5288
▁这个三级头	-5289
▁这个轰炸区	-5290
▁这局我看过	-5291
▁长跑运动员	-5292
胖胖胖胖小胖	-5293
落地就成盒了	-5294
鲸鱼家的活着	-5295
▁吉利服不要嘛	-5296
▁吉利服都不要	-5297
▁怎么可以上车	-5298
▁老司机翻车了	-5299
。。。。。。。	-5300
一个礼盒卡牌子	-5301
感谢社会我榜二	-5302
明明家的巧克力	-5303
臭大帅逼独爱甜甜	-5304
▁感谢起风了丶艾希	-5305
▁穿开裆裤的大男孩	-5306
个平底锅真的是厉害	-5307
▁感谢我是一颗小虎牙	-5308
,1	-5309
36	-5310
77	-5311
Hc	-5312
TM	-5313
__	-5314
ao	-5315
ob	-5316
‘’	-5317
▁Z	-5318
▁[	-5319
▁j	-5320
▁k	-5321
▁o	-5322
▁中	-5323
▁作	-5324
▁保	-5325
▁信	-5326
▁冲	-5327
▁切	-5328
▁刘	-5329
▁卖	-5330
▁咦	-5331
▁哟	-5332
▁壹	-5333
▁屋	-5334
▁帝	-5335
▁必	-5336
▁毒	-5337
▁生	-5338
▁盈	-5339
▁转	-5340
一大	-5341
三人	-5342
上岸	-5343
下把	-5344
下的	-5345
丝血	-5346
个圈	-5347
丫头	-5348
书声	-5349
了呀	-5350
体质	-5351
你妈	-5352
你玩	-5353
做人	-5354
全靠	-5355
几局	-5356
别说	-5357
削了	-5358
又来	-5359
合适	-5360
咋了	-5361
嘟嘟	-5362
回国	-5363
圈外	-5364
夏欣	-5365
大战	-5366
大白	-5367
天悦	-5368
好人	-5369
子丶	-5370
学学	-5371
射击	-5372
尔兰	-5373
就去	-5374
就差	-5375
就算	-5376
就被	-5377
尸体	-5378
尸鬼	-5379
差评	-5380
带他	-5381
带妹	-5382
年轻	-5383
废了	-5384
徐坤	-5385
怀念	-5386
怪圈	-5387
意义	-5388
意外	-5389
感受	-5390
成了	-5391
我上	-5392
我没	-5393
我玩	-5394
打到	-5395
拯救	-5396
控圈	-5397
播了	-5398
教你	-5399
无视	-5400
日月	-5401
昊昊	-5402
是没	-5403
晕车	-5404
暖床	-5405
最多	-5406
最少	-5407
最帅	-5408
楼梯	-5409
模拟	-5410
死在	-5411
没见	-5412
焊死	-5413
狗子	-5414
狮子	-5415
现了	-5416
理由	-5417
疯癫	-5418
科学	-5419
秒杀	-5420
窒息	-5421
笨蛋	-5422
红了	-5423
结局	-5424
老六	-5425
考虑	-5426
聊天	-5427
肌肉	-5428
背包	-5429
蓝色	-5430
证明	-5431
误造	-5432
走起	-5433
蹲着	-5434
车祸	-5435
边走	-5436
过的	-5437
还用	-5438
连狙	-5439
那把	-5440
问问	-5441
靶子	-5442
马枪	-5443
鱼哥	-5444
黄色	-5445
+29	-5446
,98	-5447
400	-5448
724	-5449
UMP	-5450
dpi	-5451
eng	-5452
ero	-5453
olo	-5454
▁25	-5455
▁30	-5456
▁一级	-5457
▁万一	-5458
▁不不	-5459
▁不如	-5460
▁不换	-5461
▁也是	-5462
▁伤害	-5463
▁你也	-5464
▁全场	-5465
▁去捡	-5466
▁又在	-5467
▁啵啵	-5468
▁垃圾	-5469
▁夕阳	-5470
▁如何	-5471
▁完美	-5472
▁对啊	-5473
▁就这	-5474
▁带妹	-5475
▁开着	-5476
▁微博	-5477
▁我怕	-5478
▁我打	-5479
▁我玩	-5480
▁技术	-5481
▁拿了	-5482
▁敌人	-5483
▁新手	-5484
▁无脑	-5485
▁早上	-5486
▁染宝	-5487
▁榜九	-5488
▁比我	-5489
▁炸炸	-5490
▁猪猪	-5491
▁盈博	-5492
▁看他	-5493
▁真实	-5494
▁空降	-5495
▁纸巾	-5496
▁绝对	-5497
▁美女	-5498
▁老拖	-5499
▁舔包	-5500
▁虎子	-5501
▁说不	-5502
▁蹦蹦	-5503
▁这次	-5504
▁迪安	-5505
一只小	-5506
一时爽	-5507
一盒烟	-5508
一直爽	-5509
一级防	-5510
中心点	-5511
也不是	-5512
习惯了	-5513
了半天	-5514
云玩家	-5515
亲密度	-5516
会翻车	-5517
你还是	-5518
倍镜压	-5519
元一盒	-5520
兄弟萌	-5521
全息啊	-5522
出战机	-5523
出火锅	-5524
到几点	-5525
可以不	-5526
吃鸡吗	-5527
哪来的	-5528
啊啊啊	-5529
大主播	-5530
大魔王	-5531
好几个	-5532
安全区	-5533
就一个	-5534
就完了	-5535
带队友	-5536
开船啊	-5537
开车没	-5538
很重要	-5539
怎么压	-5540
怕不是	-5541
打红点	-5542
抢空投	-5543
无后座	-5544
比垂直	-5545
浪费了	-5546
点礼盒	-5547
的保安	-5548
皮卡多	-5549
看见了	-5550
礼物不	-5551
礼盒啊	-5552
给你们	-5553
维克多	-5554
翻车啊	-5555
翻车车	-5556
蔡徐坤	-5557
被炸死	-5558
谁知道	-5559
豆豆的	-5560
跟红点	-5561
轰炸圈	-5562
运气好	-5563
还有人	-5564
这么好	-5565
那么远	-5566
都不带	-5567
风送的	-5568
食尸鬼	-5569
,,,,	-5570
1100	-5571
▁189	-5572
▁300	-5573
▁528	-5574
▁AzZ	-5575
▁主播是	-5576
▁保镖太	-5577
▁信号枪	-5578
▁刷礼物	-5579
▁吃药啊	-5580
▁喊保镖	-5581
▁感谢一	-5582
▁感谢爱	-5583
▁我估计	-5584
▁我就想	-5585
▁我想看	-5586
▁把保镖	-5587
▁有什么	-5588
▁炸鱼吧	-5589
▁现在是	-5590
▁说实话	-5591
▁谁知道	-5592
▁车技太	-5593
▁轰炸去	-5594
▁还记得	-5595
▁这队友	-5596
▁那么多	-5597
▁雪地图	-5598
三级头甲	-5599
不会翻车	-5600
不用全息	-5601
丶小保镖	-5602
丶的礼盒	-5603
主播炸鱼	-5604
倍镜不要	-5605
单人四排	-5606
叫大镖客	-5607
吉利服呢	-5608
和平精英	-5609
哥哥超帅	-5610
开挂炸鱼	-5611
开车过去	-5612
打装甲车	-5613
是什么鬼	-5614
是天谴圈	-5615
是快递员	-5616
是真的秀	-5617
是轰炸区	-5618
月入百万	-5619
有三级甲	-5620
炸鱼塘吗	-5621
的轰炸区	-5622
红点红点	-5623
能上车么	-5624
虎粮上车	-5625
蚂蚁上树	-5626
赤脚开车	-5627
赶紧上车	-5628
距离红点	-5629
还不上车	-5630
这样开车	-5631
进决赛圈	-5632
▁人工轰炸	-5633
▁你的车技	-5634
▁保镖直播	-5635
▁别开车啊	-5636
▁反向跑圈	-5637
▁可以开车	-5638
▁吉利服是	-5639
▁大吉大利	-5640
▁大家可以	-5641
▁宝图上车	-5642
▁开车去撞	-5643
▁开车撞人	-5644
▁开车的是	-5645
▁怎么感觉	-5646
▁感谢大哥	-5647
▁感谢老板	-5648
▁我就喜欢	-5649
▁摩托车的	-5650
▁晚上开车	-5651
▁死于开车	-5652
▁火箭上车	-5653
▁穿吉利服	-5654
▁第一个包	-5655
▁红点全息	-5656
▁红点红点	-5657
▁跑毒游戏	-5658
▁还是保镖	-5659
▁这二级头	-5660
一个装甲车	-5661
一直在开车	-5662
不是三级头	-5663
不落地成盒	-5664
决赛圈开车	-5665
子丶棒棒糖	-5666
用垂直握把	-5667
看不下去了	-5668
老铁的礼盒	-5669
落地成盒吧	-5670
误造老司机	-5671
钞票枪上车	-5672
▁?????	-5673
▁Ibiza	-5674
▁二十个礼盒	-5675
▁大哥的礼盒	-5676
▁大师要上车	-5677
▁大郎吃药了	-5678
▁好的三级头	-5679
▁现在有舰队	-5680
▁现在装甲车	-5681
▁盒子别说话	-5682
▁盒子里面有	-5683
▁红点都不要	-5684
▁轰炸区爱你	-5685
▁还是一级头	-5686
不用垂直握把	-5687
开落地成盒挂	-5688
我又没有证据	-5689
我怀疑你开车	-5690
有好的二级头	-5691
▁但我没有证据	-5692
▁可以送快递了	-5693
▁感觉你在开车	-5694
▁我还没上车呢	-5695
▁空降本直播间	-5696
被轰炸区炸死了	-5697
谢谢社会我榜三	-5698
谢谢社会我榜九	-5699
▁保镖直播间多少	-5700
▁感谢社会我榜五	-5701
穿开裆裤的大男孩	-5702
开车换座位怎么设置	-5703
▁感谢起风了丶艾希送的	-5704
▁盒盒盒盒盒盒盒盒盒盒盒盒盒盒	-5705
,5	-5706
,8	-5707
55	-5708
An	-5709
CH	-5710
ft	-5711
mi	-5712
qq	-5713
ui	-5714
uy	-5715
▁v	-5716
▁凉	-5717
▁凯	-5718
▁包	-5719
▁围	-5720
▁土	-5721
▁坏	-5722
▁宇	-5723
▁川	-5724
▁怂	-5725
▁才	-5726
▁摄	-5727
▁春	-5728
▁枫	-5729
▁江	-5730
▁浮	-5731
▁深	-5732
▁游	-5733
▁独	-5734
▁猫	-5735
▁硬	-5736
▁血	-5737
▁论	-5738
▁辉	-5739
▁重	-5740
▁鬼	-5741
。?	-5742
一万	-5743
三次	-5744
上有	-5745
下水	-5746
不下	-5747
不满	-5748
丢人	-5749
两次	-5750
两盒	-5751
个雷	-5752
丸子	-5753
乂她	-5754
了我	-5755
事故	-5756
五个	-5757
从未	-5758
以上	-5759
优先	-5760
会儿	-5761
你呢	-5762
你咋	-5763
你和	-5764
你太	-5765
你没	-5766
刚好	-5767
动了	-5768
十三	-5769
十里	-5770
单四	-5771
又在	-5772
口嗨	-5773
台风	-5774
号了	-5775
吓人	-5776
和他	-5777
咸咸	-5778
回路	-5779
图拉	-5780
多数	-5781
大狙	-5782
天谴	-5783
太深	-5784
太菜	-5785
太阳	-5786
奇怪	-5787
好亏	-5788
好吃	-5789
好评	-5790
如梦	-5791
威力	-5792
小子	-5793
小宝	-5794
就上	-5795
属于	-5796
岸上	-5797
差距	-5798
帅啊	-5799
带了	-5800
影师	-5801
很菜	-5802
微博	-5803
心情	-5804
思聪	-5805
怪兽	-5806
惨了	-5807
意用	-5808
愿赌	-5809
我会	-5810
我娶	-5811
户外	-5812
手哥	-5813
打工	-5814
打枪	-5815
打脸	-5816
扔雷	-5817
拆了	-5818
拿枪	-5819
挨揍	-5820
收看	-5821
改成	-5822
救命	-5823
无数	-5824
时光	-5825
星魂	-5826
是用	-5827
显眼	-5828
最快	-5829
有的	-5830
服输	-5831
桥头	-5832
次次	-5833
欢乐	-5834
河里	-5835
波波	-5836
混子	-5837
演员	-5838
点半	-5839
狠人	-5840
玩吧	-5841
理解	-5842
痴迷	-5843
的要	-5844
眼神	-5845
睡醒	-5846
瞬秒	-5847
秀他	-5848
私信	-5849
科目	-5850
笙歌	-5851
糖糖	-5852
红牛	-5853
练习	-5854
老头	-5855
肥了	-5856
膨胀	-5857
至尊	-5858
致富	-5859
蛋了	-5860
补枪	-5861
表姐	-5862
装的	-5863
裤衩	-5864
要看	-5865
观察	-5866
认为	-5867
请问	-5868
貌似	-5869
跳舞	-5870
车门	-5871
辆车	-5872
辜负	-5873
还开	-5874
远点	-5875
送盒	-5876
那样	-5877
钓鱼	-5878
钥匙	-5879
阿伟	-5880
非常	-5881
面子	-5882
鱼鱼	-5883
麦田	-5884
默默	-5885
,/{	-5886
251	-5887
FPP	-5888
tpp	-5889
▁..	-5890
▁0.	-5891
▁24	-5892
▁一定	-5893
▁一点	-5894
▁三倍	-5895
▁三级	-5896
▁不想	-5897
▁为毛	-5898
▁乖哥	-5899
▁也好	-5900
▁人造	-5901
▁假装	-5902
▁傻子	-5903
▁其他	-5904
▁出去	-5905
▁前天	-5906
▁单身	-5907
▁哦豁	-5908
▁四倍	-5909
▁夏欣	-5910
▁大图	-5911
▁天生	-5912
▁好惨	-5913
▁实锤	-5914
▁德玛	-5915
▁我先	-5916
▁我能	-5917
▁打完	-5918
▁折腾	-5919
▁更新	-5920
▁月叔	-5921
▁杰哥	-5922
▁正恒	-5923
▁滴滴	-5924
▁爱你	-5925
▁球球	-5926
▁跟班	-5927
▁这叫	-5928
▁进入	-5929
▁那人	-5930
▁问问	-5931
▁阿杰	-5932
▁随时	-5933
▁非要	-5934
一个圈	-5935
一级包	-5936
三级套	-5937
上车玩	-5938
上车要	-5939
下班了	-5940
不一定	-5941
不住了	-5942
不求人	-5943
不起来	-5944
个宝剑	-5945
中奖的	-5946
也不行	-5947
于跑毒	-5948
保镖呢	-5949
保镖那	-5950
倍镜的	-5951
全息了	-5952
全明星	-5953
别人的	-5954
别问了	-5955
刷盒子	-5956
医疗箱	-5957
厉害的	-5958
可以的	-5959
可惜了	-5960
号多少	-5961
吹牛逼	-5962
呜呜呜	-5963
啥条件	-5964
四个人	-5965
在一起	-5966
基本上	-5967
堆礼盒	-5968
夜开车	-5969
好还是	-5970
子送的	-5971
就不要	-5972
岛铁盒	-5973
带红点	-5974
开玩笑	-5975
开车切	-5976
我今天	-5977
我怎么	-5978
我现在	-5979
我看看	-5980
我还没	-5981
打死了	-5982
换一下	-5983
换位置	-5984
握把吗	-5985
搜不到	-5986
无所谓	-5987
有排面	-5988
来开车	-5989
楼酱的	-5990
模拟器	-5991
死一个	-5992
注意点	-5993
洋过海	-5994
炸死的	-5995
的位置	-5996
盒武器	-5997
直播啊	-5998
看你玩	-5999
看见你	-6000
礼盒的	-6001
章鱼哥	-6002
给人家	-6003
要不然	-6004
训练场	-6005
说一下	-6006
请上车	-6007
这就是	-6008
追着人	-6009
都不行	-6010
都喜欢	-6011
驾驶证	-6012
Baby	-6013
John	-6014
▁465	-6015
▁762	-6016
▁一会儿	-6017
▁一块钱	-6018
▁一把鸡	-6019
▁一直在	-6020
▁不求人	-6021
▁会不会	-6022
▁你没有	-6023
▁你觉得	-6024
▁保镖开	-6025
▁兄弟萌	-6026
▁刚才那	-6027
▁刷多少	-6028
▁小跟班	-6029
▁开船的	-6030
▁开车呢	-6031
▁开车溜	-6032
▁怎么没	-6033
▁感谢影	-6034
▁感谢无	-6035
▁感谢流	-6036
▁感谢阿	-6037
▁感谢龙	-6038
▁成盒子	-6039
▁拳击馆	-6040
▁来来来	-6041
▁炸鱼啊	-6042
▁礼盒拆	-6043
▁红点在	-6044
▁红点装	-6045
▁翻车啦	-6046
▁翻车鱼	-6047
▁老铁们	-6048
▁臭弟弟	-6049
▁要开车	-6050
▁这是要	-6051
▁都说了	-6052
▁领盒饭	-6053
一枪爆头	-6054
一脸懵逼	-6055
三个盒子	-6056
三级头呢	-6057
上不上车	-6058
不存在的	-6059
二级头的	-6060
八倍镜来	-6061
准备好了	-6062
多个礼盒	-6063
就是一个	-6064
就知道了	-6065
带你上车	-6066
开车去了	-6067
开车直接	-6068
愿赌服输	-6069
扫装甲车	-6070
新号炸鱼	-6071
是盒子精	-6072
有止痛药	-6073
有点模糊	-6074
水友上车	-6075
没三级头	-6076
直播跑毒	-6077
秒变盒子	-6078
第一人称	-6079
红点都稳	-6080
红色握把	-6081
要翻车了	-6082
请求上车	-6083
车技不错	-6084
车载音乐	-6085
这个盒子	-6086
都在开车	-6087
颗手榴弹	-6088
▁三轮摩托	-6089
▁举报开车	-6090
▁二级头来	-6091
▁先上车后	-6092
▁刚进来就	-6093
▁十个礼盒	-6094
▁右边拉满	-6095
▁四小天盒	-6096
▁国内主播	-6097
▁实力翻车	-6098
▁帝国鹰眼	-6099
▁开车进圈	-6100
▁快递员小	-6101
▁感谢大家	-6102
▁握把没拿	-6103
▁昨天开车	-6104
▁有没有人	-6105
▁欢迎入座	-6106
▁欢迎收看	-6107
▁直播开车	-6108
▁装甲车呢	-6109
▁装甲车啊	-6110
▁装甲车是	-6111
▁要翻车了	-6112
▁说炸鱼的	-6113
▁谢谢支持	-6114
▁还有一个	-6115
▁这个游戏	-6116
▁那个盒子	-6117
一个人开车	-6118
一只小老虎	-6119
不及解释了	-6120
免费上车吗	-6121
切座位怎么	-6122
就是老司机	-6123
就送快递了	-6124
新号炸鱼塘	-6125
是送快递的	-6126
标题在开车	-6127
爸爸的礼盒	-6128
红点灵敏度	-6129
草地吉利服	-6130
跑毒跑死了	-6131
666666	-6132
▁一个人开车	-6133
▁一直天命圈	-6134
▁主播在开车	-6135
▁他开车怎么	-6136
▁你的摩托车	-6137
▁怎么能上车	-6138
▁感谢盒子精	-6139
▁有人上车吗	-6140
▁来个天命圈	-6141
▁真落地成盒	-6142
▁红点不要嘛	-6143
▁落地成盒啊	-6144
▁落地成盒的	-6145
▁虎牙盒子精	-6146
▁队友好菜啊	-6147
三级甲三级头	-6148
优米的盒阿姨	-6149
多少礼物上车	-6150
就可以上车了	-6151
炸鱼塘的主播	-6152
第一人称开车	-6153
▁但是没有证据	-6154
▁吉利服不要了	-6155
▁多少礼物上车	-6156
▁大郎该吃药了	-6157
个虎粮亲亲抱抱	-6158
带着盒子走来了	-6159
开了落地成盒挂	-6160
有点模糊怎么调	-6161
▁保镖房间号多少	-6162
▁感谢社会我榜七	-6163
▁我怀疑你们开车	-6164
.........	-6165
切座位怎么不会减速	-6166
▁凉凉夜色为你思念成盒	-6167
▁榜二穿开裆裤的大男孩	-6168
............	-6169
▁他开车怎么切座位怎么不会减速	-6170
!!!!!!!!!!!!!!!!	-6171
.5	-6172
08	-6173
70	-6174
BE	-6175
DD	-6176
LO	-6177
St	-6178
ac	-6179
ad	-6180
es	-6181
ge	-6182
nb	-6183
xu	-6184
▁变	-6185
▁吗	-6186
▁呀	-6187
▁呆	-6188
▁噗	-6189
▁布	-6190
▁帮	-6191
▁往	-6192
▁急	-6193
▁情	-6194
▁木	-6195
▁林	-6196
▁树	-6197
▁歌	-6198
▁淘	-6199
▁牧	-6200
▁省	-6201
▁记	-6202
▁调	-6203
▁钻	-6204
▁🐷	-6205
❀.	-6206
、【	-6207
。,	-6208
一上	-6209
一开	-6210
一群	-6211
一车	-6212
一鸡	-6213
三极	-6214
下场	-6215
下角	-6216
不掉	-6217
不着	-6218
两人	-6219
个月	-6220
丶爱	-6221
之王	-6222
也好	-6223
也得	-6224
买了	-6225
了哦	-6226
他啊	-6227
仙堡	-6228
低了	-6229
你家	-6230
你敢	-6231
偷了	-6232
像个	-6233
元钱	-6234
公平	-6235
几十	-6236
刷啥	-6237
前五	-6238
前天	-6239
力了	-6240
千里	-6241
单纯	-6242
印度	-6243
卵局	-6244
压你	-6245
压输	-6246
去拿	-6247
发财	-6248
另外	-6249
同学	-6250
后果	-6251
咋样	-6252
咖啡	-6253
唯爱	-6254
啥的	-6255
嘎嘎	-6256
嘴巴	-6257
困了	-6258
地球	-6259
坑了	-6260
多大	-6261
大吗	-6262
大学	-6263
天而	-6264
太重	-6265
太非	-6266
失误	-6267
女神	-6268
好累	-6269
如虎	-6270
娜娜	-6271
家泉	-6272
寒冰	-6273
射速	-6274
尊重	-6275
小小	-6276
小贱	-6277
尾巴	-6278
屏息	-6279
岁月	-6280
工作	-6281
左手	-6282
弄的	-6283
强哥	-6284
强迫	-6285
当人	-6286
得到	-6287
快啊	-6288
悲伤	-6289
想着	-6290
我刷	-6291
打得	-6292
打车	-6293
托托	-6294
把人	-6295
把鸡	-6296
抖的	-6297
抽的	-6298
拖鞋	-6299
拜拜	-6300
捡的	-6301
搞了	-6302
搞得	-6303
摩擦	-6304
撞了	-6305
撞树	-6306
无据	-6307
无疑	-6308
无聊	-6309
无脑	-6310
日子	-6311
最佳	-6312
有多	-6313
服务	-6314
李逵	-6315
果粒	-6316
梦想	-6317
欺骗	-6318
段位	-6319
殿下	-6320
每把	-6321
毒了	-6322
毛毛	-6323
没法	-6324
洋葱	-6325
活该	-6326
流行	-6327
滑行	-6328
满的	-6329
潇洒	-6330
激光	-6331
灭了	-6332
点事	-6333
热烈	-6334
照样	-6335
牛壁	-6336
狗东	-6337
狙消	-6338
猛了	-6339
猛啊	-6340
的包	-6341
目标	-6342
看路	-6343
真正	-6344
空空	-6345
突击	-6346
签收	-6347
管理	-6348
精准	-6349
绝望	-6350
美国	-6351
群里	-6352
而过	-6353
联盟	-6354
肥的	-6355
能用	-6356
脑壳	-6357
自信	-6358
艺术	-6359
苗苗	-6360
菜鸟	-6361
萌新	-6362
萧萧	-6363
虎扑	-6364
血赚	-6365
要被	-6366
见到	-6367
规则	-6368
记录	-6369
语音	-6370
说着	-6371
贡献	-6372
贴脸	-6373
贼溜	-6374
趴在	-6375
跑啊	-6376
路线	-6377
跳车	-6378
返现	-6379
还带	-6380
连击	-6381
迟到	-6382
通知	-6383
遁地	-6384
那队	-6385
都跑	-6386
镜头	-6387
问下	-6388
青铜	-6389
靠海	-6390
预定	-6391
飞了	-6392
骑士	-6393
高分	-6394
高的	-6395
高能	-6396
123	-6397
150	-6398
520	-6399
999	-6400
TPP	-6401
eem	-6402
▁)→	-6403
▁86	-6404
▁一顿	-6405
▁不让	-6406
▁二号	-6407
▁人生	-6408
▁你俩	-6409
▁你开	-6410
▁六倍	-6411
▁刚来	-6412
▁只会	-6413
▁后十	-6414
▁哪里	-6415
▁国服	-6416
▁图图	-6417
▁大仙	-6418
▁大号	-6419
▁妹控	-6420
▁孤独	-6421
▁学学	-6422
▁学校	-6423
▁安静	-6424
▁寒冬	-6425
▁就像	-6426
▁强哥	-6427
▁强烈	-6428
▁我猜	-6429
▁拉面	-6430
▁是啊	-6431
▁枪口	-6432
▁桥下	-6433
▁死了	-6434
▁泰国	-6435
▁海哥	-6436
▁渣男	-6437
▁溜了	-6438
▁特别	-6439
▁用情	-6440
▁真是	-6441
▁空头	-6442
▁粉丝	-6443
▁细节	-6444
▁老是	-6445
▁苏少	-6446
▁解说	-6447
▁警察	-6448
▁让她	-6449
▁走路	-6450
▁超级	-6451
▁超鸡	-6452
▁路人	-6453
▁近战	-6454
▁还在	-6455
▁还差	-6456
▁这俩	-6457
▁这货	-6458
▁这还	-6459
▁逍遥	-6460
▁钻石	-6461
▁鸡哥	-6462
一下就	-6463
一分钟	-6464
三个人	-6465
三生石	-6466
上线了	-6467
上车打	-6468
不出来	-6469
不容易	-6470
不开船	-6471
不舔包	-6472
不错了	-6473
举报你	-6474
从来没	-6475
你不捡	-6476
保安的	-6477
保镖不	-6478
光头强	-6479
出东西	-6480
副驾驶	-6481
压右边	-6482
压红点	-6483
去洗脚	-6484
去看看	-6485
可能是	-6486
叶知秋	-6487
吃不到	-6488
吃盒饭	-6489
吃药吧	-6490
吃鸡啊	-6491
回放看	-6492
回路转	-6493
图拉夫	-6494
天而降	-6495
太好了	-6496
太小了	-6497
太慢了	-6498
家泉哥	-6499
小仙女	-6500
小伙子	-6501
就不能	-6502
就是在	-6503
开车到	-6504
快递盒	-6505
怎么是	-6506
怎么算	-6507
我怀疑	-6508
打死的	-6509
打比赛	-6510
打电话	-6511
打绷带	-6512
放音乐	-6513
明明是	-6514
有多少	-6515
来捧场	-6516
死不了	-6517
每次都	-6518
气不气	-6519
没红点	-6520
没问题	-6521
游戏了	-6522
游戏吗	-6523
猛如虎	-6524
猫媳妇	-6525
玩手机	-6526
瓶饮料	-6527
的一批	-6528
的礼物	-6529
盒里有	-6530
相信我	-6531
看一下	-6532
看不起	-6533
真实了	-6534
真的秀	-6535
破产了	-6536
红点打	-6537
级头了	-6538
给你送	-6539
给我来	-6540
绿帽子	-6541
装全息	-6542
说的是	-6543
走一走	-6544
走一趟	-6545
起来啊	-6546
跟我们	-6547
轰炸啊	-6548
近距离	-6549
还有个	-6550
都不看	-6551
键上车	-6552
队友都	-6553
魔仙堡	-6554
2000	-6555
244-	-6556
5000	-6557
ceng	-6558
orry	-6559
scar	-6560
⋚...	-6561
▁UMP	-6562
▁Uzi	-6563
▁Vip	-6564
▁一进来	-6565
▁上车呀	-6566
▁不不不	-6567
▁不吃药	-6568
▁不能让	-6569
▁云玩家	-6570
▁从来不	-6571
▁你不会	-6572
▁你也是	-6573
▁你喝药	-6574
▁你队友	-6575
▁保镖上	-6576
▁保镖人	-6577
▁保镖咋	-6578
▁保镖来	-6579
▁保镖要	-6580
▁千万别	-6581
▁卡子哥	-6582
▁喝药药	-6583
▁妹妹你	-6584
▁小学生	-6585
▁巴西队	-6586
▁开船了	-6587
▁开车必	-6588
▁怎么不	-6589
▁怎么又	-6590
▁感谢不	-6591
▁感谢李	-6592
▁我一般	-6593
▁我也想	-6594
▁我现在	-6595
▁换握把	-6596
▁握把没	-6597
▁摄影师	-6598
▁有本事	-6599
▁每次都	-6600
▁求上车	-6601
▁汤姆逊	-6602
▁真正的	-6603
▁红点呢	-6604
▁翻车王	-6605
▁自闭城	-6606
▁要什么	-6607
▁要是有	-6608
▁谁开车	-6609
▁越野车	-6610
▁车技真	-6611
▁这什么	-6612
▁那不是	-6613
▁风老弟	-6614
【251	-6615
一个火箭	-6616
一个火锅	-6617
一直跑毒	-6618
一级头的	-6619
享直播间	-6620
但没证据	-6621
你开车的	-6622
保镖是榜	-6623
几个礼盒	-6624
别墅靠海	-6625
去看保镖	-6626
叫天命圈	-6627
吃止痛药	-6628
喝饮料了	-6629
四个盒子	-6630
四号盒子	-6631
天下我有	-6632
天谴圈啊	-6633
就是炸鱼	-6634
就送快递	-6635
峰回路转	-6636
年寿命换	-6637
开盒子了	-6638
开车过桥	-6639
怎么没有	-6640
打二级头	-6641
找摩托车	-6642
把二级头	-6643
描边枪法	-6644
死于开车	-6645
每次都是	-6646
没有握把	-6647
炸鱼塘局	-6648
的礼盒哦	-6649
直播间吗	-6650
禁止开车	-6651
要开车吗	-6652
边喝饮料	-6653
这个游戏	-6654
这个礼盒	-6655
送快递吧	-6656
送快递啊	-6657
需要什么	-6658
龙哥开车	-6659
~!!!!	-6660
▁一地盒子	-6661
▁一生之敌	-6662
▁专家建议	-6663
▁什么上车	-6664
▁你为什么	-6665
▁你摩托车	-6666
▁全是盒子	-6667
▁六倍镜啊	-6668
▁又在炸鱼	-6669
▁又成盒了	-6670
▁又翻车了	-6671
▁大妈今晚	-6672
▁少喝饮料	-6673
▁开车过来	-6674
▁开车进去	-6675
▁我不上车	-6676
▁我榜追梦	-6677
▁把摩托车	-6678
▁摩托车能	-6679
▁无形开车	-6680
▁欢迎盒子	-6681
▁沙漠地图	-6682
▁猝不及防	-6683
▁用情太深	-6684
▁礼盒怎么	-6685
▁红点不拿	-6686
▁红点没了	-6687
▁老司机了	-6688
▁自动开车	-6689
▁蚂蚁上树	-6690
▁要开车了	-6691
▁说上车的	-6692
▁谢谢大哥	-6693
▁赤脚开车	-6694
▁超鸡果粒	-6695
▁送快递去	-6696
▁锤子握把	-6697
三倍镜压枪	-6698
三级头一枪	-6699
个礼盒辛苦	-6700
十个荧光棒	-6701
又没有证据	-6702
啥时候上车	-6703
喜欢用全息	-6704
彼岸三生石	-6705
是不是可以	-6706
有垂直握把	-6707
的盒子里有	-6708
给你天命圈	-6709
能装红点了	-6710
落地成盒就	-6711
进入装甲车	-6712
那么多礼盒	-6713
▁单排装甲车	-6714
▁大朗吃药了	-6715
▁感觉要翻车	-6716
▁托马斯车技	-6717
▁等一个翻车	-6718
▁绝地快递员	-6719
▁苏少家泉哥	-6720
▁车技可以啊	-6721
一把落地成盒	-6722
上保镖上保镖	-6723
什么时候上车	-6724
可是没有证据	-6725
吉利服吉利服	-6726
喜妹家的北鼻	-6727
大型翻车现场	-6728
打开车载音乐	-6729
要落地成盒了	-6730
▁中国队天命圈	-6731
▁人体描边大法	-6732
▁保镖的直播间	-6733
▁大郎该喝药了	-6734
▁妹妹你坐船头	-6735
▁感谢南柯一梦	-6736
▁没牌子的宝贝	-6737
▁盒仙人丶团长	-6738
▁落地成盒流局	-6739
果冻的七夕礼盒	-6740
谢谢社会我榜五	-6741
谢谢社会我榜六	-6742
谢谢社会我榜四	-6743
66666666	-6744
~!!!!~~~	-6745
~~~~~~~~	-6746
▁一个礼盒多少钱	-6747
▁仙女乔的快递员	-6748
▁感谢大家的礼盒	-6749
▁感谢社会我榜四	-6750
▁感谢老板的礼盒	-6751
▁我怀疑他在开车	-6752
。。。。。。。。	-6753
?????????	-6754
▁18948637	-6755
倍镜有点模糊怎么调	-6756
▁开船开船开船开船开船	-6757
▁开车开车开车开车开车开车	-6758
▁我怀疑你在开车但是我没证据	-6759
!?	-6760
32	-6761
44	-6762
96	-6763
Cc	-6764
GG	-6765
UY	-6766
ai	-6767
ay	-6768
ew	-6769
go	-6770
ha	-6771
io	-6772
mo	-6773
ny	-6774
om	-6775
uo	-6776
┈━	-6777
▁低	-6778
▁华	-6779
▁呼	-6780
▁墨	-6781
▁失	-6782
▁奶	-6783
▁懂	-6784
▁拆	-6785
▁指	-6786
▁标	-6787
▁歪	-6788
▁温	-6789
▁爷	-6790
▁田	-6791
▁百	-6792
▁着	-6793
▁约	-6794
▁舔	-6795
▁身	-6796
▁钢	-6797
▁铁	-6798
▁额	-6799
▁驾	-6800
▁鹿	-6801
◡‿	-6802
。╯	-6803
一世	-6804
一搏	-6805
一条	-6806
一说	-6807
上个	-6808
上分	-6809
上就	-6810
不做	-6811
不装	-6812
不说	-6813
不走	-6814
专家	-6815
两局	-6816
中午	-6817
临时	-6818
丶夜	-6819
丽莎	-6820
之间	-6821
乱杀	-6822
了就	-6823
人看	-6824
他了	-6825
任何	-6826
你再	-6827
你吗	-6828
你真	-6829
假装	-6830
儿子	-6831
充钱	-6832
兜风	-6833
公司	-6834
再见	-6835
冒烟	-6836
凌晨	-6837
几分	-6838
出轨	-6839
刚枪	-6840
到尾	-6841
制裁	-6842
动车	-6843
劲了	-6844
医院	-6845
十四	-6846
十字	-6847
单发	-6848
南宁	-6849
卸胎	-6850
及时	-6851
反光	-6852
发型	-6853
发的	-6854
句话	-6855
号位	-6856
合成	-6857
吐了	-6858
君宝	-6859
味道	-6860
咖喱	-6861
哎呦	-6862
哥大	-6863
唯有	-6864
善良	-6865
喝啥	-6866
国外	-6867
在打	-6868
在此	-6869
坏的	-6870
坚持	-6871
大米	-6872
太难	-6873
套路	-6874
好坑	-6875
孤独	-6876
害怕	-6877
寂寞	-6878
富贵	-6879
对狙	-6880
小米	-6881
就该	-6882
崩了	-6883
带补	-6884
平原	-6885
平台	-6886
年了	-6887
延迟	-6888
弹道	-6889
强了	-6890
往事	-6891
很慌	-6892
很美	-6893
得起	-6894
心有	-6895
心理	-6896
快扩	-6897
愿意	-6898
我家	-6899
我开	-6900
我这	-6901
战力	-6902
截图	-6903
手感	-6904
打打	-6905
探路	-6906
握草	-6907
搜了	-6908
放过	-6909
救我	-6910
整齐	-6911
文明	-6912
斯利	-6913
方式	-6914
无限	-6915
是带	-6916
晓得	-6917
景很	-6918
晴儿	-6919
更快	-6920
有空	-6921
木有	-6922
未来	-6923
杀我	-6924
村长	-6925
来找	-6926
枪声	-6927
某些	-6928
柯丶	-6929
桥下	-6930
死你	-6931
比他	-6932
水路	-6933
求你	-6934
汪汪	-6935
油了	-6936
油锅	-6937
注定	-6938
流水	-6939
滋滋	-6940
滴滴	-6941
潇潇	-6942
激动	-6943
火力	-6944
烟花	-6945
猪猪	-6946
王哥	-6947
玩吗	-6948
玲玲	-6949
电子	-6950
疲劳	-6951
白白	-6952
的号	-6953
的多	-6954
的歌	-6955
的没	-6956
眼镜	-6957
瞎了	-6958
碾压	-6959
稳的	-6960
米儿	-6961
练练	-6962
结账	-6963
给了	-6964
老嫖	-6965
老表	-6966
胡哨	-6967
航母	-6968
船票	-6969
莽夫	-6970
萌萌	-6971
蒙娜	-6972
蓝蓝	-6973
蟑螂	-6974
血了	-6975
行车	-6976
要有	-6977
让她	-6978
让车	-6979
诅咒	-6980
说下	-6981
说他	-6982
说过	-6983
调了	-6984
调成	-6985
谎言	-6986
贝贝	-6987
起了	-6988
趁他	-6989
超时	-6990
跑跑	-6991
车神	-6992
边缘	-6993
达人	-6994
这次	-6995
进了	-6996
远离	-6997
违规	-6998
那次	-6999
野驴	-7000
阳光	-7001
难看	-7002
雨林	-7003
非洲	-7004
顺便	-7005
预感	-7006
颗雷	-7007
飞扬	-7008
飞起	-7009
魔盒	-7010
魔鬼	-7011
👍👍	-7012
+11	-7013
686	-7014
893	-7015
LCH	-7016
Lee	-7017
ust	-7018
▁33	-7019
▁66	-7020
▁Ch	-7021
▁Li	-7022
▁__	-7023
▁ib	-7024
▁sy	-7025
▁。。	-7026
▁一鸡	-7027
▁不愧	-7028
▁不打	-7029
▁两把	-7030
▁伟神	-7031
▁你先	-7032
▁你想	-7033
▁你敢	-7034
▁你那	-7035
▁十一	-7036
▁十二	-7037
▁又想	-7038
▁又来	-7039
▁喜哥	-7040
▁回家	-7041
▁回忆	-7042
▁围墙	-7043
▁声音	-7044
▁大浪	-7045
▁天悦	-7046
▁少侠	-7047
▁带个	-7048
▁带你	-7049
▁带师	-7050
▁开启	-7051
▁当时	-7052
▁很多	-7053
▁总是	-7054
▁想要	-7055
▁意思	-7056
▁慢慢	-7057
▁成功	-7058
▁打的	-7059
▁抽了	-7060
▁拿着	-7061
▁捡了	-7062
▁暗示	-7063
▁有些	-7064
▁李逵	-7065
▁枪法	-7066
▁榜八	-7067
▁死鱼	-7068
▁洋洋	-7069
▁熊神	-7070
▁爆头	-7071
▁猴子	-7072
▁男人	-7073
▁看吧	-7074
▁移动	-7075
▁空中	-7076
▁等你	-7077
▁绿色	-7078
▁老表	-7079
▁老钢	-7080
▁肌肉	-7081
▁胖暖	-7082
▁艾希	-7083
▁芬兰	-7084
▁莱斯	-7085
▁菜鸡	-7086
▁萎神	-7087
▁表姐	-7088
▁过去	-7089
▁过来	-7090
▁这就	-7091
▁遇到	-7092
▁都没	-7093
▁钢枪	-7094
▁青铜	-7095
▁麻将	-7096
✧/{	-7097
一开始	-7098
一苟活	-7099
三极甲	-7100
下一个	-7101
不好么	-7102
不能开	-7103
不要钱	-7104
不说话	-7105
丶小浩	-7106
也不会	-7107
他开着	-7108
伏特加	-7109
你今天	-7110
你刚刚	-7111
你自己	-7112
你这是	-7113
保镖有	-7114
先成盒	-7115
光宝盒	-7116
分分钟	-7117
医疗兵	-7118
只不过	-7119
可以去	-7120
可以用	-7121
听脚步	-7122
和主播	-7123
在圈边	-7124
大兄弟	-7125
太快了	-7126
头到尾	-7127
头开车	-7128
好一点	-7129
好久没	-7130
学会了	-7131
学校霸	-7132
就是不	-7133
就炸鱼	-7134
就稳了	-7135
已开启	-7136
带上车	-7137
开开车	-7138
开车好	-7139
开车进	-7140
很容易	-7141
得一批	-7142
快开车	-7143
怎么做	-7144
怎么玩	-7145
怎么能	-7146
意思了	-7147
懂点事	-7148
我看了	-7149
房子有	-7150
房子里	-7151
打下来	-7152
打爆了	-7153
打职业	-7154
挂件哦	-7155
握把的	-7156
搏一搏	-7157
搞不懂	-7158
撞倒了	-7159
放心了	-7160
时超帅	-7161
是为了	-7162
最好用	-7163
有个人	-7164
有时间	-7165
未成年	-7166
杀人了	-7167
杀队友	-7168
枪屁股	-7169
正在派	-7170
死我了	-7171
比赛就	-7172
比较稳	-7173
水友赛	-7174
没谁了	-7175
浮生若	-7176
游戏里	-7177
满足了	-7178
火柴盒	-7179
炸鱼去	-7180
男人哦	-7181
的一大	-7182
的伤害	-7183
的好像	-7184
的牌子	-7185
的男人	-7186
盒子吗	-7187
真好看	-7188
睡着了	-7189
笑送的	-7190
粉丝牌	-7191
红点是	-7192
级头甲	-7193
翻车啦	-7194
被别人	-7195
裂开了	-7196
订阅了	-7197
谷柯丶	-7198
贵宾席	-7199
走一波	-7200
起不来	-7201
跟着你	-7202
还是要	-7203
这几天	-7204
远距离	-7205
都盒饭	-7206
里胡哨	-7207
顶不住	-7208
鲨鱼局	-7209
麻瓜龙	-7210
鼠标宏	-7211
++++	-7212
,666	-7213
3000	-7214
8888	-7215
▁三蹦子	-7216
▁上车吧	-7217
▁不喜欢	-7218
▁主播的	-7219
▁举报了	-7220
▁你不要	-7221
▁你为啥	-7222
▁保镖叫	-7223
▁保镖这	-7224
▁倒计时	-7225
▁再来个	-7226
▁刚开始	-7227
▁卡牌子	-7228
▁又不是	-7229
▁可能是	-7230
▁右上角	-7231
▁喜欢看	-7232
▁大家上	-7233
▁小开哥	-7234
▁就不能	-7235
▁就知道	-7236
▁开船吧	-7237
▁开车上	-7238
▁开车咯	-7239
▁开车放	-7240
▁开车没	-7241
▁开车莽	-7242
▁怪不得	-7243
▁想开车	-7244
▁我以前	-7245
▁我送了	-7246
▁投弹手	-7247
▁拆盒子	-7248
▁有一个	-7249
▁有车位	-7250
▁桌子上	-7251
▁猪队友	-7252
▁盒子兔	-7253
▁盒子挂	-7254
▁真的是	-7255
▁秋名山	-7256
▁章鱼哥	-7257
▁等一下	-7258
▁肌肉哥	-7259
▁艾斯利	-7260
▁警察局	-7261
▁谢谢二	-7262
▁谢谢大	-7263
▁跑圈了	-7264
▁跑毒要	-7265
▁还上车	-7266
▁这两天	-7267
▁这女的	-7268
▁麻将馆	-7269
一起上车	-7270
一起开车	-7271
上车了啊	-7272
不好意思	-7273
中奖的啦	-7274
二级头换	-7275
他们上车	-7276
你们开车	-7277
你的盒子	-7278
全程跑毒	-7279
八倍镜的	-7280
几点上车	-7281
到决赛圈	-7282
卡个牌子	-7283
去幼儿园	-7284
去炸鱼塘	-7285
又在开车	-7286
又翻车了	-7287
和三级头	-7288
和三级甲	-7289
嘿嘿嘿嘿	-7290
在开车啊	-7291
块钱一盒	-7292
天命圈的	-7293
小妹上车	-7294
小黑盒看	-7295
少的礼盒	-7296
就是保镖	-7297
帝国鹰眼	-7298
开礼盒了	-7299
开车游戏	-7300
开镜速度	-7301
当快递员	-7302
忘吃药了	-7303
怕轰炸区	-7304
成盒落地	-7305
把装甲车	-7306
摩托车加	-7307
摩托车啊	-7308
日常开车	-7309
景很迷茫	-7310
有人上车	-7311
有意思吗	-7312
欺骗主播	-7313
比红点好	-7314
激光握把	-7315
的盒子有	-7316
直播开车	-7317
看你直播	-7318
礼物不要	-7319
笙歌十里	-7320
红点好用	-7321
老铁送的	-7322
联系房管	-7323
蒙娜丽莎	-7324
装红点了	-7325
要上车了	-7326
要上车啊	-7327
让他开车	-7328
该吃药啦	-7329
起风了丶	-7330
跟我走吧	-7331
轰炸区炸	-7332
还有盒子	-7333
这个主播	-7334
集我看过	-7335
靠天命圈	-7336
骗三级头	-7337
高级盒子	-7338
eemzz	-7339
▁254-	-7340
▁7911	-7341
▁一言不合	-7342
▁一路跑毒	-7343
▁三个盒子	-7344
▁三级头甲	-7345
▁三级头都	-7346
▁不是炸鱼	-7347
▁不是红点	-7348
▁你开车了	-7349
▁保镖叫啥	-7350
▁保镖怎么	-7351
▁保镖我想	-7352
▁保镖还在	-7353
▁保镖还是	-7354
▁保镖还没	-7355
▁别的主播	-7356
▁别翻车了	-7357
▁又想开车	-7358
▁大妈今天	-7359
▁大妈大妈	-7360
▁天命圈被	-7361
▁天谴圈啊	-7362
▁屏幕左边	-7363
▁开车不能	-7364
▁开车去啊	-7365
▁开车可以	-7366
▁开车撞死	-7367
▁开车有据	-7368
▁开车来的	-7369
▁性感主播	-7370
▁想上车的	-7371
▁抽盒子了	-7372
▁摩托上树	-7373
▁摩托车有	-7374
▁摩托车都	-7375
▁新二级头	-7376
▁有八倍镜	-7377
▁本直播间	-7378
▁每次进来	-7379
▁每次都是	-7380
▁没有红点	-7381
▁炸鱼塘了	-7382
▁现在开车	-7383
▁盒子闭嘴	-7384
▁盒盒盒盒	-7385
▁笑死我了	-7386
▁自己开车	-7387
▁车技不行	-7388
▁边开车边	-7389
▁这个时候	-7390
▁送个礼盒	-7391
▁除了炸鱼	-7392
▁领盒饭了	-7393
【251】	-7394
一枪三级头	-7395
不可以上车	-7396
不开装甲车	-7397
中国天命圈	-7398
也是送快递	-7399
你的摩托车	-7400
倍镜在大仓	-7401
六倍镜压枪	-7402
出告白气球	-7403
变成盒子了	-7404
可以上车么	-7405
在线送快递	-7406
平底锅上车	-7407
摩托车打架	-7408
歪着头保安	-7409
残留的回忆	-7410
永久上车吗	-7411
白色吉利服	-7412
的小男人哦	-7413
的直播间吗	-7414
落地成盒吗	-7415
装甲车可以	-7416
让开船飞啊	-7417
跑毒的时候	-7418
轰炸区体质	-7419
这个吉利服	-7420
▁一个礼盒爆	-7421
▁不要开车了	-7422
▁专业快递员	-7423
▁中国天命圈	-7424
▁免费上车吗	-7425
▁刷礼物上车	-7426
▁大师想上车	-7427
▁开车不喝酒	-7428
▁开车冲过去	-7429
▁开车的那个	-7430
▁怎么上车呢	-7431
▁感谢我久帝	-7432
▁死亡摩托车	-7433
▁王牌快递员	-7434
▁这个一级头	-7435
▁这就开车了	-7436
▁这开车技术	-7437
▁那个开车的	-7438
▁鱼塘局炸鱼	-7439
中奖是不可能	-7440
就是送快递的	-7441
盒子精盒子精	-7442
礼物可以上车	-7443
翻车车也超帅	-7444
被轰炸区炸死	-7445
魔法书上车吗	-7446
▁??????	-7447
▁但是我没证据	-7448
▁大朗该吃药了	-7449
▁盒仙人丶温情	-7450
二级头换一级头	-7451
人体描边烦不烦	-7452
感谢社会我榜三	-7453
感谢社会我榜八	-7454
▁光头强的三级头	-7455
▁天命圈打成这样	-7456
▁怀疑你们在开车	-7457
中国队一个天命圈	-7458
今天没吃药起不来	-7459
▁落地成盒了解一下	-7460
谢谢我是一颗小虎牙	-7461
??????????	-7462
confession	-7463
▁臭臭大帅逼独爱甜甜	-7464
中奖是不可能中奖的啦	-7465
▁感谢社会我榜一俊俊丶	-7466
个平底锅辛苦大哥的小手	-7467
▁保镖保镖保镖保镖保镖保镖	-7468
+1	-7469
94	-7470
AO	-7471
HD	-7472
IC	-7473
PU	-7474
SS	-7475
ST	-7476
il	-7477
ir	-7478
ky	-7479
ok	-7480
op	-7481
ua	-7482
╰☆	-7483
▁๑	-7484
▁久	-7485
▁了	-7486
▁今	-7487
▁伤	-7488
▁依	-7489
▁俺	-7490
▁停	-7491
▁关	-7492
▁反	-7493
▁口	-7494
▁吾	-7495
▁喊	-7496
▁场	-7497
▁守	-7498
▁宋	-7499
▁实	-7500
▁宫	-7501
▁年	-7502
▁幸	-7503
▁恩	-7504
▁感	-7505
▁房	-7506
▁曹	-7507
▁污	-7508
▁泥	-7509
▁浩	-7510
▁火	-7511
▁秃	-7512
▁粉	-7513
▁练	-7514
▁胡	-7515
▁苦	-7516
▁菲	-7517
▁藏	-7518
▁见	-7519
▁选	-7520
▁酒	-7521
▁里	-7522
▁银	-7523
◕‿	-7524
⭕⭕	-7525
一位	-7526
一刷	-7527
一包	-7528
一名	-7529
一套	-7530
一晚	-7531
一比	-7532
一毛	-7533
一片	-7534
一穿	-7535
一组	-7536
三角	-7537
上海	-7538
不作	-7539
不晚	-7540
个鸡	-7541
丶晚	-7542
乖爷	-7543
也很	-7544
也算	-7545
了得	-7546
于潇	-7547
云端	-7548
人干	-7549
他就	-7550
他要	-7551
代表	-7552
伏笔	-7553
会了	-7554
你上	-7555
你刷	-7556
你同	-7557
你得	-7558
你用	-7559
你菜	-7560
你讲	-7561
你那	-7562
保佑	-7563
信息	-7564
做的	-7565
偶尔	-7566
傻傻	-7567
儿了	-7568
公会	-7569
冲分	-7570
几盒	-7571
划算	-7572
剁手	-7573
剩下	-7574
加班	-7575
北京	-7576
十块	-7577
参与	-7578
双双	-7579
双杀	-7580
反杀	-7581
发车	-7582
可好	-7583
号的	-7584
吃过	-7585
同意	-7586
吐槽	-7587
咱们	-7588
在我	-7589
在车	-7590
墙角	-7591
墨吖	-7592
处理	-7593
多喝	-7594
夢九	-7595
大了	-7596
大仙	-7597
头像	-7598
头皮	-7599
奶狗	-7600
好丑	-7601
好听	-7602
妈呀	-7603
妈妈	-7604
妹的	-7605
子里	-7606
存哥	-7607
安安	-7608
官方	-7609
对了	-7610
对吧	-7611
小磊	-7612
小马	-7613
少女	-7614
就更	-7615
就看	-7616
局局	-7617
左眼	-7618
师兄	-7619
带带	-7620
帮你	-7621
开翻	-7622
开黑	-7623
当场	-7624
心了	-7625
快去	-7626
快吗	-7627
怀恋	-7628
怼他	-7629
恍然	-7630
懂吗	-7631
成精	-7632
成语	-7633
我先	-7634
我吃	-7635
我怕	-7636
我擦	-7637
我服	-7638
我能	-7639
我莹	-7640
才怪	-7641
打倒	-7642
扣一	-7643
承认	-7644
抢了	-7645
抬走	-7646
持久	-7647
换座	-7648
接客	-7649
接着	-7650
接龙	-7651
撞到	-7652
操盘	-7653
收了	-7654
收到	-7655
放下	-7656
无名	-7657
显卡	-7658
晚丨	-7659
最美	-7660
有病	-7661
来打	-7662
来接	-7663
来这	-7664
极了	-7665
枪了	-7666
枪的	-7667
染宝	-7668
栗子	-7669
梅花	-7670
楼下	-7671
欧服	-7672
歪歪	-7673
气了	-7674
气的	-7675
没死	-7676
洗白	-7677
活的	-7678
浪的	-7679
海岛	-7680
消失	-7681
淘哥	-7682
游走	-7683
满地	-7684
澳大	-7685
灀珏	-7686
灰灰	-7687
点呗	-7688
爱的	-7689
牌九	-7690
牧馬	-7691
特技	-7692
狂魔	-7693
狗粮	-7694
狼叔	-7695
珍惜	-7696
瘦瘦	-7697
的冷	-7698
的心	-7699
的忠	-7700
的快	-7701
的最	-7702
的老	-7703
的过	-7704
秋风	-7705
穿着	-7706
窥屏	-7707
笑话	-7708
第四	-7709
等待	-7710
红尘	-7711
组合	-7712
经过	-7713
给个	-7714
给点	-7715
绿的	-7716
网恋	-7717
网络	-7718
老七	-7719
老乡	-7720
老二	-7721
老实	-7722
背心	-7723
能出	-7724
脸的	-7725
腻碍	-7726
自爆	-7727
舍得	-7728
芒果	-7729
花开	-7730
落尽	-7731
虾米	-7732
血拼	-7733
被他	-7734
装了	-7735
见长	-7736
说完	-7737
说明	-7738
请求	-7739
谁敢	-7740
谁都	-7741
调戏	-7742
资格	-7743
赖皮	-7744
超速	-7745
轮流	-7746
输光	-7747
过瘾	-7748
这人	-7749
连夜	-7750
迷你	-7751
退出	-7752
退网	-7753
送死	-7754
速来	-7755
那会	-7756
那天	-7757
那段	-7758
里了	-7759
钢铁	-7760
键盘	-7761
阳台	-7762
难用	-7763
非得	-7764
预判	-7765
预测	-7766
高兴	-7767
麻辣	-7768
黑了	-7769
+12	-7770
600	-7771
LUY	-7772
UAN	-7773
bug	-7774
god	-7775
ina	-7776
iss	-7777
ong	-7778
slr	-7779
yle	-7780
▁Ak	-7781
▁KD	-7782
▁mk	-7783
▁sh	-7784
▁一人	-7785
▁一发	-7786
▁一只	-7787
▁一大	-7788
▁一百	-7789
▁七七	-7790
▁上吧	-7791
▁下车	-7792
▁不对	-7793
▁不开	-7794
▁不怕	-7795
▁不许	-7796
▁中间	-7797
▁丸子	-7798
▁主楼	-7799
▁二狗	-7800
▁仓库	-7801
▁他的	-7802
▁他这	-7803
▁优秀	-7804
▁你上	-7805
▁你会	-7806
▁你得	-7807
▁别的	-7808
▁剑士	-7809
▁单人	-7810
▁压枪	-7811
▁只是	-7812
▁可可	-7813
▁司机	-7814
▁吃饭	-7815
▁吴薇	-7816
▁咱们	-7817
▁哇塞	-7818
▁大包	-7819
▁大熊	-7820
▁大神	-7821
▁大龙	-7822
▁天上	-7823
▁太帅	-7824
▁奔驰	-7825
▁女人	-7826
▁好吧	-7827
▁子豪	-7828
▁安安	-7829
▁封烟	-7830
▁左右	-7831
▁左手	-7832
▁带我	-7833
▁开心	-7834
▁开播	-7835
▁开盘	-7836
▁开镜	-7837
▁微笑	-7838
▁心动	-7839
▁快来	-7840
▁我上	-7841
▁我心	-7842
▁战术	-7843
▁手雷	-7844
▁打了	-7845
▁打野	-7846
▁把他	-7847
▁拉风	-7848
▁拿个	-7849
▁捡个	-7850
▁握草	-7851
▁放心	-7852
▁新号	-7853
▁无敌	-7854
▁日月	-7855
▁明月	-7856
▁是个	-7857
▁有了	-7858
▁杀手	-7859
▁来啊	-7860
▁来啦	-7861
▁枫林	-7862
▁楼酱	-7863
▁正宗	-7864
▁正常	-7865
▁此时	-7866
▁求求	-7867
▁沙鹰	-7868
▁特么	-7869
▁狗东	-7870
▁狗墨	-7871
▁眼瞎	-7872
▁神仙	-7873
▁算了	-7874
▁红色	-7875
▁绷带	-7876
▁老刚	-7877
▁至少	-7878
▁血瓶	-7879
▁谁有	-7880
▁谁说	-7881
▁还说	-7882
▁这两	-7883
▁这女	-7884
▁雨林	-7885
▁非凡	-7886
▁鲸鱼	-7887
一枪爆	-7888
一样吗	-7889
三蹦子	-7890
上车位	-7891
上车呗	-7892
上车都	-7893
下播了	-7894
下来的	-7895
不作声	-7896
不允许	-7897
不多了	-7898
不捡吗	-7899
不是你	-7900
不是说	-7901
丶我娶	-7902
丶晚秋	-7903
丶糖糖	-7904
主播就	-7905
也不能	-7906
买一盒	-7907
乱吃药	-7908
了解下	-7909
什么啊	-7910
什么车	-7911
从来不	-7912
他上车	-7913
会游泳	-7914
你们不	-7915
你们是	-7916
你太美	-7917
你就是	-7918
你肯定	-7919
保安了	-7920
信不信	-7921
先上车	-7922
全息吗	-7923
公交车	-7924
几个人	-7925
出轨吗	-7926
十几个	-7927
千万别	-7928
单身狗	-7929
去哪里	-7930
又开始	-7931
另一个	-7932
吉普车	-7933
听不到	-7934
和盒子	-7935
和虎粮	-7936
哥开车	-7937
哥送的	-7938
唯一颜	-7939
在那边	-7940
坐车了	-7941
太亏了	-7942
太坑了	-7943
太菜了	-7944
好朋友	-7945
学不来	-7946
学着点	-7947
安全感	-7948
小拇指	-7949
就傻傻	-7950
就吃药	-7951
就够了	-7952
已经是	-7953
干嘛的	-7954
并吃药	-7955
广西人	-7956
开车把	-7957
开车有	-7958
开车被	-7959
开车都	-7960
往毒里	-7961
必须要	-7962
态家军	-7963
总感觉	-7964
情人节	-7965
成盒吧	-7966
我也会	-7967
我可以	-7968
我就想	-7969
我来了	-7970
我没有	-7971
扣几分	-7972
找到了	-7973
把红点	-7974
拉仇恨	-7975
拉枪线	-7976
拿空投	-7977
挺可爱	-7978
摩托艇	-7979
撞死的	-7980
撞草垛	-7981
是哪个	-7982
显示器	-7983
有后缀	-7984
有牌面	-7985
杀一个	-7986
杀人的	-7987
梅花桩	-7988
段时间	-7989
永远是	-7990
汽油桶	-7991
没打过	-7992
没有人	-7993
没翻车	-7994
炸炸鱼	-7995
点开车	-7996
然后再	-7997
爱你喔	-7998
牧馬人	-7999
猛男枪	-8000
猪队友	-8001
玩的好	-8002
现在是	-8003
玲玲家	-8004
用什么	-8005
用盒子	-8006
的一天	-8007
的不行	-8008
的小鸟	-8009
的老公	-8010
的节奏	-8011
的证据	-8012
的距离	-8013
盒子吧	-8014
看回放	-8015
看手机	-8016
真舒服	-8017
科学家	-8018
穿鞋子	-8019
笑死我	-8020
第一人	-8021
级头不	-8022
给别人	-8023
肯定是	-8024
能开车	-8025
自己打	-8026
自己玩	-8027
至尊宝	-8028
落地就	-8029
被检测	-8030
西切圈	-8031
要开船	-8032
让他们	-8033
说保镖	-8034
说炸鱼	-8035
谢谢大	-8036
谢谢小	-8037
跟不上	-8038
车技好	-8039
轰炸挂	-8040
还记得	-8041
这么菜	-8042
这里有	-8043
送来的	-8044
逮文明	-8045
那么久	-8046
那么好	-8047
都有了	-8048
都死了	-8049
里面的	-8050
钞票抢	-8051
陆两栖	-8052
隐于潇	-8053
靠得住	-8054
高德伟	-8055
魔法师	-8056
BEST	-8057
mile	-8058
uper	-8059
▁VSS	-8060
▁ibi	-8061
▁一倍镜	-8062
▁一次性	-8063
▁一级防	-8064
▁上车啦	-8065
▁上车开	-8066
▁上车打	-8067
▁上车是	-8068
▁上车能	-8069
▁不应该	-8070
▁二级包	-8071
▁今天不	-8072
▁他以为	-8073
▁他怎么	-8074
▁你确定	-8075
▁你还是	-8076
▁你这样	-8077
▁保安海	-8078
▁光头龙	-8079
▁再也不	-8080
▁再开车	-8081
▁和保镖	-8082
▁喜多多	-8083
▁喝药啊	-8084
▁姨妈巾	-8085
▁小虎牙	-8086
▁带保镖	-8087
▁开开车	-8088
▁开船走	-8089
▁开车真	-8090
▁开车车	-8091
▁想看你	-8092
▁感谢丶	-8093
▁感谢夜	-8094
▁感谢月	-8095
▁我也不	-8096
▁我已经	-8097
▁我愿用	-8098
▁我看过	-8099
▁我要是	-8100
▁把盒子	-8101
▁新版本	-8102
▁有握把	-8103
▁有盒子	-8104
▁欢迎默	-8105
▁洋洋洋	-8106
▁淘淘哥	-8107
▁点订阅	-8108
▁狙击手	-8109
▁猪上树	-8110
▁盒子在	-8111
▁盒子都	-8112
▁第三天	-8113
▁红点哥	-8114
▁藏宝图	-8115
▁训练赛	-8116
▁谁叫你	-8117
▁辛苦了	-8118
▁这两个	-8119
▁这个是	-8120
▁这几天	-8121
▁这标题	-8122
▁这特么	-8123
▁送一个	-8124
▁那里有	-8125
▁阿鲁卡	-8126
一发入魂	-8127
一笑而过	-8128
一级头吗	-8129
不是开车	-8130
不晚送的	-8131
不要上车	-8132
个四倍镜	-8133
个礼盒亲	-8134
个藏宝图	-8135
丶我娶你	-8136
人家开车	-8137
人家脸上	-8138
人的礼盒	-8139
什么东西	-8140
会开车了	-8141
你为什么	-8142
你开车了	-8143
偷装甲车	-8144
儿的礼盒	-8145
八倍镜吗	-8146
刷天命圈	-8147
只有空投	-8148
叫装甲车	-8149
吸引火力	-8150
哪个好用	-8151
喝啥你讲	-8152
四处游走	-8153
四小天盒	-8154
国内主播	-8155
在天上飞	-8156
天降正义	-8157
好多盒子	-8158
就吃鸡了	-8159
就完事了	-8160
就没事了	-8161
就翻车了	-8162
带你吃鸡	-8163
开车那个	-8164
弹幕抽奖	-8165
恍然如梦	-8166
我在开车	-8167
我要开车	-8168
抽礼盒了	-8169
晚上开车	-8170
有四倍镜	-8171
有舰队的	-8172
来的宝贝	-8173
欢迎捧场	-8174
沙漠地图	-8175
没有墨吖	-8176
淡的咖啡	-8177
游戏结束	-8178
澳大利亚	-8179
火锅上车	-8180
热烈欢迎	-8181
用二级甲	-8182
疲劳驾驶	-8183
的一级头	-8184
的八倍镜	-8185
的小迷弟	-8186
的盒子里	-8187
盒子里面	-8188
直播效果	-8189
空中成盒	-8190
经常开车	-8191
给队友啊	-8192
让车滑行	-8193
谢谢虎牙	-8194
跑毒死了	-8195
轰炸区就	-8196
这么开车	-8197
追着人杀	-8198
那个保安	-8199
那个开车	-8200
都是炸鱼	-8201
都没看到	-8202
都用全息	-8203
队天命圈	-8204
shift	-8205
▁2199	-8206
▁244-	-8207
▁4000	-8208
▁Nuna	-8209
▁一不小心	-8210
▁一开车就	-8211
▁一直跑毒	-8212
▁三级头也	-8213
▁上保镖啊	-8214
▁上车多少	-8215
▁上车打药	-8216
▁下班车技	-8217
▁不开车吗	-8218
▁不能开车	-8219
▁为什么你	-8220
▁为啥不要	-8221
▁什么握把	-8222
▁保镖叫你	-8223
▁保镖开播	-8224
▁保镖技术	-8225
▁保镖文哥	-8226
▁八倍镜呢	-8227
▁刚刚有个	-8228
▁又在跑毒	-8229
▁吃药了吗	-8230
▁喜妹家的	-8231
▁四倍镜啊	-8232
▁天命圈了	-8233
▁完了完了	-8234
▁小心翻车	-8235
▁开车就是	-8236
▁开车怎么	-8237
▁开车慢点	-8238
▁开车撞他	-8239
▁开车的人	-8240
▁强烈要求	-8241
▁感谢大白	-8242
▁感谢老铁	-8243
▁感谢风声	-8244
▁成盒子了	-8245
▁成盒落地	-8246
▁我就知道	-8247
▁我怀疑这	-8248
▁我想知道	-8249
▁我愿意用	-8250
▁我的礼盒	-8251
▁摩托车要	-8252
▁有个全息	-8253
▁有人上车	-8254
▁枫林晚丨	-8255
▁楼酱的阿	-8256
▁每次看你	-8257
▁炸鱼塘啊	-8258
▁王者保镖	-8259
▁礼物感谢	-8260
▁礼盒开出	-8261
▁维恩蓝儿	-8262
▁苟一苟活	-8263
▁要上车吗	-8264
▁要上车的	-8265
▁要成盒了	-8266
▁谢谢大家	-8267
▁跑毒跑死	-8268
▁车技牛逼	-8269
▁车技真好	-8270
▁轰炸区来	-8271
▁轰炸区炸	-8272
▁这一级头	-8273
▁这个开车	-8274
▁这小姐姐	-8275
▁都是盒子	-8276
▁队友开车	-8277
▁马上成盒	-8278
一个八倍镜	-8279
一个摩托车	-8280
一本魔法书	-8281
不捡八倍镜	-8282
为什么开车	-8283
人工轰炸区	-8284
会落地成盒	-8285
你是老司机	-8286
全是天谴圈	-8287
刷礼物上车	-8288
叫落地成盒	-8289
吉利服啊啊	-8290
就是天命圈	-8291
带我上车吗	-8292
库有摩托车	-8293
开摩托车的	-8294
有个三级头	-8295
有人在开车	-8296
次落地成盒	-8297
熙毒的礼盒	-8298
瘦瘦的红点	-8299
落地变盒子	-8300
要落地成盒	-8301
轰炸区炸死	-8302
这个三级头	-8303
这么多礼盒	-8304
逮文明直播	-8305
都是炸鱼塘	-8306
LUYUAN	-8307
▁上车多少钱	-8308
▁不会开车的	-8309
▁但我没证据	-8310
▁保镖你飘了	-8311
▁全新二级头	-8312
▁又要开车了	-8313
▁可以上车嘛	-8314
▁垂直握把啊	-8315
▁少侠好车技	-8316
▁弄个装甲车	-8317
▁怀疑在开车	-8318
▁感谢老司机	-8319
▁我榜楼酱的	-8320
▁无脑天命圈	-8321
▁来个装甲车	-8322
▁没人上车吗	-8323
▁盒盒盒盒盒	-8324
▁终极天命圈	-8325
▁给你天命圈	-8326
▁绿色吉利服	-8327
▁能不能上车	-8328
▁装甲车现在	-8329
▁要送快递了	-8330
▁轰炸区警告	-8331
▁这个开车的	-8332
▁这个摩托车	-8333
▁这队友真菜	-8334
▁骑摩托车的	-8335
一直落地成盒	-8336
二号丶我娶你	-8337
哪个握把好用	-8338
喊保镖喊保镖	-8339
并且我有证据	-8340
恩可的小盒子	-8341
还有一个盒子	-8342
连续落地成盒	-8343
送个礼盒卡个	-8344
.......	-8345
6666666	-8346
▁二级头换一级	-8347
▁吉利服吉利服	-8348
▁喜妹家的北鼻	-8349
▁垂直握把不要	-8350
▁大家上上电视	-8351
▁摩托车飞上去	-8352
▁有没有上车的	-8353
▁欢迎默不作声	-8354
▁盒子精丶小浩	-8355
▁虎牙盒子精送	-8356
▁送快递的来了	-8357
一枪一个小哥哥	-8358
个荧光棒么么哒	-8359
丶晚秋不晚送的	-8360
喜妹家的唯一颜	-8361
感谢社会我榜十	-8362
自己开车把自己	-8363
让车滑行并吃药	-8364
18948637	-8365
▁一个礼盒就可以	-8366
▁我觉得你在开车	-8367
▁枫林晚丨老司机	-8368
▁猝不及防的开车	-8369
大家拆拆高级礼盒	-8370
暖丶四差一的礼盒	-8371
▁大家拆拆高级礼盒	-8372
▁感谢鲸鱼家的活着	-8373
▁谢谢大哥们的礼盒	-8374
哈哈哈哈哈哈哈哈哈	-8375
BESTLUYUAN	-8376
▁大家拆拆高级礼盒呀	-8377
????????????	-8378
▁盒盒盒盒盒盒盒盒盒盒盒盒盒盒盒	-8379
,6	-8380
,。	-8381
1.	-8382
35	-8383
42	-8384
47	-8385
63	-8386
95	-8387
AR	-8388
Ak	-8389
DS	-8390
Di	-8391
MK	-8392
OB	-8393
YJ	-8394
ba	-8395
bu	-8396
cm	-8397
gg	-8398
hi	-8399
ie	-8400
ki	-8401
ow	-8402
sw	-8403
uc	-8404
zt	-8405
∀⊙	-8406
═☆	-8407
▁!	-8408
▁E	-8409
▁O	-8410
▁R	-8411
▁c	-8412
▁p	-8413
▁̄	-8414
▁̈	-8415
▁〆	-8416
▁倚	-8417
▁呦	-8418
▁咸	-8419
▁喂	-8420
▁嘴	-8421
▁城	-8422
▁够	-8423
▁宝	-8424
▁已	-8425
▁影	-8426
▁徐	-8427
▁忍	-8428
▁怒	-8429
▁戒	-8430
▁战	-8431
▁扎	-8432
▁扫	-8433
▁散	-8434
▁旧	-8435
▁时	-8436
▁望	-8437
▁楠	-8438
▁沐	-8439
▁泰	-8440
▁炮	-8441
▁目	-8442
▁祈	-8443
▁秒	-8444
▁米	-8445
▁莎	-8446
▁蛇	-8447
▁路	-8448
▁轻	-8449
▁近	-8450
▁開	-8451
▁集	-8452
▁魂	-8453
●。	-8454
◕。	-8455
。●	-8456
》?	-8457
一件	-8458
一切	-8459
一口	-8460
一场	-8461
一声	-8462
一瓶	-8463
一眼	-8464
一种	-8465
一逼	-8466
万一	-8467
三天	-8468
三百	-8469
上你	-8470
上帝	-8471
上腺	-8472
上锁	-8473
下载	-8474
不少	-8475
不帅	-8476
不比	-8477
不留	-8478
不该	-8479
不香	-8480
专用	-8481
东北	-8482
两百	-8483
个大	-8484
个毛	-8485
个烟	-8486
中华	-8487
为玉	-8488
主持	-8489
久拌	-8490
之人	-8491
之盒	-8492
乐趣	-8493
乘客	-8494
九十	-8495
二百	-8496
于晏	-8497
亏啊	-8498
亏的	-8499
互动	-8500
五六	-8501
五杀	-8502
交流	-8503
人多	-8504
人民	-8505
会死	-8506
伟神	-8507
何必	-8508
你啊	-8509
你带	-8510
你被	-8511
你让	-8512
佣兵	-8513
佩服	-8514
侧面	-8515
侮辱	-8516
保守	-8517
信仰	-8518
倾城	-8519
做个	-8520
偷车	-8521
全场	-8522
公告	-8523
再开	-8524
准时	-8525
几把	-8526
几枪	-8527
几百	-8528
出现	-8529
分手	-8530
别再	-8531
到天	-8532
制造	-8533
前妻	-8534
剧终	-8535
勋章	-8536
十杀	-8537
升级	-8538
压了	-8539
压强	-8540
又大	-8541
发家	-8542
发言	-8543
发麻	-8544
变态	-8545
号是	-8546
吃的	-8547
吃货	-8548
吸粉	-8549
呆呆	-8550
咋地	-8551
咋滴	-8552
咳咳	-8553
啥呢	-8554
啥啊	-8555
啥用	-8556
喜哥	-8557
喝的	-8558
喵的	-8559
喷了	-8560
嘚瑟	-8561
嘲讽	-8562
回答	-8563
回血	-8564
回首	-8565
团丶	-8566
国人	-8567
国服	-8568
图标	-8569
地主	-8570
坏蛋	-8571
坐下	-8572
堵住	-8573
声甜	-8574
够吗	-8575
大朗	-8576
大概	-8577
大街	-8578
天哥	-8579
天秀	-8580
头子	-8581
好小	-8582
妹币	-8583
嫂子	-8584
学校	-8585
定了	-8586
对抗	-8587
小沙	-8588
小绝	-8589
少爷	-8590
就你	-8591
就成	-8592
就来	-8593
就用	-8594
就绪	-8595
尾灯	-8596
山上	-8597
山东	-8598
布衣	-8599
帅哥	-8600
干净	-8601
干死	-8602
年前	-8603
度缥	-8604
开局	-8605
开除	-8606
弄个	-8607
弄死	-8608
很有	-8609
很爽	-8610
很秀	-8611
得多	-8612
微凉	-8613
快快	-8614
快速	-8615
思慕	-8616
恶霸	-8617
惊人	-8618
想春	-8619
想的	-8620
慧儿	-8621
我用	-8622
戴上	-8623
打二	-8624
打成	-8625
打掉	-8626
打炸	-8627
技能	-8628
把子	-8629
抖动	-8630
抗毒	-8631
护束	-8632
拉雷	-8633
拖孩	-8634
拷走	-8635
挂的	-8636
挺快	-8637
换弹	-8638
掌握	-8639
搜到	-8640
搜的	-8641
搞个	-8642
搞的	-8643
撞车	-8644
支援	-8645
整个	-8646
整点	-8647
整的	-8648
新人	-8649
方便	-8650
是哪	-8651
是被	-8652
晓彤	-8653
最稳	-8654
有吗	-8655
有所	-8656
木易	-8657
木木	-8658
未央	-8659
本书	-8660
机器	-8661
来不	-8662
来到	-8663
果断	-8664
枪吗	-8665
枪啊	-8666
枪头	-8667
枫叶	-8668
查收	-8669
标配	-8670
桌上	-8671
桥上	-8672
梦丶	-8673
楚沫	-8674
楛澀	-8675
概率	-8676
榜一	-8677
模仿	-8678
毛用	-8679
气啊	-8680
沉默	-8681
沙发	-8682
没换	-8683
没枪	-8684
没的	-8685
没错	-8686
活了	-8687
流弊	-8688
浪了	-8689
浪漫	-8690
淘汰	-8691
满分	-8692
满怀	-8693
然而	-8694
爆胎	-8695
爱看	-8696
爽了	-8697
牛了	-8698
牛腩	-8699
狗牌	-8700
玉少	-8701
瓜瓜	-8702
电了	-8703
留下	-8704
的圈	-8705
的局	-8706
的死	-8707
盯上	-8708
直吹	-8709
相遇	-8710
看头	-8711
眼里	-8712
神话	-8713
禁言	-8714
稳啊	-8715
竞技	-8716
笑笑	-8717
笔记	-8718
等等	-8719
篮子	-8720
粉了	-8721
紫色	-8722
纠结	-8723
红颜	-8724
约会	-8725
经典	-8726
经历	-8727
结婚	-8728
结算	-8729
给小	-8730
绿了	-8731
美丽	-8732
羡慕	-8733
翻的	-8734
老大	-8735
老狼	-8736
耻辱	-8737
肖姐	-8738
能带	-8739
能把	-8740
能抗	-8741
能装	-8742
自然	-8743
自瞄	-8744
艾利	-8745
花式	-8746
菲菲	-8747
营养	-8748
薄荷	-8749
蜗牛	-8750
补了	-8751
表哥	-8752
表情	-8753
表现	-8754
被阴	-8755
见了	-8756
观赏	-8757
解决	-8758
言家	-8759
说我	-8760
请坐	-8761
诸葛	-8762
诺诺	-8763
谨之	-8764
负责	-8765
账号	-8766
质量	-8767
贼爽	-8768
赚了	-8769
走到	-8770
赶快	-8771
起床	-8772
起码	-8773
跑车	-8774
蹲起	-8775
躺鸡	-8776
车吗	-8777
车啊	-8778
转圈	-8779
轻松	-8780
还挺	-8781
这都	-8782
连个	-8783
连炸	-8784
送个	-8785
送到	-8786
送送	-8787
那朵	-8788
都嫌	-8789
都用	-8790
都稳	-8791
长虹	-8792
防弹	-8793
青年	-8794
风格	-8795
骄傲	-8796
骗人	-8797
骗子	-8798
高倍	-8799
高啊	-8800
高点	-8801
鹅盒	-8802
麦子	-8803
黄瓜	-8804
黑色	-8805
🐶🐶	-8806
😄😄	-8807
,20	-8808
-99	-8809
132	-8810
717	-8811
BUG	-8812
God	-8813
ard	-8814
ark	-8815
end	-8816
gol	-8817
hhh	-8818
iao	-8819
jio	-8820
vin	-8821
···	-8822
⊙∀⊙	-8823
▁18	-8824
▁MK	-8825
▁Xu	-8826
▁bb	-8827
▁kd	-8828
▁一波	-8829
▁一队	-8830
▁三十	-8831
▁三哥	-8832
▁下吧	-8833
▁不像	-8834
▁不管	-8835
▁专门	-8836
▁个人	-8837
▁为何	-8838
▁乔巴	-8839
▁乖乖	-8840
▁九九	-8841
▁也不	-8842
▁二级	-8843
▁仙女	-8844
▁低调	-8845
▁你再	-8846
▁你带	-8847
▁你来	-8848
▁你都	-8849
▁倚楼	-8850
▁全图	-8851
▁出来	-8852
▁刚枪	-8853
▁别给	-8854
▁别让	-8855
▁刷个	-8856
▁十八	-8857
▁卤蛋	-8858
▁召唤	-8859
▁可乐	-8860
▁可怜	-8861
▁唯一	-8862
▁嗯嗯	-8863
▁四楼	-8864
▁土豆	-8865
▁坦克	-8866
▁夏夏	-8867
▁大叔	-8868
▁大花	-8869
▁天禄	-8870
▁天路	-8871
▁娜娜	-8872
▁对于	-8873
▁对手	-8874
▁对方	-8875
▁小北	-8876
▁小熊	-8877
▁小白	-8878
▁小盒	-8879
▁小绝	-8880
▁屁股	-8881
▁帅神	-8882
▁常磊	-8883
▁干啥	-8884
▁当然	-8885
▁心态	-8886
▁快快	-8887
▁我开	-8888
▁我爱	-8889
▁打个	-8890
▁报告	-8891
▁拇指	-8892
▁搜索	-8893
▁支持	-8894
▁无限	-8895
▁明显	-8896
▁是我	-8897
▁最佳	-8898
▁最好	-8899
▁最强	-8900
▁有啊	-8901
▁果果	-8902
▁架枪	-8903
▁正在	-8904
▁死与	-8905
▁死人	-8906
▁残梦	-8907
▁每把	-8908
▁毕竟	-8909
▁毫无	-8910
▁没拿	-8911
▁海岛	-8912
▁满配	-8913
▁灀珏	-8914
▁熟悉	-8915
▁牛批	-8916
▁甜甜	-8917
▁田蹦	-8918
▁看我	-8919
▁稳了	-8920
▁空空	-8921
▁等我	-8922
▁续费	-8923
▁老万	-8924
▁老公	-8925
▁肥仔	-8926
▁胖虎	-8927
▁胖雯	-8928
▁花式	-8929
▁要么	-8930
▁试试	-8931
▁起来	-8932
▁路上	-8933
▁辉哥	-8934
▁这一	-8935
▁这句	-8936
▁追梦	-8937
▁那我	-8938
▁那里	-8939
▁都在	-8940
▁都说	-8941
▁里面	-8942
▁锤裂	-8943
▁阿布	-8944
▁难受	-8945
▁飘帝	-8946
▁马枪	-8947
▁鸡仔	-8948
❥/{	-8949
】/{	-8950
一下啊	-8951
一盒子	-8952
三把盒	-8953
三连杀	-8954
上一上	-8955
上厕所	-8956
上去的	-8957
上树吗	-8958
上腺素	-8959
下一把	-8960
不吉利	-8961
不好好	-8962
不是在	-8963
不网恋	-8964
不行的	-8965
不过来	-8966
不错的	-8967
与你同	-8968
个上车	-8969
丶无心	-8970
为啥不	-8971
为啥要	-8972
为玉碎	-8973
主播吗	-8974
也就是	-8975
买盒套	-8976
了一下	-8977
以为是	-8978
会暖床	-8979
估计是	-8980
你不拿	-8981
你也是	-8982
你在哪	-8983
保安就	-8984
俩盒子	-8985
個禮盒	-8986
倍镜了	-8987
像开车	-8988
凉凉了	-8989
到下播	-8990
到吃鸡	-8991
刷一刷	-8992
刷火箭	-8993
匹配到	-8994
区别吗	-8995
压的住	-8996
叫开车	-8997
可以了	-8998
可以加	-8999
可以拿	-9000
可以查	-9001
吃药吗	-9002
后缀了	-9003
听不见	-9004
听风雨	-9005
啥握把	-9006
啥都没	-9007
喝多了	-9008
在外面	-9009
在路上	-9010
在那里	-9011
块盒子	-9012
夏天丶	-9013
多久啊	-9014
多少分	-9015
大保镖	-9016
大队长	-9017
太少了	-9018
好可爱	-9019
好多了	-9020
好玩吗	-9021
子弹带	-9022
学车技	-9023
宜开车	-9024
宝是个	-9025
实观众	-9026
实锤了	-9027
小地图	-9028
小朋友	-9029
小沙弥	-9030
小盒妹	-9031
小礼盒	-9032
小米狗	-9033
小老弟	-9034
小药啊	-9035
小轿车	-9036
小迷弟	-9037
就尴尬	-9038
就是坑	-9039
岸上走	-9040
帮保镖	-9041
干不过	-9042
度缥缈	-9043
开船去	-9044
开车别	-9045
开车很	-9046
开车挂	-9047
强迫症	-9048
彭于晏	-9049
忍不住	-9050
怎么就	-9051
怎么练	-9052
感情要	-9053
成功了	-9054
我也行	-9055
我就慌	-9056
我已经	-9057
我看到	-9058
我红点	-9059
我记得	-9060
我还是	-9061
才可以	-9062
打什么	-9063
打的好	-9064
打这个	-9065
找保镖	-9066
技巧吗	-9067
摔死的	-9068
整齐齐	-9069
方向盘	-9070
时很美	-9071
是假的	-9072
是炸鱼	-9073
有窒息	-9074
机场圈	-9075
杀成盒	-9076
梦乂她	-9077
死的快	-9078
毒死的	-9079
没开车	-9080
没必要	-9081
没玩过	-9082
炸鱼啦	-9083
点东西	-9084
爆舰队	-9085
猪其实	-9086
猫小盒	-9087
现实中	-9088
的原因	-9089
的意思	-9090
的朋友	-9091
的机会	-9092
的虎粮	-9093
盒子挂	-9094
盒子都	-9095
盒饭吗	-9096
看多了	-9097
确实是	-9098
礼盒都	-9099
秀一波	-9100
第一名	-9101
粉丝票	-9102
红点吧	-9103
级头呢	-9104
纹送的	-9105
给主播	-9106
翻车挂	-9107
老板的	-9108
老铁们	-9109
老阴逼	-9110
老难了	-9111
能打爆	-9112
能看到	-9113
萧萧酱	-9114
落成盒	-9115
补偿器	-9116
被保安	-9117
被偷了	-9118
被打死	-9119
要吃药	-9120
要想春	-9121
观赏性	-9122
解一下	-9123
试一下	-9124
说别人	-9125
跟我说	-9126
路上车	-9127
软妹币	-9128
边盒子	-9129
这东西	-9130
这个号	-9131
这么猛	-9132
这礼盒	-9133
进圈了	-9134
进来的	-9135
追着打	-9136
送一送	-9137
遇到过	-9138
那一刻	-9139
那不是	-9140
那么大	-9141
都不够	-9142
都开车	-9143
都有人	-9144
都给你	-9145
银光棒	-9146
队友拿	-9147
队友的	-9148
阿鲁卡	-9149
～/{	-9150
/{88	-9151
4000	-9152
ance	-9153
wang	-9154
┈━═☆	-9155
▁999	-9156
▁Boy	-9157
▁^_^	-9158
▁一开车	-9159
▁一样的	-9160
▁三级套	-9161
▁上车玩	-9162
▁下一把	-9163
▁不可能	-9164
▁不喝药	-9165
▁不是在	-9166
▁不翻车	-9167
▁乱开车	-9168
▁什么鬼	-9169
▁今天是	-9170
▁你刚刚	-9171
▁你认真	-9172
▁出现了	-9173
▁刚来就	-9174
▁别上车	-9175
▁加油站	-9176
▁去看看	-9177
▁又炸鱼	-9178
▁喜老师	-9179
▁因为你	-9180
▁大家快	-9181
▁孤独的	-9182
▁学到了	-9183
▁差不多	-9184
▁开车好	-9185
▁开车是	-9186
▁开车要	-9187
▁开车飞	-9188
▁当保安	-9189
▁感谢人	-9190
▁感谢白	-9191
▁感谢青	-9192
▁感谢风	-9193
▁感谢飞	-9194
▁我可以	-9195
▁我好像	-9196
▁我就说	-9197
▁我榜小	-9198
▁我特么	-9199
▁我看了	-9200
▁我看见	-9201
▁找不到	-9202
▁把保安	-9203
▁接下来	-9204
▁描边了	-9205
▁明天去	-9206
▁有时候	-9207
▁有时间	-9208
▁本来想	-9209
▁杨先生	-9210
▁没看到	-9211
▁牛逼啊	-9212
▁现在能	-9213
▁皮皮婷	-9214
▁盒子没	-9215
▁盒子龙	-9216
▁看不起	-9217
▁看弹幕	-9218
▁看跑毒	-9219
▁礼盒也	-9220
▁礼盒冲	-9221
▁红点又	-9222
▁红点打	-9223
▁美国队	-9224
▁翻车挂	-9225
▁翻车龙	-9226
▁荧光棒	-9227
▁谢谢南	-9228
▁跟保镖	-9229
▁轰炸了	-9230
▁轰炸他	-9231
▁这么近	-9232
▁这保安	-9233
▁这时候	-9234
▁进来就	-9235
▁都不要	-9236
▁韦小宝	-9237
▁马诗恒	-9238
▁高级盒	-9239
一个虎粮	-9240
一开车就	-9241
一笑奈何	-9242
七个礼盒	-9243
上车的嘛	-9244
不上车啊	-9245
不炸鱼塘	-9246
不知道吗	-9247
不能吃鸡	-9248
丶爱我莹	-9249
为啥不要	-9250
主播成盒	-9251
人干的事	-9252
他三级头	-9253
你啥时候	-9254
你的红点	-9255
全图轰炸	-9256
全息好用	-9257
八倍镜看	-9258
六倍镜吗	-9259
准备上车	-9260
到天命圈	-9261
又上车了	-9262
又没证据	-9263
发家致富	-9264
可以开枪	-9265
吃鸡了吗	-9266
君的礼盒	-9267
告诉我们	-9268
和我一样	-9269
啥都没有	-9270
回来带盒	-9271
大哥上车	-9272
天下无敌	-9273
天下第一	-9274
天天换号	-9275
太牛逼了	-9276
好安全带	-9277
好送快递	-9278
姐姐是带	-9279
子弹不要	-9280
子弹袋啊	-9281
小白护束	-9282
就尴尬了	-9283
就是盒子	-9284
差点翻车	-9285
已经就位	-9286
开出来的	-9287
开车撞树	-9288
怎么变成	-9289
成语接龙	-9290
战神送的	-9291
扔手榴弹	-9292
拆出火锅	-9293
捡三级头	-9294
搜大镖客	-9295
摩托车吗	-9296
摩托车是	-9297
昨天晚上	-9298
是个好人	-9299
是什么啊	-9300
是在开车	-9301
是装甲车	-9302
是认真的	-9303
最后一个	-9304
有啥意思	-9305
有没有人	-9306
本魔法书	-9307
次西切圈	-9308
正在开车	-9309
正在揽件	-9310
殇的礼盒	-9311
没什么用	-9312
没吃药吗	-9313
没吃药吧	-9314
然后开车	-9315
版红点好	-9316
狙击消音	-9317
留着干嘛	-9318
的四倍镜	-9319
的小可爱	-9320
的小虎牙	-9321
的小迷妹	-9322
的车技粉	-9323
盒子旁边	-9324
直吹握把	-9325
直播了吗	-9326
看你跑毒	-9327
立马上车	-9328
红点压的	-9329
美女送的	-9330
翘兰花指	-9331
翻车翻车	-9332
老是开车	-9333
老板大气	-9334
肾上腺素	-9335
能告诉我	-9336
要上车么	-9337
要送快递	-9338
诺言家的	-9339
跑毒游戏	-9340
跑毒跑死	-9341
蹲起怎么	-9342
车技感人	-9343
轰炸完毕	-9344
运气不好	-9345
还好意思	-9346
还是一枪	-9347
这个男人	-9348
送魔法书	-9349
那个红点	-9350
都看不见	-9351
鱼的礼盒	-9352
,,,,,	-9353
23333	-9354
25000	-9355
Sorry	-9356
Style	-9357
Super	-9358
lbiza	-9359
viner	-9360
▁3000	-9361
▁baby	-9362
▁一发入魂	-9363
▁一堆盒子	-9364
▁世界第一	-9365
▁他们开车	-9366
▁他要上车	-9367
▁以后未来	-9368
▁会开车的	-9369
▁你二级头	-9370
▁你们开车	-9371
▁你的盒子	-9372
▁你要开车	-9373
▁保镖厉害	-9374
▁保镖可以	-9375
▁保镖就是	-9376
▁保镖房间	-9377
▁保镖牛逼	-9378
▁别人开车	-9379
▁半岛铁盒	-9380
▁单人四排	-9381
▁又要开车	-9382
▁叫装甲车	-9383
▁大妈上车	-9384
▁富送快递	-9385
▁左边红点	-9386
▁带上保镖	-9387
▁带上车吗	-9388
▁开车现场	-9389
▁开车走吧	-9390
▁开车跑吧	-9391
▁怎么老是	-9392
▁感谢余生	-9393
▁感谢拖孩	-9394
▁成盒之路	-9395
▁我开礼盒	-9396
▁我最喜欢	-9397
▁我有证据	-9398
▁我榜天悦	-9399
▁我要开车	-9400
▁我还记得	-9401
▁找摩托车	-9402
▁握把不拿	-9403
▁摩托车呢	-9404
▁摩托车快	-9405
▁摩托车是	-9406
▁日常开车	-9407
▁最近盒子	-9408
▁来了老弟	-9409
▁正恒娱乐	-9410
▁流年似水	-9411
▁海边有船	-9412
▁澳大利亚	-9413
▁看你开车	-9414
▁看跑毒的	-9415
▁莫名其妙	-9416
▁装甲车开	-9417
▁让你开车	-9418
▁该喝药了	-9419
▁该跑毒了	-9420
▁跑毒主播	-9421
▁还喝饮料	-9422
▁这个红点	-9423
▁这天命圈	-9424
▁这是什么	-9425
▁送快递咯	-9426
▁送快递啊	-9427
▁门口盒子	-9428
▁飘洋过海	-9429
▁鱼塘炸鱼	-9430
一个吉利服	-9431
一个礼盒的	-9432
一个钞票枪	-9433
万里送快递	-9434
三级头了吗	-9435
三轮摩托车	-9436
主播关注了	-9437
也吃不了鸡	-9438
二十个礼盒	-9439
二级头皮肤	-9440
他落地成盒	-9441
你的三级头	-9442
你该吃药了	-9443
保镖房间号	-9444
别落地成盒	-9445
十年寿命换	-9446
又落地成盒	-9447
哥哥的礼盒	-9448
四号盒子精	-9449
国队为什么	-9450
在摩托车上	-9451
开始开车了	-9452
开挂炸鱼塘	-9453
开摩托车了	-9454
开车的主播	-9455
怎么上车啊	-9456
怎么不上车	-9457
感情要起步	-9458
才可以上车	-9459
把把天谴圈	-9460
捡到三级头	-9461
新的三级头	-9462
昊昊不网恋	-9463
是个快递员	-9464
有什么区别	-9465
来点小礼物	-9466
点点订阅吧	-9467
牌子的宝宝	-9468
的忠实观众	-9469
的礼盒连击	-9470
的那个盒子	-9471
的高级礼盒	-9472
礼物刷起来	-9473
给你送快递	-9474
而且有证据	-9475
落地就成盒	-9476
血亏的礼盒	-9477
要上车的吗	-9478
要变盒子了	-9479
要想春满怀	-9480
那个摩托车	-9481
都是老司机	-9482
都落地成盒	-9483
里有二级头	-9484
biubiu	-9485
chance	-9486
▁一地的盒子	-9487
▁一楼二级头	-9488
▁三个三级头	-9489
▁不拿吉利服	-9490
▁为什么痴迷	-9491
▁今天吃药了	-9492
▁你又开车了	-9493
▁你是老司机	-9494
▁保镖太难了	-9495
▁倚楼听风雨	-9496
▁兄弟们上车	-9497
▁全息开镜快	-9498
▁六倍镜压枪	-9499
▁分享直播间	-9500
▁刷什么上车	-9501
▁又是轰炸区	-9502
▁吉利服没拿	-9503
▁夏夏夏天丶	-9504
▁多少钱上车	-9505
▁天命圈吃鸡	-9506
▁开车去找人	-9507
▁开车送人头	-9508
▁快递员来了	-9509
▁我一个礼盒	-9510
▁我也要上车	-9511
▁我怀疑弹幕	-9512
▁握把不要了	-9513
▁握把都不要	-9514
▁究极天命圈	-9515
▁红点和全息	-9516
▁红点都没有	-9517
▁绝地老司机	-9518
▁翻译小姐姐	-9519
▁职业快递员	-9520
▁落地成盒不	-9521
▁装甲车不是	-9522
▁装甲车不要	-9523
▁跑毒跑死了	-9524
▁车技不行啊	-9525
▁还想天命圈	-9526
▁这个装甲车	-9527
▁这么多盒子	-9528
▁这是在开车	-9529
▁这是天命圈	-9530
▁进入直播间	-9531
▁那个摩托车	-9532
▁钞票枪上车	-9533
【504】,	-9534
一个虎牙一号	-9535
一边开车一边	-9536
上车的小哥哥	-9537
个礼盒辛苦大	-9538
个虎粮么么哒	-9539
会游泳的小鸟	-9540
你落地成盒的	-9541
八倍镜八倍镜	-9542
出钞票枪战舰	-9543
发呆中的老鼠	-9544
可不可以上车	-9545
可我没有证据	-9546
哥的好多礼盒	-9547
天天落地成盒	-9548
宝是个小盒妹	-9549
小白护束一世	-9550
成盒草成盒草	-9551
把落地成盒了	-9552
比我红点都稳	-9553
没有落地成盒	-9554
版红点好怀恋	-9555
猪其实挺可爱	-9556
玲玲家丶无心	-9557
落地成盒了吗	-9558
谨之姐姐是带	-9559
轰炸区的男人	-9560
▁上车什么条件	-9561
▁上车什么要求	-9562
▁你认真时很美	-9563
▁别落地成盒了	-9564
▁大家可以送一	-9565
▁差点是个好人	-9566
▁开车开车开车	-9567
▁感谢龙纹送的	-9568
▁浪子丶棒棒糖	-9569
▁礼盒拆出战舰	-9570
▁红点都压不住	-9571
▁落地成盒不算	-9572
▁车技粉满足了	-9573
▁这摩托车开的	-9574
▁这是在开车吗	-9575
▁那个盒子里有	-9576
▁魔法书上车了	-9577
▁魔法书上车哦	-9578
二级头都是一枪	-9579
感谢社会我榜六	-9580
谢谢社会我榜七	-9581
谢谢社会我榜十	-9582
蹲起怎么那么快	-9583
领个忽吹牌子吧	-9584
▁一个魔法书上车	-9585
▁主播可以上车吗	-9586
▁可以去送快递了	-9587
▁感谢大哥的礼盒	-9588
▁我怀疑你再开车	-9589
▁我感觉你在开车	-9590
▁我是误造老司机	-9591
▁有个好的二级头	-9592
▁现在可以上车吗	-9593
▁盒子的小男人哦	-9594
▁落地成盒就流局	-9595
啊啊啊啊啊啊啊啊	-9596
月自己开车把自己	-9597
▁他骑着摩托车来了	-9598
▁感谢拖孩战神送的	-9599
个七夕礼盒辛苦大哥	-9600
个荧光棒真的是厉害	-9601
大家拆拆高级礼盒呀	-9602
▁感谢明明家的巧克力	-9603
▁欢迎默不作声进来的	-9604
谨之姐姐是带美女送的	-9605
▁感谢起风了丶恍然如梦	-9606
月自己开车把自己撞倒了	-9607
开车换座位怎么设置不会减速	-9608
!~	-9609
.,	-9610
.◡	-9611
01	-9612
31	-9613
4.	-9614
52	-9615
84	-9616
::	-9617
AS	-9618
Ax	-9619
MG	-9620
SD	-9621
Ta	-9622
UA	-9623
YE	-9624
al	-9625
az	-9626
dd	-9627
ig	-9628
is	-9629
mm	-9630
oo	-9631
ܾܾ	-9632
▁ლ	-9633
▁〃	-9634
▁「	-9635
▁゚	-9636
▁事	-9637
▁仙	-9638
▁伊	-9639
▁余	-9640
▁修	-9641
▁兰	-9642
▁军	-9643
▁凤	-9644
▁勿	-9645
▁午	-9646
▁却	-9647
▁友	-9648
▁古	-9649
▁叮	-9650
▁台	-9651
▁吊	-9652
▁同	-9653
▁命	-9654
▁哔	-9655
▁嘻	-9656
▁圆	-9657
▁如	-9658
▁嫖	-9659
▁孙	-9660
▁家	-9661
▁导	-9662
▁巴	-9663
▁希	-9664
▁恋	-9665
▁愿	-9666
▁慌	-9667
▁或	-9668
▁抓	-9669
▁挺	-9670
▁捞	-9671
▁撒	-9672
▁既	-9673
▁暗	-9674
▁楚	-9675
▁渣	-9676
▁炙	-9677
▁热	-9678
▁猜	-9679
▁瑾	-9680
▁甲	-9681
▁番	-9682
▁皖	-9683
▁盖	-9684
▁碍	-9685
▁碰	-9686
▁笨	-9687
▁算	-9688
▁羽	-9689
▁考	-9690
▁茶	-9691
▁葵	-9692
▁谢	-9693
▁蹲	-9694
▁软	-9695
▁轰	-9696
▁边	-9697
▁通	-9698
▁逝	-9699
▁零	-9700
▁韩	-9701
▁鱼	-9702
▁鲁	-9703
▁鹏	-9704
▁😂	-9705
◆◇	-9706
☀☁	-9707
☂☁	-9708
✎_	-9709
✦.	-9710
。1	-9711
一回	-9712
一根	-9713
一死	-9714
一段	-9715
一闪	-9716
丁丁	-9717
万能	-9718
三排	-9719
上下	-9720
上午	-9721
上头	-9722
上过	-9723
下局	-9724
下注	-9725
下降	-9726
不丢	-9727
不为	-9728
不仅	-9729
不像	-9730
不同	-9731
不和	-9732
不完	-9733
不播	-9734
不看	-9735
不苟	-9736
不觉	-9737
不足	-9738
不长	-9739
不高	-9740
专心	-9741
丶隐	-9742
为何	-9743
主机	-9744
久等	-9745
之助	-9746
乌龟	-9747
乐神	-9748
九九	-9749
了还	-9750
事件	-9751
二维	-9752
于世	-9753
互相	-9754
五斤	-9755
五百	-9756
人体	-9757
人呢	-9758
他是	-9759
以内	-9760
你先	-9761
你拿	-9762
使劲	-9763
使用	-9764
侧瞄	-9765
信了	-9766
借我	-9767
假了	-9768
偏偏	-9769
停止	-9770
停过	-9771
充足	-9772
先去	-9773
兔兔	-9774
入化	-9775
准了	-9776
凉城	-9777
凌芯	-9778
几号	-9779
凨雲	-9780
出神	-9781
击倒	-9782
别扭	-9783
到你	-9784
到达	-9785
剧本	-9786
副将	-9787
劝架	-9788
办事	-9789
加一	-9790
包了	-9791
十元	-9792
十几	-9793
半世	-9794
半夜	-9795
单杀	-9796
原新	-9797
去世	-9798
去捡	-9799
去的	-9800
去送	-9801
参加	-9802
又得	-9803
又没	-9804
又能	-9805
又被	-9806
发育	-9807
只看	-9808
叫上	-9809
可樱	-9810
右手	-9811
吊销	-9812
名叫	-9813
听你	-9814
吴薇	-9815
呀呀	-9816
告状	-9817
咋整	-9818
哪位	-9819
唧唧	-9820
啤酒	-9821
啥了	-9822
四人	-9823
四盒	-9824
在想	-9825
堪忧	-9826
墙上	-9827
墨染	-9828
备好	-9829
备胎	-9830
多万	-9831
多半	-9832
多拉	-9833
大人	-9834
大头	-9835
天台	-9836
天涯	-9837
天理	-9838
天生	-9839
太不	-9840
太好	-9841
夫妻	-9842
头晕	-9843
头的	-9844
奋斗	-9845
奔跑	-9846
奖杯	-9847
奢华	-9848
女装	-9849
好大	-9850
好帅	-9851
如其	-9852
妖王	-9853
姐妹	-9854
娃盒	-9855
嫌疑	-9856
学你	-9857
宁愿	-9858
定义	-9859
定理	-9860
实在	-9861
家小	-9862
密达	-9863
寒枫	-9864
对着	-9865
封刷	-9866
小也	-9867
小梦	-9868
小殷	-9869
小鸡	-9870
尤其	-9871
就剩	-9872
就开	-9873
就得	-9874
就跑	-9875
尼古	-9876
屁用	-9877
展示	-9878
属实	-9879
属性	-9880
巅峰	-9881
巡逻	-9882
差了	-9883
差的	-9884
干掉	-9885
平均	-9886
广东	-9887
广州	-9888
废话	-9889
开进	-9890
当年	-9891
往前	-9892
很久	-9893
很帅	-9894
徒弟	-9895
得吗	-9896
得过	-9897
御用	-9898
心存	-9899
心疼	-9900
必死	-9901
忆初	-9902
忧伤	-9903
快到	-9904
怪怪	-9905
恶意	-9906
想你	-9907
想学	-9908
想念	-9909
想说	-9910
懂的	-9911
戏了	-9912
我叫	-9913
我可	-9914
我啊	-9915
我得	-9916
我赌	-9917
我超	-9918
或或	-9919
打吗	-9920
打折	-9921
打算	-9922
扔掉	-9923
扔的	-9924
扯淡	-9925
把手	-9926
把握	-9927
抠脚	-9928
护驾	-9929
报点	-9930
报警	-9931
抽烟	-9932
担心	-9933
拐弯	-9934
拜托	-9935
拿分	-9936
挡了	-9937
挺难	-9938
捏雷	-9939
排队	-9940
提高	-9941
搞定	-9942
摄窝	-9943
撞他	-9944
撞你	-9945
攻楼	-9946
救豆	-9947
救赎	-9948
教教	-9949
整天	-9950
文老	-9951
文英	-9952
旅游	-9953
星辰	-9954
是小	-9955
晚了	-9956
景颜	-9957
暂时	-9958
更多	-9959
更稳	-9960
最高	-9961
月叔	-9962
有何	-9963
服气	-9964
杀他	-9965
杂技	-9966
杠杠	-9967
来人	-9968
来吧	-9969
来啊	-9970
极限	-9971
查了	-9972
棺材	-9973
椒粉	-9974
楼有	-9975
榨菜	-9976
死吗	-9977
残血	-9978
比比	-9979
毯式	-9980
气死	-9981
汽水	-9982
没吃	-9983
没杀	-9984
没药	-9985
油的	-9986
流批	-9987
流氓	-9988
流离	-9989
海王	-9990
涉嫌	-9991
淡然	-9992
淡笑	-9993
渣渣	-9994
溜溜	-9995
满满	-9996
满编	-9997
潜水	-9998
炸你	-9999
烂的	-10000
烟盒	-10001
熟练	-10002
熬夜	-10003
爆弹	-10004
爱总	-10005
狗的	-10006
现眼	-10007
甜瓜	-10008
生人	-10009
生生	-10010
用啊	-10011
男票	-10012
疑汝	-10013
疯子	-10014
疾风	-10015
白了	-10016
的别	-10017
的家	-10018
的真	-10019
看啊	-10020
看成	-10021
真香	-10022
眼泪	-10023
着急	-10024
石流	-10025
破坏	-10026
破碎	-10027
砸脸	-10028
确认	-10029
碎了	-10030
磨人	-10031
神丶	-10032
神奇	-10033
秀的	-10034
空洞	-10035
空间	-10036
穿个	-10037
穿甲	-10038
窗户	-10039
站着	-10040
箱子	-10041
粑粑	-10042
系统	-10043
纸盒	-10044
组织	-10045
绝不	-10046
绝了	-10047
绝技	-10048
维护	-10049
缘浅	-10050
网站	-10051
老年	-10052
老爸	-10053
老牛	-10054
而死	-10055
耐心	-10056
肥仔	-10057
胖虎	-10058
胖魂	-10059
能上	-10060
能炸	-10061
能让	-10062
脑袋	-10063
至于	-10064
致死	-10065
良左	-10066
花的	-10067
若离	-10068
英国	-10069
范围	-10070
草地	-10071
萌芽	-10072
萨诺	-10073
虚拟	-10074
行了	-10075
行证	-10076
衣戀	-10077
裤裆	-10078
要去	-10079
见你	-10080
观战	-10081
规定	-10082
记住	-10083
诗酒	-10084
诛仙	-10085
请你	-10086
谁啊	-10087
贼强	-10088
赚钱	-10089
赛车	-10090
赞助	-10091
足够	-10092
跑到	-10093
跳动	-10094
身子	-10095
身边	-10096
车子	-10097
车牌	-10098
车的	-10099
车胎	-10100
车里	-10101
转转	-10102
载具	-10103
辅助	-10104
运营	-10105
近了	-10106
还看	-10107
这会	-10108
这车	-10109
进步	-10110
远程	-10111
迷路	-10112
退了	-10113
送分	-10114
送货	-10115
逮你	-10116
道歉	-10117
避免	-10118
那有	-10119
都压	-10120
都好	-10121
都难	-10122
酒驾	-10123
钟情	-10124
铁血	-10125
长得	-10126
长进	-10127
阎罗	-10128
阔以	-10129
阴影	-10130
阿力	-10131
阿明	-10132
陪你	-10133
随意	-10134
难压	-10135
难啊	-10136
难度	-10137
集火	-10138
集锦	-10139
雨天	-10140
靓仔	-10141
顺丰	-10142
飞飞	-10143
饭饭	-10144
骡子	-10145
魔佳	-10146
鸡头	-10147
黄金	-10148
黑幕	-10149
龙虾	-10150
.◡✿	-10151
.❀.	-10152
120	-10153
30、	-10154
360	-10155
Amo	-10156
BGM	-10157
ank	-10158
est	-10159
uan	-10160
ush	-10161
uya	-10162
▁11	-10163
▁14	-10164
▁67	-10165
▁HY	-10166
▁KK	-10167
▁一样	-10168
▁三楼	-10169
▁三盒	-10170
▁上个	-10171
▁上局	-10172
▁不仅	-10173
▁不在	-10174
▁不带	-10175
▁不懂	-10176
▁不玩	-10177
▁不该	-10178
▁不说	-10179
▁不错	-10180
▁中奖	-10181
▁买个	-10182
▁二倍	-10183
▁人形	-10184
▁人才	-10185
▁他想	-10186
▁你刚	-10187
▁你可	-10188
▁你太	-10189
▁你拿	-10190
▁你给	-10191
▁倒地	-10192
▁再次	-10193
▁几乎	-10194
▁初心	-10195
▁到处	-10196
▁到底	-10197
▁刷了	-10198
▁北京	-10199
▁十七	-10200
▁十三	-10201
▁单杀	-10202
▁去年	-10203
▁去看	-10204
▁又有	-10205
▁发现	-10206
▁只为	-10207
▁可樱	-10208
▁后边	-10209
▁周粥	-10210
▁咋了	-10211
▁咳咳	-10212
▁场控	-10213
▁大宝	-10214
▁大白	-10215
▁头上	-10216
▁好想	-10217
▁妈呀	-10218
▁孤儿	-10219
▁安排	-10220
▁宝马	-10221
▁对呀	-10222
▁对对	-10223
▁小丑	-10224
▁小号	-10225
▁小哥	-10226
▁就会	-10227
▁山上	-10228
▁川川	-10229
▁左眼	-10230
▁差个	-10231
▁带上	-10232
▁平地	-10233
▁平底	-10234
▁当场	-10235
▁很少	-10236
▁微信	-10237
▁心愿	-10238
▁忘了	-10239
▁忘记	-10240
▁快救	-10241
▁快速	-10242
▁怕是	-10243
▁我刷	-10244
▁戒总	-10245
▁房间	-10246
▁打不	-10247
▁扩容	-10248
▁抓紧	-10249
▁抽奖	-10250
▁挂壁	-10251
▁挂逼	-10252
▁整天	-10253
▁星魂	-10254
▁普通	-10255
▁月饼	-10256
▁服了	-10257
▁望天	-10258
▁杨威	-10259
▁极限	-10260
▁染胖	-10261
▁橙橙	-10262
▁死因	-10263
▁没了	-10264
▁流星	-10265
▁浮夸	-10266
▁炙热	-10267
▁牛皮	-10268
▁狗婷	-10269
▁狗牌	-10270
▁玩的	-10271
▁瑾邪	-10272
▁甜瓜	-10273
▁番薯	-10274
▁白白	-10275
▁皖风	-10276
▁盒了	-10277
▁目测	-10278
▁看这	-10279
▁真香	-10280
▁稳住	-10281
▁空城	-10282
▁筱风	-10283
▁紫色	-10284
▁老头	-10285
▁脚下	-10286
▁舒服	-10287
▁菲姐	-10288
▁蓝色	-10289
▁虎扑	-10290
▁表示	-10291
▁认真	-10292
▁讲个	-10293
▁说着	-10294
▁赢了	-10295
▁走吧	-10296
▁起点	-10297
▁跟你	-10298
▁跟我	-10299
▁路过	-10300
▁车上	-10301
▁转身	-10302
▁近点	-10303
▁这会	-10304
▁这圈	-10305
▁这才	-10306
▁这边	-10307
▁进来	-10308
▁送一	-10309
▁通宵	-10310
▁速度	-10311
▁那种	-10312
▁醒目	-10313
▁里秀	-10314
▁阿姨	-10315
▁雷神	-10316
▁非得	-10317
▁驾临	-10318
▁骑士	-10319
▁骚年	-10320
▁麦田	-10321
▁麻烦	-10322
▁默默	-10323
▁鼠标	-10324
☀☁☂	-10325
☾/{	-10326
一下子	-10327
一个是	-10328
一个队	-10329
一个雷	-10330
一年了	-10331
一把鸡	-10332
一盒套	-10333
一直打	-10334
上不了	-10335
上车费	-10336
下一局	-10337
不上了	-10338
不去了	-10339
不好打	-10340
不安全	-10341
不成盒	-10342
不换吗	-10343
不掉血	-10344
不敢去	-10345
不用吗	-10346
不看了	-10347
不行了	-10348
不见了	-10349
不认识	-10350
不让你	-10351
不重要	-10352
两枪头	-10353
个战舰	-10354
个棒棒	-10355
中距离	-10356
丶十三	-10357
丶夜雨	-10358
丶鱼鱼	-10359
主要是	-10360
久等呢	-10361
也是个	-10362
买盒烟	-10363
乳老板	-10364
了一个	-10365
了你还	-10366
了红点	-10367
五分钟	-10368
什么枪	-10369
他带着	-10370
众开车	-10371
传说中	-10372
你们玩	-10373
你们说	-10374
你变了	-10375
你居然	-10376
你应该	-10377
你知道	-10378
你都不	-10379
你队友	-10380
倍镜呢	-10381
做什么	-10382
全息好	-10383
全息的	-10384
关注我	-10385
其他的	-10386
再上车	-10387
出什么	-10388
出去了	-10389
分一半	-10390
刚不过	-10391
刚开始	-10392
别刷了	-10393
十分钟	-10394
卡卤蛋	-10395
压不能	-10396
去舔包	-10397
又可以	-10398
变盒了	-10399
只会打	-10400
可以呀	-10401
可以干	-10402
号开车	-10403
吃货团	-10404
和握把	-10405
咸咸的	-10406
哥礼盒	-10407
哪里人	-10408
啊哈哈	-10409
喜欢的	-10410
喝可乐	-10411
回家了	-10412
回来的	-10413
在地上	-10414
在盒子	-10415
坐船走	-10416
坐车去	-10417
大部分	-10418
天天的	-10419
天天看	-10420
太危险	-10421
太重了	-10422
太非了	-10423
她开车	-10424
好几把	-10425
好厉害	-10426
好好玩	-10427
好玩了	-10428
娃盒家	-10429
子弹啊	-10430
子弹的	-10431
孤存来	-10432
学到了	-10433
宠辣条	-10434
家的小	-10435
容易出	-10436
对不过	-10437
射速快	-10438
小小小	-10439
小改改	-10440
小盒子	-10441
就不用	-10442
就凉了	-10443
就开始	-10444
就炸了	-10445
就赢了	-10446
岂不是	-10447
差远了	-10448
已就位	-10449
帅不帅	-10450
带不动	-10451
带你们	-10452
带盒烟	-10453
开心心	-10454
开船吗	-10455
开车从	-10456
开车在	-10457
开车按	-10458
开车真	-10459
开车还	-10460
开过去	-10461
当掩体	-10462
心好累	-10463
必成盒	-10464
思密达	-10465
恐怖了	-10466
意思啊	-10467
成盒啦	-10468
我也是	-10469
我要看	-10470
我超乖	-10471
我跟你	-10472
才是你	-10473
才知道	-10474
打不倒	-10475
打他们	-10476
打出来	-10477
打没了	-10478
扫下来	-10479
找人打	-10480
找盒子	-10481
把盒子	-10482
按什么	-10483
提升至	-10484
握把和	-10485
收快递	-10486
救了你	-10487
救赎者	-10488
时吃药	-10489
时间段	-10490
星好评	-10491
是一个	-10492
是一种	-10493
是你的	-10494
最可爱	-10495
有一次	-10496
有些人	-10497
有开车	-10498
有战舰	-10499
有所属	-10500
有时候	-10501
有点亏	-10502
有点慌	-10503
有用吗	-10504
有的一	-10505
有车位	-10506
杠杠的	-10507
来一个	-10508
来炸鱼	-10509
来给你	-10510
根本没	-10511
毫米的	-10512
没中过	-10513
没想到	-10514
没时间	-10515
没有房	-10516
没毛病	-10517
没皮肤	-10518
没盒饭	-10519
没看过	-10520
注意了	-10521
海王团	-10522
游戏吧	-10523
游戏盒	-10524
炸鱼局	-10525
炸鱼汤	-10526
炸鱼苗	-10527
点一下	-10528
然没有	-10529
爆战舰	-10530
爱吃肉	-10531
爱尔兰	-10532
牌子了	-10533
牌子哦	-10534
牌牌了	-10535
牌牌吧	-10536
玩多了	-10537
的一个	-10538
的一匹	-10539
的事情	-10540
的作用	-10541
的只有	-10542
的可以	-10543
的粉丝	-10544
的翻车	-10545
的队友	-10546
皮皮鳝	-10547
直接冲	-10548
直接跳	-10549
看到扣	-10550
看跑毒	-10551
真牛逼	-10552
真特么	-10553
瞄准镜	-10554
礼盒吗	-10555
科目三	-10556
空投了	-10557
空调啊	-10558
笑死人	-10559
笔记本	-10560
等会儿	-10561
等等我	-10562
算不算	-10563
红色的	-10564
绕地球	-10565
给你刷	-10566
给我们	-10567
美滋滋	-10568
老板们	-10569
能回去	-10570
能开出	-10571
能打结	-10572
自动给	-10573
自己去	-10574
臭弟弟	-10575
舔盒子	-10576
舔空投	-10577
花裤衩	-10578
要成盒	-10579
要来了	-10580
要跑毒	-10581
言不和	-10582
讲道理	-10583
说不定	-10584
说什么	-10585
谁不会	-10586
谁开车	-10587
跑圈啊	-10588
跑圈外	-10589
跑得快	-10590
跑毒都	-10591
车技了	-10592
车技啊	-10593
输光了	-10594
边吃药	-10595
过去啊	-10596
还上车	-10597
还有船	-10598
还有谁	-10599
还没有	-10600
还需要	-10601
这一波	-10602
这个圈	-10603
这个曲	-10604
这么强	-10605
进不了	-10606
追空投	-10607
适合你	-10608
都不动	-10609
都说了	-10610
配件啊	-10611
野原新	-10612
长时间	-10613
队友给	-10614
队友菜	-10615
队友说	-10616
防空洞	-10617
随风飘	-10618
震爆弹	-10619
露脸吗	-10620
马诗恒	-10621
驾照吗	-10622
高科技	-10623
麻辣油	-10624
～～～	-10625
!!!8	-10626
2500	-10627
2893	-10628
717、	-10629
SOSO	-10630
ason	-10631
icky	-10632
▁...	-10633
▁520	-10634
▁800	-10635
▁850	-10636
▁MUA	-10637
▁Xyy	-10638
▁一上车	-10639
▁一晚上	-10640
▁一级包	-10641
▁上电视	-10642
▁不炸鱼	-10643
▁不穿鞋	-10644
▁不需要	-10645
▁主播我	-10646
▁今天没	-10647
▁你倒是	-10648
▁你直接	-10649
▁你知道	-10650
▁你给我	-10651
▁你要是	-10652
▁保镖和	-10653
▁保镖真	-10654
▁保镖被	-10655
▁先跑毒	-10656
▁切座位	-10657
▁刚刚那	-10658
▁别翻车	-10659
▁刷盒子	-10660
▁单身范	-10661
▁去开车	-10662
▁又特么	-10663
▁变盒子	-10664
▁吾疑汝	-10665
▁呜呜呜	-10666
▁喜子哥	-10667
▁嘿嘿嘿	-10668
▁地毯式	-10669
▁大家都	-10670
▁太菜了	-10671
▁好好的	-10672
▁学会了	-10673
▁对不起	-10674
▁小猫咪	-10675
▁小迷妹	-10676
▁就应该	-10677
▁开始了	-10678
▁开电视	-10679
▁开船绕	-10680
▁开车别	-10681
▁开车打	-10682
▁开车拉	-10683
▁开车被	-10684
▁开车豪	-10685
▁开车那	-10686
▁德国队	-10687
▁怀疑你	-10688
▁感谢心	-10689
▁感谢旧	-10690
▁感谢晓	-10691
▁感谢晕	-10692
▁感谢程	-10693
▁感谢莫	-10694
▁感谢落	-10695
▁感谢金	-10696
▁感谢陈	-10697
▁我就服	-10698
▁我有个	-10699
▁我服了	-10700
▁我没有	-10701
▁我老公	-10702
▁我见过	-10703
▁我都是	-10704
▁打不过	-10705
▁打比赛	-10706
▁握把装	-10707
▁日月哥	-10708
▁是保镖	-10709
▁是时候	-10710
▁有可能	-10711
▁有老板	-10712
▁权威你	-10713
▁橙姐姐	-10714
▁求你了	-10715
▁求轰炸	-10716
▁没保镖	-10717
▁没办法	-10718
▁没有车	-10719
▁没看见	-10720
▁没见过	-10721
▁泥石流	-10722
▁炸鱼局	-10723
▁炸鱼的	-10724
▁王思聪	-10725
▁盒子了	-10726
▁盒子刚	-10727
▁盒里有	-10728
▁看了你	-10729
▁真男人	-10730
▁礼盒是	-10731
▁空投箱	-10732
▁红点换	-10733
▁翻车吧	-10734
▁老板们	-10735
▁装红点	-10736
▁要是我	-10737
▁让他们	-10738
▁谢谢风	-10739
▁车技牛	-10740
▁轰炸器	-10741
▁还可以	-10742
▁还有人	-10743
▁这么快	-10744
▁这么肥	-10745
▁这保镖	-10746
▁这哥们	-10747
▁这是在	-10748
▁这是我	-10749
▁这版本	-10750
▁这要是	-10751
▁迟到的	-10752
▁那个是	-10753
▁那么远	-10754
▁那就是	-10755
▁预言家	-10756
▁骑摩托	-10757
一个血瓶	-10758
一枪打死	-10759
一的礼盒	-10760
一般都是	-10761
一言不合	-10762
七夕盒子	-10763
三级头吧	-10764
三级头都	-10765
上有红点	-10766
下班车技	-10767
不好开车	-10768
不开车吗	-10769
不开车呢	-10770
不适合你	-10771
世界第一	-10772
两个红点	-10773
个快递员	-10774
个盒子有	-10775
个礼盒了	-10776
个礼盒吗	-10777
丶小祖宗	-10778
主播都是	-10779
也会开车	-10780
也别穿甲	-10781
也就算了	-10782
什么操作	-10783
他上车了	-10784
件吉利服	-10785
你就开车	-10786
你成盒了	-10787
你摩托车	-10788
你这礼盒	-10789
保镖来了	-10790
倍镜不拿	-10791
倍镜没拿	-10792
再来点呗	-10793
几点开车	-10794
出神入化	-10795
刚才那个	-10796
别的主播	-10797
刷三级头	-10798
勇投弹手	-10799
即可上车	-10800
去当保安	-10801
友的礼盒	-10802
发工资了	-10803
变盒子的	-10804
哪里去了	-10805
喜欢红点	-10806
喝饮料啊	-10807
在摩托车	-10808
在盒子里	-10809
在线跑毒	-10810
坐车打药	-10811
天命圈来	-10812
夫妻双双	-10813
头皮发麻	-10814
奇的礼盒	-10815
奢华低调	-10816
好不容易	-10817
妹子上车	-10818
宁为玉碎	-10819
少喝饮料	-10820
就有这个	-10821
就能上车	-10822
左边拉满	-10823
幸福开始	-10824
开车撞死	-10825
开车现场	-10826
开车的人	-10827
开车的吗	-10828
心有凌芯	-10829
心的礼盒	-10830
快递盒子	-10831
怎么不拿	-10832
怎么不要	-10833
怎么不说	-10834
怎么调的	-10835
怎么选择	-10836
想上车了	-10837
成盒三把	-10838
我们一起	-10839
我去舔包	-10840
我是巴西	-10841
我还以为	-10842
打成盒子	-10843
托马斯的	-10844
扫下来了	-10845
技术主播	-10846
把八倍镜	-10847
把吉利服	-10848
把把吃鸡	-10849
排装甲车	-10850
摄窝衣戀	-10851
摩托车没	-10852
摩托车胎	-10853
时间到了	-10854
明明白白	-10855
是不是要	-10856
是多少钱	-10857
景颜专属	-10858
最后一把	-10859
有福利的	-10860
本书上车	-10861
止痛药啊	-10862
死于翻车	-10863
死的更快	-10864
死的那个	-10865
没意思啊	-10866
没有灵魂	-10867
没有看见	-10868
浮生半世	-10869
涉嫌开车	-10870
灏的礼盒	-10871
火柴盒里	-10872
炸炸鱼塘	-10873
爱总动员	-10874
玩的时候	-10875
玩这游戏	-10876
番茄牛腩	-10877
的小妖精	-10878
的小萌芽	-10879
的盒子上	-10880
盒子来了	-10881
破碎流离	-10882
礼盒抽奖	-10883
粉丝上车	-10884
红点开镜	-10885
继续开车	-10886
自动驾驶	-10887
花一块钱	-10888
花里胡哨	-10889
虚拟人生	-10890
被吉利服	-10891
让孤存来	-10892
请坐沙发	-10893
谁在开车	-10894
豪哥开车	-10895
走了我们	-10896
跑毒的人	-10897
轰炸区啊	-10898
轰炸区是	-10899
过分了啊	-10900
还喝饮料	-10901
这个握把	-10902
送礼盒了	-10903
透视炸鱼	-10904
那个位置	-10905
都不开车	-10906
都不要了	-10907
都会开车	-10908
都打不过	-10909
都是开车	-10910
都能上树	-10911
都要跑毒	-10912
里有红点	-10913
钢铁直男	-10914
问题不大	-10915
随便开车	-10916
魔佳军团	-10917
🚃🚃🚃🚃	-10918
99999	-10919
golly	-10920
~~~~~	-10921
▁Baby	-10922
▁Nice	-10923
▁XLCH	-10924
▁^_^♪	-10925
▁godv	-10926
▁。。。。	-10927
▁一顿操作	-10928
▁一鸡三盒	-10929
▁三级头在	-10930
▁三级头是	-10931
▁上车怎么	-10932
▁下次上车	-10933
▁不上保镖	-10934
▁不吃药药	-10935
▁不喝饮料	-10936
▁不好意思	-10937
▁不是空投	-10938
▁两个盒子	-10939
▁主播可以	-10940
▁主播直播	-10941
▁人家开车	-10942
▁从天而降	-10943
▁他上车了	-10944
▁传说中的	-10945
▁你一开车	-10946
▁你一级头	-10947
▁你上车啊	-10948
▁你能不能	-10949
▁你这不是	-10950
▁保镖不在	-10951
▁保镖为啥	-10952
▁保镖之前	-10953
▁保镖今晚	-10954
▁保镖在那	-10955
▁保镖通宵	-10956
▁全息不要	-10957
▁刚刚不是	-10958
▁刚才开车	-10959
▁刷啥上车	-10960
▁厉害的话	-10961
▁叫上保镖	-10962
▁叫你开车	-10963
▁可以开船	-10964
▁吉利服太	-10965
▁回去开车	-10966
▁在盒子里	-10967
▁壹娃盒家	-10968
▁天天换号	-10969
▁好像有个	-10970
▁小号炸鱼	-10971
▁开车上去	-10972
▁开车下去	-10973
▁开车去了	-10974
▁开车无据	-10975
▁开车进毒	-10976
▁感谢剧终	-10977
▁感谢各位	-10978
▁感谢影娱	-10979
▁感谢我小	-10980
▁感谢榜六	-10981
▁我看到了	-10982
▁我都说了	-10983
▁找个盒子	-10984
▁握把握把	-10985
▁摩托车不	-10986
▁摩托车在	-10987
▁摩托车没	-10988
▁摩托车飞	-10989
▁普通礼盒	-10990
▁最后一局	-10991
▁极度缥缈	-10992
▁标题开车	-10993
▁欢迎保镖	-10994
▁没有握把	-10995
▁溜了溜了	-10996
▁满地盒子	-10997
▁炙热的冷	-10998
▁炸鱼塘吧	-10999
▁炸鱼塘的	-11000
▁猴子上树	-11001
▁现在上车	-11002
▁现在可以	-11003
▁现在没有	-11004
▁现在盒子	-11005
▁现场翻车	-11006
▁电话轰炸	-11007
▁盒子精啊	-11008
▁直接上车	-11009
▁直接翻车	-11010
▁直播翻车	-11011
▁直播跑毒	-11012
▁看你直播	-11013
▁礼盒开的	-11014
▁童话家的	-11015
▁第一次见	-11016
▁红点压枪	-11017
▁红点洗白	-11018
▁红点跑了	-11019
▁继续开车	-11020
▁虎牙第一	-11021
▁装甲车能	-11022
▁要翻车的	-11023
▁请问主播	-11024
▁谢谢十八	-11025
▁车技一流	-11026
▁车技惊人	-11027
▁轰炸区啊	-11028
▁这开车的	-11029
▁这快递员	-11030
▁这样开车	-11031
▁隔壁老外	-11032
▁马枪握把	-11033
◡‿.◡✿	-11034
一个二级头	-11035
丁丁能打结	-11036
上车的那种	-11037
不悔的礼盒	-11038
不适合开车	-11039
专业送快递	-11040
两个三级头	-11041
两个装甲车	-11042
两栖装甲车	-11043
两辆装甲车	-11044
个三级头在	-11045
个礼盒谢谢	-11046
丶夜雨寒枫	-11047
二级头不要	-11048
五斤麻辣油	-11049
动不动开车	-11050
去送快递吧	-11051
只会炸鱼塘	-11052
可以上车啊	-11053
可以卡牌子	-11054
可以装握把	-11055
可惜没证据	-11056
喜欢喝饮料	-11057
喝酒不开车	-11058
回忆的礼盒	-11059
垂直握把吗	-11060
好像在开车	-11061
小姐姐上车	-11062
小黑盒看看	-11063
带什么握把	-11064
带水友上车	-11065
开车的那个	-11066
怎么做到的	-11067
我也要上车	-11068
我又没证据	-11069
找个二级头	-11070
换座位杀人	-11071
搜索大镖客	-11072
摩托车可以	-11073
是不可能的	-11074
是老司机了	-11075
有个装甲车	-11076
有机会上车	-11077
死于跑毒了	-11078
比红点好压	-11079
比红点好用	-11080
没有摩托车	-11081
炸鱼主播的	-11082
然后送快递	-11083
然没有放弃	-11084
爱的摩托车	-11085
穿吉利服的	-11086
第一个成盒	-11087
老司机联盟	-11088
老板久等呢	-11089
自己的想法	-11090
装什么握把	-11091
解说在开车	-11092
让队友开车	-11093
趁他喝饮料	-11094
越来越好了	-11095
迷弟的礼盒	-11096
那个装甲车	-11097
都是一级头	-11098
野原新之助	-11099
队友三级头	-11100
饮料止痛药	-11101
骑上摩托车	-11102
骑摩托车的	-11103
魔法师上车	-11104
▁一个魔法书	-11105
▁一群老司机	-11106
▁三级头不是	-11107
▁三级头怎么	-11108
▁上保镖保镖	-11109
▁上车啥条件	-11110
▁上车怎么说	-11111
▁上车的时候	-11112
▁不是在跑毒	-11113
▁不能上车吗	-11114
▁不要吉利服	-11115
▁为什么不拿	-11116
▁二级头不拿	-11117
▁二级头不捡	-11118
▁二级头换一	-11119
▁二级头没拿	-11120
▁从来不中奖	-11121
▁但没有证据	-11122
▁你不会开车	-11123
▁你的二级头	-11124
▁保镖上班了	-11125
▁保镖是不是	-11126
▁全息不要嘛	-11127
▁刷多少上车	-11128
▁千里送盒子	-11129
▁吉利服不是	-11130
▁吉利服没用	-11131
▁吾疑汝开车	-11132
▁地毯式轰炸	-11133
▁大妈上车了	-11134
▁大妈不上车	-11135
▁大花猫媳妇	-11136
▁大郎喝药了	-11137
▁好多装甲车	-11138
▁妹妹坐船头	-11139
▁孤独的骡子	-11140
▁开挂炸鱼塘	-11141
▁开车就好了	-11142
▁感觉在开车	-11143
▁我严重怀疑	-11144
▁我怀疑开车	-11145
▁我怎么感觉	-11146
▁我掐指一算	-11147
▁我还没上车	-11148
▁摩托车只能	-11149
▁摩托车怎么	-11150
▁摩托车杀人	-11151
▁摩托车比赛	-11152
▁摩托车那个	-11153
▁新的三级头	-11154
▁日本天命圈	-11155
▁明天去上班	-11156
▁有个三级头	-11157
▁来个三级头	-11158
▁楼酱的阿兰	-11159
▁止痛药没拿	-11160
▁残留的回忆	-11161
▁沙漠吉利服	-11162
▁浮夸丶久伴	-11163
▁渣男轰炸区	-11164
▁狗牌提升至	-11165
▁现在三级头	-11166
▁用三角握把	-11167
▁老婆你在哪	-11168
▁落地成盒子	-11169
▁落地成盒扣	-11170
▁落地盒子精	-11171
▁装甲车怎么	-11172
▁装甲车来了	-11173
▁车技不错啊	-11174
▁车技粉上线	-11175
▁轰炸区炸的	-11176
▁还是保镖好	-11177
▁还是摩托车	-11178
▁迟到的相遇	-11179
▁预言家发言	-11180
▁驾临直播间	-11181
▁骑上摩托车	-11182
三把落地成盒	-11183
两把落地成盒	-11184
二级头换一级	-11185
什么握把好用	-11186
今天吃药了吗	-11187
兰花指喝饮料	-11188
准备送快递了	-11189
即可欺骗主播	-11190
又落地成盒了	-11191
哥的七夕礼盒	-11192
就要送快递了	-11193
并且证据确凿	-11194
开车换位杀人	-11195
恩可的小奶狗	-11196
或者一个礼盒	-11197
有新的二级头	-11198
比我红点还稳	-11199
灬的七夕礼盒	-11200
的一大堆礼盒	-11201
的三级头都比	-11202
盒盒盒盒盒盒	-11203
直播落地成盒	-11204
磨人的小妖精	-11205
而且证据确凿	-11206
落地成盒不算	-11207
要上车的抓紧	-11208
要不落地成盒	-11209
骑摩托车的人	-11210
Johnson	-11211
▁Mgolly	-11212
▁。。。。。。	-11213
▁三级头都不要	-11214
▁为什么喝饮料	-11215
▁二级头不要了	-11216
▁二级头不要吗	-11217
▁先上车后补票	-11218
▁发呆中的老鼠	-11219
▁大型开车现场	-11220
▁小哥哥上车吗	-11221
▁小心龙哥开车	-11222
▁快救我去舔包	-11223
▁感谢晕的礼盒	-11224
▁我怀疑他开车	-11225
▁我能不能上车	-11226
▁来不及解释了	-11227
▁没有车没有房	-11228
▁祝你落地成盒	-11229
▁第一视角开车	-11230
▁落地成盒就是	-11231
▁还有一个盒子	-11232
▁这是在炸鱼吗	-11233
▁逍遥丶爱我莹	-11234
可以装红点了吗	-11235
开车切座位杀人	-11236
死在跑毒的路上	-11237
版红点好怀恋老	-11238
蹲着歪着头保安	-11239
送出的七夕礼盒	-11240
▁一个藏宝图上车	-11241
▁可是我没有证据	-11242
▁怀疑主播在开车	-11243
▁恩宝是个小盒妹	-11244
▁感谢涛爷老司机	-11245
▁我怀疑有人开车	-11246
▁我是一只小老虎	-11247
▁某主播直播跑毒	-11248
▁盒盒盒盒盒盒盒	-11249
▁章鱼哥没有墨吖	-11250
▁谢谢三哥的礼盒	-11251
▁谢谢大哥的礼盒	-11252
▁谢谢涛爷老司机	-11253
永久车位一个火箭	-11254
红点红点红点红点	-11255
走了我们开车去了	-11256
!!!!!!!!!	-11257
biubiubiu	-11258
▁一个虎牙一号上车	-11259
▁不能让老板久等呢	-11260
▁他带着盒子走来了	-11261
▁兄弟们上车魔法书	-11262
▁晚上开车注意安全	-11263
▁盒盒盒盒盒盒盒盒	-11264
▁谢谢老板们的礼盒	-11265
。。。。。。。。。	-11266
国队为什么都用全息	-11267
▁怎么让车滑行并吃药	-11268
▁感谢南柯一梦的礼盒	-11269
▁欢迎仙女乔的快递员	-11270
谢谢社会我榜一俊俊丶	-11271
▁感谢社会我榜八谷柯丶	-11272
个七夕礼盒辛苦大哥的小	-11273
今天没吃药起不来让孤存来	-11274
▁感谢我是一颗小虎牙的礼盒	-11275
▁感谢明明家的巧克力的礼盒	-11276
▁感谢社会我榜三小可爱的礼盒	-11277
▁我怀疑你在开车但我没有证据	-11278
▁感谢榜六谨之姐姐是带美女送的	-11279
................	-11280
/{66/{66/{66/{66	-11281
▁现在有舰队大家可以拆拆高级礼盒	-11282
!]	-11283
#)	-11284
-,	-11285
-。	-11286
.8	-11287
3_	-11288
4?	-11289
57	-11290
97	-11291
?。	-11292
AA	-11293
AI	-11294
BT	-11295
DV	-11296
De	-11297
Gu	-11298
IN	-11299
JI	-11300
JK	-11301
PI	-11302
TK	-11303
UN	-11304
VE	-11305
XI	-11306
ZY	-11307
_♥	-11308
cf	-11309
cy	-11310
ff	-11311
gm	-11312
ju	-11313
ke	-11314
kk	-11315
li	-11316
mg	-11317
mk	-11318
ot	-11319
ri	-11320
us	-11321
ya	-11322
͈̎	-11323
▁i	-11324
▁q	-11325
▁u	-11326
▁z	-11327
▁ζ	-11328
▁‹	-11329
▁❤	-11330
▁与	-11331
▁乄	-11332
▁兄	-11333
▁内	-11334
▁刀	-11335
▁合	-11336
▁吧	-11337
▁含	-11338
▁吸	-11339
▁喵	-11340
▁嘎	-11341
▁嘛	-11342
▁嘿	-11343
▁图	-11344
▁块	-11345
▁姐	-11346
▁它	-11347
▁客	-11348
▁忽	-11349
▁执	-11350
▁扶	-11351
▁招	-11352
▁拼	-11353
▁播	-11354
▁擦	-11355
▁救	-11356
▁方	-11357
▁柒	-11358
▁武	-11359
▁永	-11360
▁沉	-11361
▁洋	-11362
▁画	-11363
▁相	-11364
▁睡	-11365
▁礼	-11366
▁秋	-11367
▁穷	-11368
▁糖	-11369
▁素	-11370
▁纯	-11371
▁结	-11372
▁绕	-11373
▁网	-11374
▁船	-11375
▁菩	-11376
▁蜜	-11377
▁谜	-11378
▁贼	-11379
▁趴	-11380
▁躺	-11381
▁辛	-11382
▁迪	-11383
▁遍	-11384
▁钱	-11385
▁雾	-11386
▁霸	-11387
▁静	-11388
▁面	-11389
▁音	-11390
▁饭	-11391
▁麻	-11392
♩♭	-11393
。4	-11394
》》	-11395
】-	-11396
】:	-11397
一冲	-11398
一命	-11399
一哥	-11400
一无	-11401
一狙	-11402
一连	-11403
一首	-11404
七月	-11405
三连	-11406
上上	-11407
上吗	-11408
上局	-11409
上瘾	-11410
下拉	-11411
不倒	-11412
不准	-11413
不加	-11414
不吃	-11415
不急	-11416
不抖	-11417
不时	-11418
不止	-11419
不爽	-11420
不穿	-11421
不耐	-11422
不胜	-11423
不许	-11424
不跟	-11425
与我	-11426
丑了	-11427
丛林	-11428
东莞	-11429
丢丢	-11430
个了	-11431
个锅	-11432
丶秋	-11433
丶黑	-11434
为毛	-11435
么得	-11436
之中	-11437
之术	-11438
之辈	-11439
买盒	-11440
乱说	-11441
了几	-11442
争取	-11443
事情	-11444
二喜	-11445
二狗	-11446
二郎	-11447
亦烧	-11448
人人	-11449
人吗	-11450
人机	-11451
人美	-11452
介绍	-11453
他么	-11454
他命	-11455
他说	-11456
他那	-11457
仙草	-11458
会无	-11459
会玩	-11460
伞皇	-11461
伦格	-11462
位吗	-11463
位啊	-11464
作弊	-11465
你一	-11466
你做	-11467
你叫	-11468
你可	-11469
你啦	-11470
你快	-11471
你怕	-11472
你早	-11473
你看	-11474
你给	-11475
你胎	-11476
依旧	-11477
保命	-11478
保证	-11479
倍啊	-11480
倍打	-11481
停的	-11482
偷偷	-11483
光明	-11484
光脚	-11485
全在	-11486
公爵	-11487
六六	-11488
六味	-11489
兴趣	-11490
养你	-11491
再不	-11492
冠军	-11493
冲啊	-11494
决战	-11495
凉快	-11496
减肥	-11497
几档	-11498
出发	-11499
出示	-11500
出血	-11501
分吧	-11502
刚哥	-11503
刚来	-11504
别致	-11505
到晚	-11506
刷新	-11507
刷点	-11508
前夫	-11509
前方	-11510
前来	-11511
力赛	-11512
力量	-11513
功能	-11514
加上	-11515
加成	-11516
加血	-11517
动力	-11518
劫道	-11519
包厢	-11520
包围	-11521
包有	-11522
北辰	-11523
医生	-11524
半妩	-11525
半熟	-11526
半路	-11527
单车	-11528
南南	-11529
南瓜	-11530
卟离	-11531
卸了	-11532
原形	-11533
原罪	-11534
去开	-11535
友丶	-11536
友们	-11537
反了	-11538
反压	-11539
反吗	-11540
发个	-11541
发抖	-11542
变声	-11543
只炸	-11544
只送	-11545
叫了	-11546
叫喳	-11547
可太	-11548
叶落	-11549
叹号	-11550
吃吗	-11551
吃完	-11552
吉侬	-11553
同舟	-11554
后备	-11555
后期	-11556
后来	-11557
吓得	-11558
吓死	-11559
听了	-11560
吹牛	-11561
呆了	-11562
呆着	-11563
周一	-11564
呼叫	-11565
哒哒	-11566
哥在	-11567
哥我	-11568
哪儿	-11569
哪家	-11570
哼哼	-11571
啥事	-11572
啪啪	-11573
喜鹊	-11574
嗓子	-11575
噶的	-11576
嚯嚯	-11577
四把	-11578
四点	-11579
回了	-11580
回老	-11581
团团	-11582
固定	-11583
图片	-11584
圈了	-11585
圈内	-11586
圣山	-11587
在下	-11588
在说	-11589
在飞	-11590
地下	-11591
地形	-11592
地黄	-11593
场景	-11594
坐稳	-11595
坑啊	-11596
型的	-11597
城区	-11598
城市	-11599
基础	-11600
塔纳	-11601
复制	-11602
多带	-11603
多点	-11604
多的	-11605
多钱	-11606
大富	-11607
天才	-11608
天智	-11609
太远	-11610
失去	-11611
失败	-11612
头啊	-11613
奄飾	-11614
女孩	-11615
奶奶	-11616
好哥	-11617
好嘛	-11618
好快	-11619
好惨	-11620
如狗	-11621
如玉	-11622
妖妖	-11623
妖怪	-11624
婉儿	-11625
字楼	-11626
孙子	-11627
孤厦	-11628
学了	-11629
安心	-11630
完成	-11631
宏光	-11632
宗师	-11633
宝箱	-11634
宠儿	-11635
客户	-11636
室友	-11637
寸草	-11638
对方	-11639
对的	-11640
小新	-11641
就怕	-11642
就服	-11643
就这	-11644
就靠	-11645
尿尿	-11646
屋里	-11647
屋顶	-11648
属玗	-11649
山坡	-11650
工会	-11651
巨亏	-11652
差别	-11653
已到	-11654
巴巴	-11655
帮忙	-11656
干他	-11657
干啊	-11658
干架	-11659
干过	-11660
年少	-11661
广告	-11662
床上	-11663
度半	-11664
开吗	-11665
开外	-11666
开开	-11667
开水	-11668
开盘	-11669
张胆	-11670
强啊	-11671
往上	-11672
很惨	-11673
得很	-11674
循环	-11675
必备	-11676
必定	-11677
快感	-11678
怂了	-11679
怕伤	-11680
思域	-11681
急着	-11682
恍恍	-11683
恢复	-11684
恶魔	-11685
惚惚	-11686
惜爱	-11687
想想	-11688
慢了	-11689
懂不	-11690
懂了	-11691
懂事	-11692
成就	-11693
成绩	-11694
我从	-11695
我压	-11696
我呢	-11697
我和	-11698
我很	-11699
我才	-11700
我打	-11701
我真	-11702
我给	-11703
我连	-11704
战场	-11705
战斗	-11706
所学	-11707
手了	-11708
手刹	-11709
才说	-11710
扎了	-11711
打出	-11712
打劫	-11713
打卡	-11714
打扰	-11715
打狙	-11716
打鱼	-11717
找打	-11718
抓了	-11719
抗揍	-11720
报仇	-11721
抬头	-11722
抽个	-11723
拉他	-11724
拉到	-11725
拉斯	-11726
拉的	-11727
拉稀	-11728
拜谢	-11729
拿下	-11730
挂吧	-11731
指望	-11732
挚绊	-11733
挡住	-11734
捡过	-11735
掏出	-11736
探点	-11737
提子	-11738
摆设	-11739
撞倒	-11740
撞的	-11741
撩妹	-11742
擂台	-11743
改名	-11744
改的	-11745
放歌	-11746
故人	-11747
效率	-11748
教我	-11749
敢问	-11750
敬业	-11751
断肠	-11752
方面	-11753
无忌	-11754
无所	-11755
无死	-11756
无痕	-11757
无证	-11758
早的	-11759
早起	-11760
早餐	-11761
星期	-11762
春风	-11763
是吗	-11764
是山	-11765
晕了	-11766
晚枫	-11767
晴天	-11768
有两	-11769
有事	-11770
有才	-11771
有种	-11772
有趣	-11773
有过	-11774
木鱼	-11775
未归	-11776
未泯	-11777
本薄	-11778
机头	-11779
机顶	-11780
杀啊	-11781
杀猪	-11782
枪王	-11783
标准	-11784
根据	-11785
桃子	-11786
桶油	-11787
梦醒	-11788
检查	-11789
楊戩	-11790
楚河	-11791
横死	-11792
欣赏	-11793
正好	-11794
毕业	-11795
毕生	-11796
水了	-11797
汇星	-11798
汉子	-11799
江湖	-11800
汽油	-11801
沙雕	-11802
沙鹰	-11803
没点	-11804
油啊	-11805
油门	-11806
治疗	-11807
法拉	-11808
泽靖	-11809
洗头	-11810
洗澡	-11811
测试	-11812
海上	-11813
淡定	-11814
清欢	-11815
渔村	-11816
滑稽	-11817
漂了	-11818
演的	-11819
火火	-11820
灬筱	-11821
炸炸	-11822
点药	-11823
烟雨	-11824
焊门	-11825
爆吗	-11826
爆的	-11827
爱好	-11828
爱意	-11829
牌丶	-11830
牛哥	-11831
狂野	-11832
王东	-11833
王八	-11834
玩呢	-11835
玻璃	-11836
珍妮	-11837
生日	-11838
电线	-11839
画家	-11840
界面	-11841
留给	-11842
病了	-11843
痔疮	-11844
白茶	-11845
的假	-11846
的刷	-11847
的榜	-11848
的笑	-11849
的钱	-11850
皮了	-11851
盒精	-11852
盒装	-11853
盘盘	-11854
相亲	-11855
看下	-11856
看好	-11857
看懂	-11858
看谁	-11859
真不	-11860
真多	-11861
真大	-11862
瞅瞅	-11863
瞎啊	-11864
瞬狙	-11865
短信	-11866
破片	-11867
碧萝	-11868
碰车	-11869
社会	-11870
神器	-11871
神的	-11872
福建	-11873
离兮	-11874
秀儿	-11875
秀到	-11876
秀发	-11877
私聊	-11878
秃子	-11879
秒人	-11880
积分	-11881
稍微	-11882
立刻	-11883
第六	-11884
答应	-11885
米饭	-11886
红灯	-11887
红烧	-11888
红红	-11889
约定	-11890
级了	-11891
纸巾	-11892
给钱	-11893
统计	-11894
维持	-11895
缘分	-11896
羊睡	-11897
羊羊	-11898
耽误	-11899
聆听	-11900
聊了	-11901
肇事	-11902
股东	-11903
肾虚	-11904
胆子	-11905
背的	-11906
胖了	-11907
脸猫	-11908
腰射	-11909
自我	-11910
自觉	-11911
船了	-11912
良人	-11913
花样	-11914
花雪	-11915
苦于	-11916
英语	-11917
莫离	-11918
莱美	-11919
莹莹	-11920
莽了	-11921
菂葰	-11922
菜啊	-11923
萝莉	-11924
虐菜	-11925
蛋蛋	-11926
蜜蜂	-11927
蜡笔	-11928
行不	-11929
行驶	-11930
补死	-11931
补的	-11932
表弟	-11933
装逼	-11934
西瓜	-11935
西西	-11936
要来	-11937
要钱	-11938
视觉	-11939
角色	-11940
评论	-11941
说说	-11942
请看	-11943
费劲	-11944
贼快	-11945
起飞	-11946
跑啥	-11947
跑着	-11948
跟枪	-11949
跳楼	-11950
跳的	-11951
车库	-11952
车都	-11953
轩哥	-11954
轩辕	-11955
轮子	-11956
软件	-11957
过年	-11958
过程	-11959
还打	-11960
还菜	-11961
这位	-11962
这帮	-11963
送中	-11964
送礼	-11965
避孕	-11966
避开	-11967
那位	-11968
那你	-11969
那俩	-11970
那叫	-11971
那就	-11972
那局	-11973
那我	-11974
都很	-11975
都快	-11976
都拿	-11977
都来	-11978
都说	-11979
配置	-11980
酒吧	-11981
酷酷	-11982
重庆	-11983
钱了	-11984
钻粉	-11985
铭心	-11986
长桥	-11987
闭着	-11988
阻击	-11989
阿妹	-11990
阿飞	-11991
附近	-11992
随地	-11993
隐身	-11994
难打	-11995
难言	-11996
集合	-11997
雷特	-11998
雷达	-11999
露露	-12000
霸主	-12001
霸王	-12002
非凡	-12003
靶场	-12004
顶级	-12005
顺手	-12006
预言	-12007
预警	-12008
风险	-12009
饕餮	-12010
饺子	-12011
饿了	-12012
马的	-12013
骂了	-12014
骂骂	-12015
骑车	-12016
骗我	-12017
鸡腿	-12018
鹏吖	-12019
龘龘	-12020
🐠🐠	-12021
💝💝	-12022
😏😏	-12023
🤔🤔	-12024
+16	-12025
-。-	-12026
110	-12027
160	-12028
596	-12029
:??	-12030
AUG	-12031
Ccc	-12032
Hun	-12033
ICE	-12034
Lib	-12035
MDS	-12036
NXZ	-12037
ODV	-12038
Oba	-12039
dei	-12040
eep	-12041
ene	-12042
gay	-12043
ite	-12044
new	-12045
obo	-12046
owm	-12047
rng	-12048
sei	-12049
upu	-12050
▁(▼	-12051
▁07	-12052
▁88	-12053
▁Cr	-12054
▁YE	-12055
▁_、	-12056
▁ai	-12057
▁bt	-12058
▁pu	-12059
▁wh	-12060
▁╰☆	-12061
▁一万	-12062
▁一局	-12063
▁一张	-12064
▁一来	-12065
▁一组	-12066
▁一雷	-12067
▁万里	-12068
▁不亏	-12069
▁不准	-12070
▁不好	-12071
▁不敢	-12072
▁丫头	-12073
▁久爱	-12074
▁九八	-12075
▁也就	-12076
▁书生	-12077
▁亚服	-12078
▁他又	-12079
▁伊比	-12080
▁伏地	-12081
▁作为	-12082
▁你快	-12083
▁你才	-12084
▁你捡	-12085
▁你让	-12086
▁你问	-12087
▁偷偷	-12088
▁决赛	-12089
▁几天	-12090
▁凤爷	-12091
▁凯茜	-12092
▁别再	-12093
▁别问	-12094
▁到了	-12095
▁十点	-12096
▁半纯	-12097
▁卡爷	-12098
▁叔叔	-12099
▁吃完	-12100
▁吃毒	-12101
▁吓得	-12102
▁听风	-12103
▁咸鱼	-12104
▁哪有	-12105
▁啦啦	-12106
▁四月	-12107
▁四盒	-12108
▁在下	-12109
▁在石	-12110
▁地下	-12111
▁多喝	-12112
▁大狙	-12113
▁天宇	-12114
▁奈斯	-12115
▁她是	-12116
▁她说	-12117
▁姐姐	-12118
▁存哥	-12119
▁宇晨	-12120
▁完蛋	-12121
▁导演	-12122
▁小楼	-12123
▁小生	-12124
▁平凡	-12125
▁幸亏	-12126
▁当你	-12127
▁心疼	-12128
▁快艇	-12129
▁忽悠	-12130
▁感冒	-12131
▁憨憨	-12132
▁我丢	-12133
▁我从	-12134
▁我又	-12135
▁我和	-12136
▁我学	-12137
▁户外	-12138
▁房区	-12139
▁房顶	-12140
▁手动	-12141
▁托托	-12142
▁找到	-12143
▁抬走	-12144
▁挑战	-12145
▁换号	-12146
▁掉了	-12147
▁放屁	-12148
▁文明	-12149
▁新疆	-12150
▁新衣	-12151
▁无影	-12152
▁无心	-12153
▁早就	-12154
▁旺仔	-12155
▁是你	-12156
▁暖暖	-12157
▁暴力	-12158
▁月神	-12159
▁有你	-12160
▁有缘	-12161
▁来首	-12162
▁欧服	-12163
▁欧洲	-12164
▁比如	-12165
▁比心	-12166
▁毛子	-12167
▁水边	-12168
▁永久	-12169
▁没车	-12170
▁油锅	-12171
▁波波	-12172
▁泰勒	-12173
▁活动	-12174
▁活该	-12175
▁深海	-12176
▁清丶	-12177
▁游客	-12178
▁满分	-12179
▁火箭	-12180
▁烟斗	-12181
▁牌子	-12182
▁牧师	-12183
▁独狼	-12184
▁瓜皮	-12185
▁甜蜜	-12186
▁生于	-12187
▁白色	-12188
▁的确	-12189
▁看下	-12190
▁看得	-12191
▁看过	-12192
▁睡觉	-12193
▁石锤	-12194
▁空白	-12195
▁第五	-12196
▁等待	-12197
▁等着	-12198
▁等等	-12199
▁粑粑	-12200
▁红牛	-12201
▁老吴	-12202
▁老大	-12203
▁老白	-12204
▁背着	-12205
▁腿哥	-12206
▁自闭	-12207
▁舞裂	-12208
▁节奏	-12209
▁花谢	-12210
▁薄荷	-12211
▁表哥	-12212
▁要被	-12213
▁视频	-12214
▁觉得	-12215
▁记忆	-12216
▁诅咒	-12217
▁说明	-12218
▁请求	-12219
▁诺言	-12220
▁赌神	-12221
▁走着	-12222
▁跳伞	-12223
▁身体	-12224
▁还会	-12225
▁还得	-12226
▁这位	-12227
▁进去	-12228
▁追着	-12229
▁都怪	-12230
▁锤哥	-12231
▁阿韦	-12232
▁陈艺	-12233
▁随便	-12234
▁随缘	-12235
▁集体	-12236
▁非洲	-12237
▁非鱼	-12238
▁顺风	-12239
▁颜值	-12240
▁颜色	-12241
▁风雨	-12242
▁飘了	-12243
▁高架	-12244
▁黄色	-12245
▼#)	-12246
一个个	-12247
一个大	-12248
一个挂	-12249
一倍镜	-12250
一定要	-12251
一枪秒	-12252
一滴血	-12253
一点点	-12254
一盒了	-12255
一起打	-12256
一辆车	-12257
一逼扎	-12258
上不去	-12259
上主播	-12260
上树啊	-12261
上红点	-12262
上路了	-12263
上车前	-12264
上车带	-12265
上车车	-12266
下播吗	-12267
下来就	-12268
不下来	-12269
不刹车	-12270
不好了	-12271
不好吧	-12272
不好看	-12273
不开播	-12274
不怎么	-12275
不明白	-12276
不是我	-12277
不知鱼	-12278
不能装	-12279
不错啊	-12280
东西啊	-12281
个队友	-12282
丶温情	-12283
丶苗苗	-12284
丶谎言	-12285
主播都	-12286
久伴我	-12287
之辈丿	-12288
也没见	-12289
也经常	-12290
二维码	-12291
亲爱的	-12292
人民币	-12293
什么叫	-12294
什么呢	-12295
什么歌	-12296
今天还	-12297
他跑毒	-12298
会无期	-12299
伤害吗	-12300
你们都	-12301
你刚才	-12302
你忘了	-12303
你现在	-12304
你确定	-12305
你要是	-12306
你觉得	-12307
你车技	-12308
保镖你	-12309
保镖小	-12310
倍压的	-12311
倍镜和	-12312
倒一个	-12313
像我们	-12314
像极了	-12315
八倍来	-12316
其他枪	-12317
冒烟了	-12318
凭什么	-12319
别说了	-12320
刺激吗	-12321
前几天	-12322
剑士团	-12323
加油站	-12324
包都不	-12325
十二点	-12326
十块钱	-12327
半妩媚	-12328
单身换	-12329
占背包	-12330
卡死的	-12331
原来是	-12332
去哪了	-12333
又大又	-12334
取关了	-12335
只为护	-12336
只知道	-12337
叫喳喳	-12338
叫小海	-12339
可以抽	-12340
可以换	-12341
可以玩	-12342
可以防	-12343
可爱的	-12344
吃药的	-12345
吓人了	-12346
听说你	-12347
告诉你	-12348
咋上车	-12349
哪个键	-12350
哪家强	-12351
啥都不	-12352
喷子的	-12353
嘴巴子	-12354
四打二	-12355
回宿舍	-12356
回老家	-12357
圈中心	-12358
在河里	-12359
在海里	-12360
在直播	-12361
在空投	-12362
在虎牙	-12363
地黄丸	-12364
坐船了	-12365
坐车吗	-12366
坐车就	-12367
块一盒	-12368
多一点	-12369
多喝热	-12370
多少人	-12371
大礼盒	-12372
太大了	-12373
太远了	-12374
奔跑的	-12375
女保镖	-12376
女孩子	-12377
好久了	-12378
好像有	-12379
好好的	-12380
好玩的	-12381
好难受	-12382
学坏了	-12383
学开车	-12384
容易死	-12385
宿舍楼	-12386
对抗赛	-12387
小就很	-12388
小尾巴	-12389
小弟弟	-12390
小药丸	-12391
小虎粮	-12392
尔吉侬	-12393
就应该	-12394
就是死	-12395
就是盒	-12396
就是说	-12397
就有人	-12398
就落地	-12399
就跑毒	-12400
局翻车	-12401
属玗妳	-12402
左右晃	-12403
已准备	-12404
巴西队	-12405
带妹子	-12406
带老板	-12407
应该有	-12408
开一个	-12409
开什么	-12410
开出了	-12411
开的是	-12412
开船吧	-12413
开视频	-12414
开车嘛	-12415
开车必	-12416
开车打	-12417
开车死	-12418
开车玩	-12419
开车装	-12420
开车门	-12421
开过来	-12422
很牛逼	-12423
很舒服	-12424
怎么会	-12425
怕没钱	-12426
怪怪的	-12427
情怕伤	-12428
惜爱姣	-12429
懵逼了	-12430
成盒吗	-12431
成盒啊	-12432
我不会	-12433
我以为	-12434
我们的	-12435
我傻了	-12436
我压的	-12437
我只服	-12438
我就服	-12439
我是狗	-12440
我服了	-12441
我直接	-12442
我看着	-12443
我真的	-12444
我送了	-12445
我都是	-12446
战舰吗	-12447
戴牌牌	-12448
房子进	-12449
手开车	-12450
扌奄飾	-12451
打一枪	-12452
打不上	-12453
打不中	-12454
打不到	-12455
打不爆	-12456
打人的	-12457
打出了	-12458
打工仔	-12459
打开车	-12460
打烂了	-12461
打这样	-12462
托腮版	-12463
扣三分	-12464
扣工资	-12465
扯淡的	-12466
把保镖	-12467
把手教	-12468
拉力赛	-12469
换一个	-12470
换了个	-12471
掿清风	-12472
描边了	-12473
描边啊	-12474
搞笑了	-12475
摩托摇	-12476
放的歌	-12477
救不了	-12478
文哥哥	-12479
文老三	-12480
斗地主	-12481
无敌啊	-12482
无死角	-12483
无语了	-12484
早上好	-12485
早死了	-12486
时间了	-12487
时间到	-12488
时间吗	-12489
是你吗	-12490
是原罪	-12491
是本人	-12492
是用来	-12493
是直接	-12494
是看到	-12495
是那个	-12496
更新了	-12497
更新后	-12498
最厉害	-12499
有一拼	-12500
有人打	-12501
有何用	-12502
有保镖	-12503
有几个	-12504
有可能	-12505
服务器	-12506
本薄凉	-12507
机顶盒	-12508
杀人啊	-12509
来一把	-12510
某主播	-12511
桑塔纳	-12512
歆大大	-12513
每天都	-12514
每次看	-12515
毒里面	-12516
比你好	-12517
比文哥	-12518
比老文	-12519
求求你	-12520
汪汪汪	-12521
没影子	-12522
没有啊	-12523
油小梦	-12524
法组队	-12525
泽靖丶	-12526
满地图	-12527
激动的	-12528
火柴棒	-12529
火箭了	-12530
炸多了	-12531
炸死你	-12532
炸鱼不	-12533
热一下	-12534
然后被	-12535
爽歪歪	-12536
猫送的	-12537
王思聪	-12538
玩一会	-12539
玩什么	-12540
玩端游	-12541
现在不	-12542
生猴子	-12543
电线杆	-12544
的一笔	-12545
的上树	-12546
的上车	-12547
的人都	-12548
的全息	-12549
的味道	-12550
的大东	-12551
的大佬	-12552
的对枪	-12553
的比赛	-12554
的老婆	-12555
的表现	-12556
的速度	-12557
盒子啦	-12558
盒子就	-12559
盒烟钱	-12560
目张胆	-12561
直接被	-12562
直接走	-12563
直播吗	-12564
看盒子	-12565
睡早起	-12566
礼物盒	-12567
礼盒开	-12568
礼盒没	-12569
秀了吧	-12570
移动的	-12571
空投啊	-12572
突如其	-12573
突突突	-12574
第二个	-12575
等不及	-12576
等着你	-12577
筱灬筱	-12578
红点他	-12579
红点呢	-12580
红点当	-12581
级红点	-12582
给书生	-12583
给你了	-12584
给你的	-12585
给妹子	-12586
给封了	-12587
给我死	-12588
维他命	-12589
翻车就	-12590
老哥稳	-12591
老阴比	-12592
而且我	-12593
肥肥的	-12594
胡椒粉	-12595
脚步声	-12596
自己人	-12597
自己开	-12598
节奏啊	-12599
花雪月	-12600
菂葰洧	-12601
菜满满	-12602
菱宏光	-12603
蒋某人	-12604
被巴西	-12605
被打掉	-12606
要三枪	-12607
证据了	-12608
说你是	-12609
说实话	-12610
说是挂	-12611
请出示	-12612
请叫我	-12613
请签收	-12614
谁上车	-12615
谢谢无	-12616
贼厉害	-12617
跑毒呢	-12618
跑毒圈	-12619
跑毒死	-12620
跟你玩	-12621
跟狗墨	-12622
跟礼盒	-12623
躲轰炸	-12624
车技能	-12625
轩送的	-12626
运保镖	-12627
还不错	-12628
还开挂	-12629
还是有	-12630
还这么	-12631
这两天	-12632
这个图	-12633
这个比	-12634
这么慢	-12635
这是要	-12636
这种局	-12637
违规了	-12638
连盒了	-12639
送一个	-12640
通行证	-12641
那个好	-12642
那个点	-12643
那几个	-12644
那哥们	-12645
都不好	-12646
都得死	-12647
都横死	-12648
都没出	-12649
都没拿	-12650
都看不	-12651
都给我	-12652
都能开	-12653
都觉得	-12654
酸柠檬	-12655
铁憨憨	-12656
队友在	-12657
阿改改	-12658
陌生人	-12659
降低了	-12660
难受了	-12661
顶得住	-12662
领虎粮	-12663
飞上天	-12664
馨提示	-12665
骗过来	-12666
骚操作	-12667
高分局	-12668
黑珍妮	-12669
0.45	-12670
9-99	-12671
??::	-12672
Dust	-12673
PPPP	-12674
acia	-12675
evil	-12676
godv	-12677
hero	-12678
owme	-12679
shou	-12680
solo	-12681
▁132	-12682
▁250	-12683
▁824	-12684
▁aug	-12685
▁bug	-12686
▁fpp	-12687
▁lge	-12688
▁you	-12689
▁☀☁☂	-12690
▁一个个	-12691
▁一只会	-12692
▁一开始	-12693
▁一本书	-12694
▁上班了	-12695
▁上车不	-12696
▁上车去	-12697
▁上车走	-12698
▁上车送	-12699
▁不吃鸡	-12700
▁不开船	-12701
▁不是挂	-12702
▁专家说	-12703
▁为啥我	-12704
▁书亦烧	-12705
▁他们说	-12706
▁他队友	-12707
▁传说中	-12708
▁何永生	-12709
▁你上去	-12710
▁你不拿	-12711
▁你也就	-12712
▁你全息	-12713
▁你天天	-12714
▁你妹的	-12715
▁你家缺	-12716
▁你已经	-12717
▁你现在	-12718
▁你看看	-12719
▁保镖刚	-12720
▁保镖别	-12721
▁保镖去	-12722
▁全息啊	-12723
▁全息好	-12724
▁全息稳	-12725
▁关注了	-12726
▁刚刚的	-12727
▁刚才有	-12728
▁刚有个	-12729
▁别搜了	-12730
▁别说了	-12731
▁别问了	-12732
▁又一个	-12733
▁又成盒	-12734
▁又跑毒	-12735
▁右下角	-12736
▁吃药吧	-12737
▁吃药啦	-12738
▁吃鸡了	-12739
▁咋回事	-12740
▁哪怕是	-12741
▁喝多了	-12742
▁嘤嘤嘤	-12743
▁大哥们	-12744
▁女主播	-12745
▁好可怜	-12746
▁如果你	-12747
▁如果是	-12748
▁安盒子	-12749
▁完蛋了	-12750
▁小地图	-12751
▁小房间	-12752
▁小日本	-12753
▁小盒子	-12754
▁带节奏	-12755
▁开摩托	-12756
▁开车也	-12757
▁开车太	-12758
▁开车子	-12759
▁开车时	-12760
▁开车比	-12761
▁开车碾	-12762
▁开车绕	-12763
▁开车能	-12764
▁开车请	-12765
▁开车过	-12766
▁快吃药	-12767
▁快翻车	-12768
▁怎么做	-12769
▁悲喜是	-12770
▁想你啦	-12771
▁感谢九	-12772
▁感谢家	-12773
▁感谢拜	-12774
▁感谢王	-12775
▁感谢甜	-12776
▁感谢迁	-12777
▁感谢骚	-12778
▁成盒吧	-12779
▁我不是	-12780
▁我之前	-12781
▁我们是	-12782
▁我们要	-12783
▁我准备	-12784
▁我只是	-12785
▁我在想	-12786
▁我坐车	-12787
▁我开了	-12788
▁我昨晚	-12789
▁我曾经	-12790
▁我朋友	-12791
▁我看你	-12792
▁我经常	-12793
▁我说了	-12794
▁我还有	-12795
▁我需要	-12796
▁所以说	-12797
▁打小药	-12798
▁打路人	-12799
▁拿镰刀	-12800
▁搏一搏	-12801
▁新来的	-12802
▁明明是	-12803
▁是你的	-12804
▁是真的	-12805
▁更新后	-12806
▁最喜欢	-12807
▁有一次	-12808
▁有保镖	-12809
▁有木有	-12810
▁有船啊	-12811
▁来上车	-12812
▁染宝宝	-12813
▁梅花桩	-12814
▁楼梯口	-12815
▁欢迎我	-12816
▁汽油桶	-12817
▁没事儿	-12818
▁浅挚绊	-12819
▁游戏名	-12820
▁炸鱼咯	-12821
▁炸鱼糖	-12822
▁炸鱼苗	-12823
▁燃烧瓶	-12824
▁猛男枪	-12825
▁皮皮华	-12826
▁盒子王	-12827
▁盒子那	-12828
▁看一下	-12829
▁看回放	-12830
▁礼盒爆	-12831
▁空投有	-12832
▁第一局	-12833
▁红点和	-12834
▁给我来	-12835
▁维克多	-12836
▁翻车啊	-12837
▁翻车就	-12838
▁翻车车	-12839
▁翻车队	-12840
▁艾伦格	-12841
▁茶饭饭	-12842
▁菩提子	-12843
▁讲道理	-12844
▁说不定	-12845
▁说开车	-12846
▁说的是	-12847
▁说真的	-12848
▁请叫我	-12849
▁谁让你	-12850
▁谢谢北	-12851
▁谢谢天	-12852
▁谢谢妖	-12853
▁谢谢梦	-12854
▁跑圈啊	-12855
▁跑圈外	-12856
▁跑毒呀	-12857
▁跑毒的	-12858
▁车技不	-12859
▁轰炸圈	-12860
▁边开车	-12861
▁还没有	-12862
▁这一把	-12863
▁这个比	-12864
▁这娘们	-12865
▁这孩子	-12866
▁这家伙	-12867
▁这怎么	-12868
▁这都敢	-12869
▁这里面	-12870
▁那时候	-12871
▁镰刀别	-12872
▁開禮盒	-12873
▁队友包	-12874
▁阿改改	-12875
▁阿羊睡	-12876
▁饭多多	-12877
▁马路边	-12878
◕‿◕。	-12879
、、、、	-12880
一下盒子	-12881
一不小心	-12882
一个一个	-12883
一个小时	-12884
一次性送	-12885
一毛一只	-12886
一波礼盒	-12887
一点都不	-12888
一生之敌	-12889
一直都是	-12890
一看就是	-12891
一脸满足	-12892
一边开车	-12893
一鸡定理	-12894
三排阳光	-12895
三级头不	-12896
三级甲都	-12897
上装甲车	-12898
上贵宾席	-12899
上车的么	-12900
不会上车	-12901
不保镖不	-12902
不喝饮料	-12903
不就行了	-12904
不开车啊	-12905
不开车走	-12906
不是炸鱼	-12907
不是红点	-12908
不用上树	-12909
不用跑毒	-12910
与你同行	-12911
丢人现眼	-12912
个人习惯	-12913
个手榴弹	-12914
个礼盒出	-12915
个老司机	-12916
个骨灰盒	-12917
临时上车	-12918
丶盒子精	-12919
丶秋鹏吖	-12920
为了想念	-12921
主播可爱	-12922
也打不过	-12923
买盒套套	-12924
了摩托车	-12925
二级头吧	-12926
人上车吗	-12927
人家直接	-12928
什么情况	-12929
从头到尾	-12930
以后开车	-12931
会不会被	-12932
但是没有	-12933
你开车吗	-12934
你没看到	-12935
你要上车	-12936
你要不要	-12937
保安队长	-12938
倍镜丢了	-12939
先上车后	-12940
八倍镜了	-12941
刚刚那个	-12942
初心未泯	-12943
前十上车	-12944
加油加油	-12945
包都不舔	-12946
十万伏特	-12947
十个盒子	-12948
去保镖那	-12949
去叫保镖	-12950
去炸鱼吧	-12951
叔的礼盒	-12952
只会炸鱼	-12953
可以上树	-12954
可以增加	-12955
台摩托车	-12956
号盒子那	-12957
吃鸡送你	-12958
哥要上车	-12959
回来给我	-12960
在小黑盒	-12961
在开车了	-12962
在装甲车	-12963
场比赛就	-12964
坐摩托车	-12965
块钱礼盒	-12966
基本操作	-12967
基本都是	-12968
多拉魔盒	-12969
天命圈呢	-12970
天命圈就	-12971
天的礼盒	-12972
子弹够吗	-12973
子弹干嘛	-12974
学校霸主	-12975
家小莱美	-12976
容易暴露	-12977
小小小坑	-12978
就出来了	-12979
就变盒子	-12980
就在脚下	-12981
就成盒子	-12982
就是为了	-12983
就是跑毒	-12984
就是那个	-12985
就结束了	-12986
尼古拉斯	-12987
左眼红点	-12988
差不多了	-12989
帝都盒饭	-12990
带一级头	-12991
开开礼盒	-12992
开着开着	-12993
开车出去	-12994
开车慢点	-12995
开车打人	-12996
开车换座	-12997
开车玩玩	-12998
开车走啊	-12999
开车走的	-13000
强行上车	-13001
强行开车	-13002
往毒里扎	-13003
心态崩了	-13004
快递员了	-13005
快递员的	-13006
怎么切换	-13007
怎么跑毒	-13008
恋的礼盒	-13009
恍恍惚惚	-13010
想开车了	-13011
我上车了	-13012
我可看见	-13013
我女朋友	-13014
我就上车	-13015
打摩托车	-13016
打止痛药	-13017
找小姐姐	-13018
拆盒子了	-13019
拿三级头	-13020
拿吉利服	-13021
挂逼主播	-13022
捡不到的	-13023
换位杀人	-13024
摩托车不	-13025
摩托车就	-13026
方向跑毒	-13027
旁边那个	-13028
早点休息	-13029
昨天开车	-13030
是啥意思	-13031
有六倍镜	-13032
有区别吗	-13033
有天命圈	-13034
有没有船	-13035
有的一拼	-13036
来了老弟	-13037
欺负樱桃	-13038
正常操作	-13039
死于车技	-13040
比红点稳	-13041
毕生所学	-13042
永久钻粉	-13043
污污污污	-13044
没吃药啊	-13045
炸鱼塘呢	-13046
点止痛药	-13047
爆三级头	-13048
爱尔兰丶	-13049
狼的礼盒	-13050
王哥上车	-13051
玩装甲车	-13052
用三倍镜	-13053
用冲锋枪	-13054
申请上车	-13055
的小坏蛋	-13056
的盒子吗	-13057
的红点点	-13058
盖骨灰盒	-13059
看不到吗	-13060
看保镖去	-13061
真的可以	-13062
神丶楊戩	-13063
神仙打架	-13064
秋风落尽	-13065
突然开车	-13066
第一时间	-13067
第一次见	-13068
第一视角	-13069
第三视角	-13070
简直就是	-13071
粉丝徽章	-13072
系安全带	-13073
红点妹控	-13074
级头不拿	-13075
级头这是	-13076
给我出来	-13077
翻车了吗	-13078
翻车死了	-13079
老司机卡	-13080
职业比赛	-13081
肯定有人	-13082
能上车啊	-13083
能吃鸡吗	-13084
虎牙主播	-13085
血亏礼盒	-13086
表演一波	-13087
被摩托车	-13088
装甲车里	-13089
要吃鸡了	-13090
让我上车	-13091
走轰炸区	-13092
身体不好	-13093
轰炸区挂	-13094
过去的我	-13095
还一级头	-13096
还不知道	-13097
还是第一	-13098
还有三个	-13099
还有什么	-13100
还要开车	-13101
这把稳了	-13102
这种操作	-13103
进轰炸区	-13104
送装甲车	-13105
那个握把	-13106
那么厉害	-13107
都不上车	-13108
都不会开	-13109
都不要的	-13110
都嫌你菜	-13111
都搜不到	-13112
都是高手	-13113
都看不到	-13114
都能开车	-13115
重要的是	-13116
钦钦上车	-13117
铁血一连	-13118
队友上车	-13119
需要多少	-13120
韩笑送的	-13121
风声送的	-13122
风花雪月	-13123
.....	-13124
newqq	-13125
▁5000	-13126
▁Life	-13127
▁scar	-13128
▁一个虎粮	-13129
▁一看就是	-13130
▁三级头你	-13131
▁三级头拿	-13132
▁三级头没	-13133
▁下落成盒	-13134
▁下面有船	-13135
▁不能上车	-13136
▁不要红点	-13137
▁为什么他	-13138
▁主播炸鱼	-13139
▁主播现在	-13140
▁主播能用	-13141
▁二级头呢	-13142
▁人造轰炸	-13143
▁什么车技	-13144
▁今天礼盒	-13145
▁他不喜欢	-13146
▁作为一个	-13147
▁你不上车	-13148
▁你不开车	-13149
▁你再开车	-13150
▁你开车啊	-13151
▁你怎么不	-13152
▁你这标题	-13153
▁保安小海	-13154
▁保镖几点	-13155
▁保镖干嘛	-13156
▁保镖广西	-13157
▁保镖找你	-13158
▁保镖是榜	-13159
▁保镖真的	-13160
▁保镖让你	-13161
▁保镖那个	-13162
▁关键时刻	-13163
▁军事基地	-13164
▁准备开车	-13165
▁几点开车	-13166
▁半纯半熟	-13167
▁去送快递	-13168
▁反向开车	-13169
▁各位兄弟	-13170
▁吉利服呀	-13171
▁咋不开车	-13172
▁在开车吗	-13173
▁坐等翻车	-13174
▁大家都是	-13175
▁天命圈也	-13176
▁天命圈呀	-13177
▁天命圈的	-13178
▁天命圈还	-13179
▁天降正义	-13180
▁夫妻双双	-13181
▁好想上车	-13182
▁如何上车	-13183
▁学学人家	-13184
▁学校霸王	-13185
▁守隐于潇	-13186
▁容易翻车	-13187
▁对方正在	-13188
▁小姐姐我	-13189
▁小心开车	-13190
▁小盒兄弟	-13191
▁就喜欢看	-13192
▁左边拉满	-13193
▁干盒子了	-13194
▁平凡之路	-13195
▁开盒子有	-13196
▁开船过桥	-13197
▁开车不是	-13198
▁开车劫道	-13199
▁开车压啊	-13200
▁开车去拿	-13201
▁开车小心	-13202
▁开车就死	-13203
▁开车就跑	-13204
▁开车打人	-13205
▁开车执法	-13206
▁开车撞船	-13207
▁开车是吧	-13208
▁开车溜吧	-13209
▁开车跑啊	-13210
▁开车那波	-13211
▁当众开车	-13212
▁快递员啊	-13213
▁怎么不要	-13214
▁怎么可能	-13215
▁怎么没有	-13216
▁想看保镖	-13217
▁感觉你要	-13218
▁感谢你是	-13219
▁感谢心愿	-13220
▁感谢我爱	-13221
▁感谢永远	-13222
▁感谢汇星	-13223
▁感谢波波	-13224
▁感谢流年	-13225
▁我开车了	-13226
▁我心飞扬	-13227
▁我抽礼盒	-13228
▁我是一个	-13229
▁我要举报	-13230
▁打止痛药	-13231
▁找个保镖	-13232
▁把把成盒	-13233
▁抽礼盒了	-13234
▁拆礼盒啦	-13235
▁拉我上车	-13236
▁拿吉利服	-13237
▁换个握把	-13238
▁握把没捡	-13239
▁握把没装	-13240
▁摩托车撞	-13241
▁摩托车骑	-13242
▁有人开船	-13243
▁有子弹袋	-13244
▁有红点啊	-13245
▁榜二油锅	-13246
▁欢迎来到	-13247
▁歌的问题	-13248
▁死于车技	-13249
▁每次看到	-13250
▁水里盒子	-13251
▁永久上车	-13252
▁没有忽吹	-13253
▁现在流行	-13254
▁盒子主播	-13255
▁直吹握把	-13256
▁瞎子主播	-13257
▁礼物上车	-13258
▁礼盒好坑	-13259
▁空中成盒	-13260
▁第一人称	-13261
▁等我上车	-13262
▁红点丢了	-13263
▁红点没有	-13264
▁红点爆头	-13265
▁老板上车	-13266
▁老王上车	-13267
▁花谢花开	-13268
▁被摩托车	-13269
▁装甲车的	-13270
▁装甲车被	-13271
▁订阅上车	-13272
▁讲个笑话	-13273
▁说着说着	-13274
▁请问这是	-13275
▁请问这里	-13276
▁跑毒要紧	-13277
▁跑毒跑毒	-13278
▁车技主播	-13279
▁车技了得	-13280
▁轰炸机群	-13281
▁还有没有	-13282
▁这个握把	-13283
▁这四倍镜	-13284
▁这就是我	-13285
▁这把吃鸡	-13286
▁这是保镖	-13287
▁那我上车	-13288
▁都在开车	-13289
▁都是一枪	-13290
▁都跑毒了	-13291
▁钦钦上车	-13292
▁队友盒子	-13293
▁队友菜的	-13294
▁陈艺如玉	-13295
▁风声开车	-13296
▁风雨同舟	-13297
一与的礼盒	-13298
一个三倍镜	-13299
一个开车的	-13300
一个礼盒中	-13301
一个礼盒就	-13302
一个魔法书	-13303
一块钱礼盒	-13304
一枪二级头	-13305
一瓶止痛药	-13306
上线了保镖	-13307
不不保镖不	-13308
不开车了吗	-13309
不拿三级头	-13310
不是天谴圈	-13311
不用红点了	-13312
不用跑圈了	-13313
不能上车吗	-13314
个盒子就是	-13315
个装甲车啊	-13316
个送快递的	-13317
丶一发入魂	-13318
买个游戏吧	-13319
人开车过来	-13320
他的摩托车	-13321
以轰炸完毕	-13322
你什么时候	-13323
你在开车吗	-13324
你思念成盒	-13325
先生的礼盒	-13326
六味地黄丸	-13327
别炸鱼塘了	-13328
卡卤蛋徽章	-13329
去小黑盒查	-13330
又是天命圈	-13331
又是文老三	-13332
叫什么名字	-13333
可以上红点	-13334
可以开车吗	-13335
听到摩托车	-13336
咸咸的地方	-13337
哥礼盒刷屏	-13338
哪个握把好	-13339
喜欢主播就	-13340
喜鹊叫喳喳	-13341
天命圈都没	-13342
女司机开车	-13343
婉儿小仙女	-13344
小就很单纯	-13345
就成盒子了	-13346
就是盒子精	-13347
就知道开车	-13348
就能上车了	-13349
就能卡牌子	-13350
已经成盒了	-13351
带我上车啊	-13352
并且有证据	-13353
开车杀人了	-13354
开车杀人的	-13355
开车送人头	-13356
怎么不减速	-13357
怕落地成盒	-13358
我们不开车	-13359
我就放心了	-13360
我怀疑你们	-13361
我的摩托车	-13362
我都压不住	-13363
或一个礼盒	-13364
房子进人了	-13365
房间号多少	-13366
扌奄飾悲伤	-13367
才能上车啊	-13368
打小号炸鱼	-13369
换位置杀人	-13370
摩托车开的	-13371
无死角翻车	-13372
是个好东西	-13373
是什么操作	-13374
有三级头了	-13375
有装甲车了	-13376
木易小沙弥	-13377
来个三级头	-13378
来送快递了	-13379
沙漠吉利服	-13380
潜水的大东	-13381
灵敏度多少	-13382
炸鱼的主播	-13383
王牌快递员	-13384
用三角握把	-13385
用半截握把	-13386
用拇指握把	-13387
白色二级头	-13388
的一堆礼盒	-13389
的四倍镜丶	-13390
的开车杀人	-13391
的时候怎么	-13392
盒子上跳舞	-13393
盒子里面有	-13394
直接开车走	-13395
礼物刷一刷	-13396
童话在开车	-13397
系好安全带	-13398
翻译在开车	-13399
老司机开车	-13400
老是天命圈	-13401
老板上车啊	-13402
耳朵的礼盒	-13403
联系房管哟	-13404
花一个礼盒	-13405
豆豆的岁月	-13406
豆豆的影子	-13407
起来吃药了	-13408
跑毒的路上	-13409
跟红点一样	-13410
轰炸区炸的	-13411
辜负天命圈	-13412
运保镖大队	-13413
这么多盒子	-13414
这集我看过	-13415
送快递来了	-13416
送快递的人	-13417
那个二级头	-13418
那个吉利服	-13419
都是在跑毒	-13420
金牌快递员	-13421
队友送快递	-13422
骑摩托车啊	-13423
9-9900	-13424
▁.....	-13425
▁7911、	-13426
▁babyc	-13427
▁dacia	-13428
▁一楼三级头	-13429
▁一楼八倍镜	-13430
▁一直天谴圈	-13431
▁一级头不是	-13432
▁一颗手榴弹	-13433
▁三级头到手	-13434
▁三级头就是	-13435
▁三级头来了	-13436
▁三级头没了	-13437
▁三级头瞬间	-13438
▁三轮摩托车	-13439
▁上把天命圈	-13440
▁上车刷什么	-13441
▁不是天命圈	-13442
▁不落地成盒	-13443
▁专业送快递	-13444
▁两个三级头	-13445
▁书亦烧仙草	-13446
▁人体描边啊	-13447
▁人家三级头	-13448
▁今天没吃药	-13449
▁你别开车了	-13450
▁你是二级头	-13451
▁你落地成盒	-13452
▁保镖你电脑	-13453
▁保镖没开播	-13454
▁全是天谴圈	-13455
▁八倍镜不要	-13456
▁再落地成盒	-13457
▁刚刚开车的	-13458
▁刚来就开车	-13459
▁别落地成盒	-13460
▁刷一个礼盒	-13461
▁包里二级头	-13462
▁又在炸鱼塘	-13463
▁又是天谴圈	-13464
▁吉利服穿上	-13465
▁喝酒不开车	-13466
▁四号盒子精	-13467
▁坏的三级头	-13468
▁大锤在开车	-13469
▁好久没看见	-13470
▁孙小小小坑	-13471
▁小景很迷茫	-13472
▁差个三级头	-13473
▁开装甲车啊	-13474
▁开车撞他们	-13475
▁开车是不是	-13476
▁开车直播间	-13477
▁开车过去啊	-13478
▁开车过来的	-13479
▁开车送快递	-13480
▁开车飞过去	-13481
▁强行送快递	-13482
▁忘记吃药了	-13483
▁快递员已经	-13484
▁感谢泽靖丶	-13485
▁感谢爱尔兰	-13486
▁感谢虎牙小	-13487
▁我想问一下	-13488
▁我是老司机	-13489
▁我要上车了	-13490
▁找个摩托车	-13491
▁握把不要吗	-13492
▁握把不要嘛	-13493
▁握把换一下	-13494
▁有三级头了	-13495
▁有个二级头	-13496
▁有个吉利服	-13497
▁来个八倍镜	-13498
▁榜二神秘人	-13499
▁死于摩托车	-13500
▁死于轰炸区	-13501
▁比心小姐姐	-13502
▁浅挚绊离兮	-13503
▁淡淡的咖啡	-13504
▁现在摩托车	-13505
▁直接开车去	-13506
▁直播送快递	-13507
▁看军事基地	-13508
▁礼盒送一送	-13509
▁穿个吉利服	-13510
▁红点不拿吗	-13511
▁红点也不要	-13512
▁红点全自动	-13513
▁红点的准心	-13514
▁缺个三级头	-13515
▁苟一苟活到	-13516
▁英勇投弹手	-13517
▁草地吉利服	-13518
▁说装甲车的	-13519
▁豪哥在开车	-13520
▁跑毒小王子	-13521
▁轰炸区有人	-13522
▁轰炸区来了	-13523
▁轻型握把啊	-13524
▁还有装甲车	-13525
▁这个直播间	-13526
▁这句我看过	-13527
▁送快递去咯	-13528
▁送快递来了	-13529
▁那是二级头	-13530
▁镰刀有窒息	-13531
▁队友一级头	-13532
▁队友八倍镜	-13533
▁队友的盒子	-13534
▁阿羊睡了么	-13535
▁非鱼不知鱼	-13536
不会落地成盒	-13537
不是二级头吗	-13538
个血瓶么么哒	-13539
为什么不开车	-13540
主播落地成盒	-13541
也是落地成盒	-13542
也比二级头好	-13543
免费弹幕抽奖	-13544
包里有二级头	-13545
去幼儿园的车	-13546
又是落地成盒	-13547
可以装红点吗	-13548
名字的老司机	-13549
喝饮料的声音	-13550
回放看跑毒的	-13551
就落地成盒了	-13552
带着盒子来了	-13553
开了人体描边	-13554
开出告白气球	-13555
开启车载音乐	-13556
开车开车开车	-13557
开车跑开车跑	-13558
怎么变成白色	-13559
感谢南柯一梦	-13560
我可看见你了	-13561
房子有二级头	-13562
拿到摩托车了	-13563
换成一级头了	-13564
掿清风本薄凉	-13565
来不及解释了	-13566
浪子丶棒棒糖	-13567
火火恍恍惚惚	-13568
用什么握把好	-13569
盒永生哪去了	-13570
直接开车过去	-13571
第一视角开车	-13572
落地成盒流局	-13573
表演落地成盒	-13574
谢谢起风了丶	-13575
边走边喝饮料	-13576
还是落地成盒	-13577
这是人干的事	-13578
连续成盒三把	-13579
送七夕礼盒拿	-13580
避免落地成盒	-13581
都能装红点了	-13582
鲸鱼捡不到的	-13583
Diviner	-13584
▁jeemzz	-13585
▁showme	-13586
▁一个火箭上车	-13587
▁一个礼盒就有	-13588
▁一把鸡三把盒	-13589
▁一边开车一边	-13590
▁三级头三级头	-13591
▁三级头不要了	-13592
▁三级头不要嘛	-13593
▁三级头藏起来	-13594
▁中国队天谴圈	-13595
▁主播怎么上车	-13596
▁主播我想上车	-13597
▁二级头不要啊	-13598
▁二级头不要嘛	-13599
▁二级头二级头	-13600
▁二级换一级头	-13601
▁什么礼物上车	-13602
▁你们在开车吗	-13603
▁你是在开车吗	-13604
▁依然没有放弃	-13605
▁保镖在哪直播	-13606
▁先上车后买票	-13607
▁兰花指喝饮料	-13608
▁凉凉月色为你	-13609
▁只为幸福开始	-13610
▁可是我没证据	-13611
▁合格的快递员	-13612
▁喝饮料喝饮料	-13613
▁天命圈不吃鸡	-13614
▁天命圈天命圈	-13615
▁天命圈没吃鸡	-13616
▁女司机开车了	-13617
▁好的二级头啊	-13618
▁小姐姐在开车	-13619
▁感谢人怕没钱	-13620
▁感谢剧终送的	-13621
▁感谢愿赌服输	-13622
▁感谢老司机的	-13623
▁感谢诺言家的	-13624
▁感谢鲸鱼家的	-13625
▁我榜维恩蓝儿	-13626
▁战舰有福利的	-13627
▁打开车载音乐	-13628
▁摩托车怎么压	-13629
▁有好的二级头	-13630
▁楼上有二级头	-13631
▁每次有装甲车	-13632
▁泥石流丶谎言	-13633
▁泰勒十万伏特	-13634
▁炸鱼塘没意思	-13635
▁秋名山老司机	-13636
▁童话家的晚枫	-13637
▁第一个盒子有	-13638
▁继续落地成盒	-13639
▁老是落地成盒	-13640
▁落地成盒系列	-13641
▁表演落地成盒	-13642
▁要去送快递了	-13643
▁谢谢老板礼盒	-13644
▁轰炸区炸死了	-13645
▁还有一个车位	-13646
▁送礼盒就有了	-13647
一本魔法书上车	-13648
不用红点的原因	-13649
个七夕礼盒么么	-13650
为了想念你送的	-13651
会不会落地成盒	-13652
好朋友都嫌你菜	-13653
感谢社会我榜九	-13654
感谢社会我榜四	-13655
我把把落地成盒	-13656
我是一只小老虎	-13657
我是巴西一逼扎	-13658
我是误造老司机	-13659
我红点都压不住	-13660
狼叔的七夕礼盒	-13661
落地成盒的时候	-13662
▁一个钞票枪上车	-13663
▁一看就是老司机	-13664
▁三级头不要了吗	-13665
▁三级头换二级头	-13666
▁保镖丁丁能打结	-13667
▁光头龙的骨灰盒	-13668
▁十个藏宝图上车	-13669
▁半纯半熟半妩媚	-13670
▁大郎起来喝药了	-13671
▁微笑扌奄飾悲伤	-13672
▁我怀疑你想开车	-13673
▁把三级头藏起来	-13674
▁真正的落地成盒	-13675
▁茶饭饭一毛一只	-13676
▁送一个礼盒就有	-13677
▁送礼盒就有挂件	-13678
▁魔法书能上车吗	-13679
一个合格的快递员	-13680
个七夕礼盒亲亲抱	-13681
个荧光棒亲亲抱抱	-13682
主播多少礼物上车	-13683
包里有好的二级头	-13684
喜欢开车往毒里扎	-13685
火柴棒的七夕礼盒	-13686
跑毒回放跑毒回放	-13687
进来我可看见你了	-13688
Superhero	-13689
▁一只会潜水的大东	-13690
▁三十二号丶我娶你	-13691
▁主播多少礼物上车	-13692
▁天命圈都吃不了鸡	-13693
▁小迷妹的四倍镜丶	-13694
▁性感主播在线开车	-13695
▁感谢起风了丶难言	-13696
▁我们怀疑你在开车	-13697
▁榜二发呆中的老鼠	-13698
▁自带轰炸区的男人	-13699
▁还没落地就成盒了	-13700
刷什么礼物可以上车	-13701
新玥宝贝的七夕礼盒	-13702
笙歌十里的七夕礼盒	-13703
谢谢社会我榜二过客	-13704
▁一个礼盒爆虎牙一号	-13705
▁上保镖上保镖上保镖	-13706
▁只为幸福开始那一刻	-13707
▁哈哈哈哈哈哈盒盒盒	-13708
▁感谢爱尔兰丶的礼盒	-13709
▁我严重怀疑你在开车	-13710
▁榜四喜妹家的唯一颜	-13711
▁每次有装甲车都横死	-13712
个七夕礼盒辛苦大哥的	-13713
开车开车开车开车开车	-13714
永久车位一个火箭即可	-13715
牌子的宝宝花一个礼盒	-13716
???????????	-13717
▁凉凉月色为你思念成盒	-13718
▁哈哈哈哈哈哈哈哈哈哈	-13719
▁大家好我是巴西一逼扎	-13720
个荧光棒辛苦大哥的小手	-13721
开车换座位怎么设置不会	-13722
猪其实挺可爱的七夕礼盒	-13723
▁感谢鲸鱼家的活着的礼盒	-13724
▁没牌子的宝贝送一个礼盒	-13725
哈哈哈哈哈哈哈哈哈哈哈哈	-13726
!!!!!!!!!!!!!	-13727
▁showmechance	-13728
▁我怀疑你在开车但是没有证据	-13729
!@	-13730
,?	-13731
,🐖	-13732
-=	-13733
//	-13734
2,	-13735
26	-13736
3.	-13737
38	-13738
41	-13739
5)	-13740
6,	-13741
68	-13742
7、	-13743
82	-13744
AD	-13745
AQ	-13746
CF	-13747
JS	-13748
JU	-13749
NN	-13750
OL	-13751
OU	-13752
PT	-13753
`)	-13754
`′	-13755
ap	-13756
bz	-13757
et	-13758
md	-13759
oc	-13760
pe	-13761
pl	-13762
ra	-13763
sa	-13764
se	-13765
sg	-13766
ta	-13767
tt	-13768
ˇ◕	-13769
ۣۖ	-13770
▁"	-13771
▁'	-13772
▁`	-13773
▁◕	-13774
▁◞	-13775
▁〖	-13776
▁个	-13777
▁乞	-13778
▁亲	-13779
▁伯	-13780
▁佛	-13781
▁倁	-13782
▁借	-13783
▁其	-13784
▁冒	-13785
▁凡	-13786
▁劝	-13787
▁动	-13788
▁化	-13789
▁叁	-13790
▁史	-13791
▁号	-13792
▁吐	-13793
▁呢	-13794
▁呵	-13795
▁哈	-13796
▁啦	-13797
▁喷	-13798
▁堵	-13799
▁妹	-13800
▁孟	-13801
▁封	-13802
▁屁	-13803
▁岛	-13804
▁并	-13805
▁幻	-13806
▁弹	-13807
▁志	-13808
▁念	-13809
▁怦	-13810
▁怼	-13811
▁慢	-13812
▁戴	-13813
▁抱	-13814
▁拔	-13815
▁据	-13816
▁提	-13817
▁摸	-13818
▁撞	-13819
▁斯	-13820
▁智	-13821
▁更	-13822
▁朝	-13823
▁果	-13824
▁段	-13825
▁消	-13826
▁混	-13827
▁添	-13828
▁滚	-13829
▁煭	-13830
▁牙	-13831
▁特	-13832
▁狙	-13833
▁痛	-13834
▁登	-13835
▁皇	-13836
▁石	-13837
▁示	-13838
▁终	-13839
▁罗	-13840
▁翻	-13841
▁脱	-13842
▁舍	-13843
▁舒	-13844
▁荒	-13845
▁萧	-13846
▁蘇	-13847
▁蛮	-13848
▁蜂	-13849
▁豆	-13850
▁败	-13851
▁跪	-13852
▁退	-13853
▁逆	-13854
▁逗	-13855
▁邓	-13856
▁配	-13857
▁醉	-13858
▁醒	-13859
▁锁	-13860
▁锅	-13861
▁闪	-13862
▁陪	-13863
▁雅	-13864
▁震	-13865
▁顾	-13866
▁鼻	-13867
▁齐	-13868
▁🐶	-13869
▁😽	-13870
♪♫	-13871
♪❃	-13872
❤❤	-13873
、,	-13874
。3	-13875
】1	-13876
・)	-13877
一一	-13878
一了	-13879
一听	-13880
一周	-13881
一哈	-13882
一孽	-13883
一拳	-13884
一撞	-13885
一整	-13886
一步	-13887
一秒	-13888
一粒	-13889
一阵	-13890
一顿	-13891
七七	-13892
万年	-13893
三三	-13894
三千	-13895
三只	-13896
三大	-13897
三楼	-13898
上最	-13899
下吧	-13900
下楼	-13901
不傻	-13902
不成	-13903
不放	-13904
不断	-13905
不求	-13906
不理	-13907
不生	-13908
不白	-13909
不菜	-13910
不虚	-13911
不配	-13912
丑的	-13913
世英	-13914
东南	-13915
丢掉	-13916
两句	-13917
两圈	-13918
两抢	-13919
个挂	-13920
个车	-13921
个鬼	-13922
丫丫	-13923
中按	-13924
中韩	-13925
丰富	-13926
丶刘	-13927
丶啊	-13928
丶抹	-13929
丶阿	-13930
丸丶	-13931
丹丹	-13932
为裸	-13933
丽丝	-13934
之一	-13935
之内	-13936
之夜	-13937
之年	-13938
之类	-13939
乐乐	-13940
乐意	-13941
乐撒	-13942
也来	-13943
乱跑	-13944
了没	-13945
了都	-13946
二人	-13947
二代	-13948
二哥	-13949
二妮	-13950
亏死	-13951
五千	-13952
五枪	-13953
交通	-13954
产假	-13955
亮度	-13956
人去	-13957
人品	-13958
人均	-13959
人堆	-13960
人心	-13961
人还	-13962
仔仔	-13963
他俩	-13964
他吗	-13965
他在	-13966
他敢	-13967
以北	-13968
以身	-13969
任性	-13970
仿佛	-13971
企鹅	-13972
优质	-13973
伙伴	-13974
会说	-13975
伺候	-13976
似乎	-13977
位子	-13978
低头	-13979
何在	-13980
作业	-13981
作为	-13982
作战	-13983
你俩	-13984
你却	-13985
你号	-13986
你才	-13987
你连	-13988
你送	-13989
俗尤	-13990
保姆	-13991
保险	-13992
信不	-13993
信吗	-13994
修养	-13995
修脚	-13996
倍和	-13997
倍率	-13998
倒吧	-13999
倒霉	-14000
倪哥	-14001
值得	-14002
做好	-14003
做梦	-14004
偷人	-14005
偷吃	-14006
傻笑	-14007
儿八	-14008
充分	-14009
光着	-14010
全中	-14011
全体	-14012
全队	-14013
八十	-14014
八音	-14015
公公	-14016
公里	-14017
六十	-14018
六号	-14019
兰兰	-14020
养老	-14021
内幕	-14022
再也	-14023
再送	-14024
农场	-14025
农村	-14026
冲了	-14027
冲鸭	-14028
决定	-14029
净水	-14030
准的	-14031
几句	-14032
几种	-14033
凤梨	-14034
凶了	-14035
出圈	-14036
分析	-14037
切安	-14038
划划	-14039
划水	-14040
刘烨	-14041
判断	-14042
利用	-14043
别事	-14044
别闹	-14045
到死	-14046
刷到	-14047
刷过	-14048
前三	-14049
力啊	-14050
劝退	-14051
功夫	-14052
勾引	-14053
包吗	-14054
匕首	-14055
区房	-14056
区的	-14057
匿名	-14058
十九	-14059
十后	-14060
十足	-14061
半翼	-14062
协同	-14063
南北	-14064
卡尾	-14065
卡死	-14066
卡的	-14067
卫星	-14068
压压	-14069
压头	-14070
压抢	-14071
原谅	-14072
去吗	-14073
去给	-14074
双狙	-14075
反被	-14076
发光	-14077
发挥	-14078
取关	-14079
受不	-14080
变为	-14081
变强	-14082
变得	-14083
变色	-14084
变身	-14085
只剩	-14086
只用	-14087
叫他	-14088
叫做	-14089
叫的	-14090
可言	-14091
右侧	-14092
叶子	-14093
号啊	-14094
后十	-14095
后天	-14096
吕美	-14097
君王	-14098
否则	-14099
听话	-14100
听过	-14101
启动	-14102
吴威	-14103
吸铁	-14104
吹了	-14105
周慕	-14106
命了	-14107
咋没	-14108
和警	-14109
咕咕	-14110
咚咚	-14111
咧咧	-14112
哇哇	-14113
哇噻	-14114
哈士	-14115
唠嗑	-14116
唯宠	-14117
商量	-14118
啧啧	-14119
喊着	-14120
喜提	-14121
喷他	-14122
嗝屁	-14123
嘀嘀	-14124
嘎其	-14125
回复	-14126
回头	-14127
国产	-14128
圈来	-14129
土匪	-14130
在座	-14131
在意	-14132
在搞	-14133
在玩	-14134
在等	-14135
地板	-14136
地的	-14137
地飞	-14138
垫了	-14139
堵上	-14140
堵死	-14141
塑料	-14142
塔山	-14143
境界	-14144
备弹	-14145
夏琳	-14146
外加	-14147
外设	-14148
多分	-14149
多啊	-14150
多囤	-14151
多鱼	-14152
夜店	-14153
大力	-14154
大喊	-14155
大声	-14156
大婶	-14157
大电	-14158
大胆	-14159
大腿	-14160
天堂	-14161
太单	-14162
太少	-14163
太穷	-14164
失望	-14165
失踪	-14166
夸张	-14167
奇迹	-14168
奥特	-14169
女生	-14170
好些	-14171
好使	-14172
好处	-14173
好想	-14174
好汉	-14175
好美	-14176
好过	-14177
好非	-14178
如影	-14179
如往	-14180
如花	-14181
如風	-14182
子窝	-14183
孤儿	-14184
孤单	-14185
孤鸿	-14186
学到	-14187
宁波	-14188
守住	-14189
守着	-14190
安好	-14191
安慰	-14192
安梦	-14193
安详	-14194
宏鑫	-14195
定律	-14196
宝儿	-14197
宝地	-14198
对于	-14199
对友	-14200
对比	-14201
导弹	-14202
导致	-14203
封号	-14204
小二	-14205
小兰	-14206
小刘	-14207
小啊	-14208
小姐	-14209
小帅	-14210
小的	-14211
小祖	-14212
小金	-14213
少吗	-14214
就我	-14215
就把	-14216
就掉	-14217
就盒	-14218
就给	-14219
就问	-14220
尽欢	-14221
屁吃	-14222
屠夫	-14223
山车	-14224
左面	-14225
巫婆	-14226
已成	-14227
帖子	-14228
帝皇	-14229
带个	-14230
带队	-14231
常规	-14232
幅度	-14233
年华	-14234
年的	-14235
年纪	-14236
库有	-14237
康康	-14238
开上	-14239
开不	-14240
开口	-14241
开得	-14242
开杀	-14243
开炮	-14244
开走	-14245
弩箭	-14246
归来	-14247
当水	-14248
当空	-14249
彤彤	-14250
往右	-14251
往后	-14252
往里	-14253
很无	-14254
很棒	-14255
很猛	-14256
得的	-14257
德拉	-14258
德玛	-14259
德美	-14260
心殇	-14261
心没	-14262
心痛	-14263
心软	-14264
快的	-14265
快给	-14266
怀孕	-14267
怕啥	-14268
思考	-14269
急死	-14270
恐怕	-14271
恶耗	-14272
惊喜	-14273
意见	-14274
慕白	-14275
憋屈	-14276
成名	-14277
成熟	-14278
成狗	-14279
成长	-14280
我刚	-14281
我卡	-14282
我笑	-14283
我靠	-14284
战车	-14285
手气	-14286
手的	-14287
才出	-14288
才子	-14289
才炫	-14290
才艺	-14291
打中	-14292
打字	-14293
打着	-14294
打鸟	-14295
扔烟	-14296
扫了	-14297
扫爆	-14298
批发	-14299
找我	-14300
找车	-14301
把门	-14302
抓他	-14303
抛弃	-14304
抢救	-14305
抢车	-14306
报道	-14307
抽筋	-14308
拉了	-14309
拉克	-14310
拉闸	-14311
拉面	-14312
拿出	-14313
拿的	-14314
挂不	-14315
挂空	-14316
挑的	-14317
换的	-14318
捶背	-14319
探头	-14320
接了	-14321
接受	-14322
搬运	-14323
撞烂	-14324
改天	-14325
攻击	-14326
放在	-14327
放屁	-14328
敌方	-14329
救你	-14330
救救	-14331
敢坐	-14332
敢说	-14333
敬畏	-14334
斗气	-14335
斜坡	-14336
斤的	-14337
新年	-14338
无人	-14339
无情	-14340
旧情	-14341
早退	-14342
旭哥	-14343
时我	-14344
明帝	-14345
明月	-14346
星妹	-14347
星宇	-14348
星秀	-14349
星辉	-14350
是不	-14351
是全	-14352
是十	-14353
是去	-14354
是指	-14355
是死	-14356
是狗	-14357
是看	-14358
是给	-14359
是装	-14360
晓兵	-14361
晓潇	-14362
晚晚	-14363
晨韵	-14364
暖暖	-14365
暖男	-14366
暖自	-14367
暧灬	-14368
暴雨	-14369
更秀	-14370
最低	-14371
月仙	-14372
有枪	-14373
有沵	-14374
期五	-14375
木奉	-14376
机制	-14377
杀死	-14378
杀神	-14379
杀精	-14380
杀过	-14381
李思	-14382
来回	-14383
来洗	-14384
林神	-14385
枪枪	-14386
架住	-14387
查查	-14388
树精	-14389
样了	-14390
根筋	-14391
格格	-14392
横幅	-14393
橙子	-14394
欧美	-14395
欲望	-14396
正恒	-14397
正确	-14398
正面	-14399
死位	-14400
死去	-14401
死噶	-14402
死机	-14403
殴打	-14404
每个	-14405
毒啊	-14406
毒边	-14407
比克	-14408
比心	-14409
毛子	-14410
毛钱	-14411
水上	-14412
水的	-14413
水鬼	-14414
江楠	-14415
沟通	-14416
沟里	-14417
没中	-14418
河溪	-14419
泼水	-14420
洅烀	-14421
洗手	-14422
洞口	-14423
流畅	-14424
浪波	-14425
海哥	-14426
海流	-14427
涉黄	-14428
淑芬	-14429
深夜	-14430
混了	-14431
淸酒	-14432
清华	-14433
清清	-14434
清酒	-14435
溺爱	-14436
滚蛋	-14437
滚轮	-14438
漆黑	-14439
演绎	-14440
激烈	-14441
炸咯	-14442
炸毁	-14443
点么	-14444
点吗	-14445
点啊	-14446
点开	-14447
点点	-14448
烦恼	-14449
烽烟	-14450
然无	-14451
熊宝	-14452
熊猫	-14453
熊神	-14454
爱情	-14455
爱酱	-14456
牌哦	-14457
牛掰	-14458
牛笔	-14459
犹豫	-14460
狗生	-14461
狼狈	-14462
猝死	-14463
玩不	-14464
玩儿	-14465
玫瑰	-14466
环境	-14467
现金	-14468
珍爱	-14469
瑟瑟	-14470
瓜子	-14471
甚至	-14472
生死	-14473
生气	-14474
用来	-14475
用过	-14476
甩狙	-14477
甲了	-14478
电信	-14479
电影	-14480
电竞	-14481
男友	-14482
画图	-14483
留局	-14484
疙瘩	-14485
痞子	-14486
白ペ	-14487
白吗	-14488
百色	-14489
的仔	-14490
的去	-14491
的又	-14492
的打	-14493
的扣	-14494
的楼	-14495
的确	-14496
的花	-14497
的苏	-14498
的说	-14499
的还	-14500
的追	-14501
的鱼	-14502
盎然	-14503
监控	-14504
盒啊	-14505
盒有	-14506
盘丝	-14507
盘鸡	-14508
直线	-14509
相当	-14510
看去	-14511
看吗	-14512
真帅	-14513
真快	-14514
真爱	-14515
真稳	-14516
眼前	-14517
着呢	-14518
着就	-14519
着拿	-14520
瞬移	-14521
知名	-14522
砍刀	-14523
砸了	-14524
碧罗	-14525
碰瓷	-14526
神经	-14527
祥子	-14528
票的	-14529
离开	-14530
秀个	-14531
秀秀	-14532
私人	-14533
私藏	-14534
科普	-14535
秒钟	-14536
秘技	-14537
稀泥	-14538
稀碎	-14539
程序	-14540
稳住	-14541
稳稳	-14542
空了	-14543
空腹	-14544
站在	-14545
笑颜	-14546
符文	-14547
等到	-14548
等风	-14549
简称	-14550
算话	-14551
箱里	-14552
米修	-14553
米外	-14554
米粒	-14555
糊涂	-14556
繁星	-14557
线了	-14558
练枪	-14559
终结	-14560
给她	-14561
给的	-14562
维修	-14563
缩小	-14564
罗技	-14565
罗汉	-14566
罚钱	-14567
罢了	-14568
罪名	-14569
美团	-14570
美好	-14571
老拖	-14572
老生	-14573
老练	-14574
老远	-14575
老逼	-14576
而为	-14577
而亡	-14578
而是	-14579
聋子	-14580
聪明	-14581
肉换	-14582
肚子	-14583
肺啊	-14584
背景	-14585
背着	-14586
能扛	-14587
能拿	-14588
能杀	-14589
能秒	-14590
脆了	-14591
自由	-14592
自闯	-14593
舔完	-14594
船上	-14595
良心	-14596
芦娃	-14597
芭比	-14598
花了	-14599
苟着	-14600
英文	-14601
草衣	-14602
菊花	-14603
菜狗	-14604
華麗	-14605
萌妹	-14606
萌面	-14607
著名	-14608
蓝光	-14609
蓝莓	-14610
蓬莱	-14611
虚鲲	-14612
行为	-14613
行动	-14614
补掉	-14615
表白	-14616
被反	-14617
被秒	-14618
被踩	-14619
西亚	-14620
要个	-14621
要了	-14622
要保	-14623
要和	-14624
要改	-14625
要放	-14626
观看	-14627
解下	-14628
认证	-14629
讲话	-14630
话社	-14631
请的	-14632
谁会	-14633
调到	-14634
豆了	-14635
费了	-14636
贼六	-14637
贼多	-14638
贼帅	-14639
赚过	-14640
赛吗	-14641
赢陆	-14642
超神	-14643
跑步	-14644
跟上	-14645
跟个	-14646
跳了	-14647
蹦迪	-14648
蹲点	-14649
车队	-14650
辰辰	-14651
边的	-14652
过敏	-14653
运动	-14654
还刷	-14655
还去	-14656
还播	-14657
还问	-14658
这叫	-14659
这就	-14660
这有	-14661
这货	-14662
进毒	-14663
远方	-14664
违法	-14665
连发	-14666
连鸡	-14667
追车	-14668
送吗	-14669
逃逸	-14670
遇上	-14671
道具	-14672
遗憾	-14673
那年	-14674
那首	-14675
郑州	-14676
郭总	-14677
都够	-14678
都翻	-14679
醉驾	-14680
醒了	-14681
里边	-14682
野马	-14683
鉴定	-14684
钱吗	-14685
钱给	-14686
银豆	-14687
锁定	-14688
锅子	-14689
锤哥	-14690
镜子	-14691
长点	-14692
闪开	-14693
闲逛	-14694
防水	-14695
降落	-14696
随形	-14697
隐藏	-14698
难开	-14699
难怪	-14700
雅座	-14701
集中	-14702
集团	-14703
雷神	-14704
霓霓	-14705
青云	-14706
青蛙	-14707
靠谱	-14708
靠边	-14709
韭菜	-14710
预瞄	-14711
频繁	-14712
频道	-14713
风哥	-14714
风扇	-14715
风景	-14716
飘飘	-14717
飞哥	-14718
飞龙	-14719
馒头	-14720
首先	-14721
首歌	-14722
马了	-14723
马云	-14724
马到	-14725
马斯	-14726
驾到	-14727
骂我	-14728
骂死	-14729
骑马	-14730
骚了	-14731
鬼才	-14732
魔术	-14733
鱼干	-14734
鱼的	-14735
鸟嚼	-14736
鸡了	-14737
麒麟	-14738
黑粉	-14739
黑衣	-14740
齐了	-14741
龙殇	-14742
	-14743
🇦🇺	-14744
🇧🇷	-14745
🎁🎁	-14746
🐴🐴	-14747
💊💊	-14748
😘😘	-14749
🙏🙏	-14750
🚙🚙	-14751
+21	-14752
,🐖🐖	-14753
---	-14754
.45	-14755
0.5	-14756
1.4	-14757
10,	-14758
111	-14759
13、	-14760
180	-14761
198	-14762
211	-14763
24,	-14764
30,	-14765
327	-14766
399	-14767
521	-14768
888	-14769
:00	-14770
ADC	-14771
AKM	-14772
ANA	-14773
ASK	-14774
ATE	-14775
Aug	-14776
CAR	-14777
QAQ	-14778
Sak	-14779
UBG	-14780
UNA	-14781
VIP	-14782
VSS	-14783
ZYH	-14784
and	-14785
art	-14786
ast	-14787
aug	-14788
bbw	-14789
cyk	-14790
eam	-14791
gua	-14792
ign	-14793
kai	-14794
low	-14795
ony	-14796
oss	-14797
oul	-14798
oun	-14799
rip	-14800
sgo	-14801
umu	-14802
vAn	-14803
xdd	-14804
zai	-14805
▁,,	-14806
▁36	-14807
▁40	-14808
▁50	-14809
▁60	-14810
▁80	-14811
▁90	-14812
▁Sk	-14813
▁TT	-14814
▁Ye	-14815
▁Yu	-14816
▁em	-14817
▁go	-14818
▁ss	-14819
▁th	-14820
▁◕ˇ	-14821
▁◞◟	-14822
▁一亩	-14823
▁一千	-14824
▁一打	-14825
▁一辆	-14826
▁一边	-14827
▁七月	-14828
▁万人	-14829
▁三次	-14830
▁下个	-14831
▁下去	-14832
▁下播	-14833
▁不刷	-14834
▁不太	-14835
▁不捡	-14836
▁不知	-14837
▁专心	-14838
▁主力	-14839
▁乞丐	-14840
▁买票	-14841
▁亲亲	-14842
▁人均	-14843
▁人手	-14844
▁人盒	-14845
▁他也	-14846
▁他俩	-14847
▁以我	-14848
▁伯嘞	-14849
▁似水	-14850
▁你他	-14851
▁你和	-14852
▁你当	-14853
▁你打	-14854
▁你真	-14855
▁你该	-14856
▁保佑	-14857
▁停车	-14858
▁偶尔	-14859
▁兔子	-14860
▁全局	-14861
▁全靠	-14862
▁再找	-14863
▁凌晨	-14864
▁刚好	-14865
▁别用	-14866
▁别老	-14867
▁别闹	-14868
▁前期	-14869
▁副将	-14870
▁十盒	-14871
▁午夜	-14872
▁半仙	-14873
▁单四	-14874
▁卡子	-14875
▁印度	-14876
▁去搞	-14877
▁又去	-14878
▁双排	-14879
▁发财	-14880
▁右手	-14881
▁吊烧	-14882
▁后期	-14883
▁吐鼻	-14884
▁君儿	-14885
▁听见	-14886
▁吴威	-14887
▁吸引	-14888
▁呼叫	-14889
▁命途	-14890
▁和平	-14891
▁哇哇	-14892
▁哎哟	-14893
▁哥们	-14894
▁哦哦	-14895
▁唱歌	-14896
▁嘻嘻	-14897
▁回头	-14898
▁回来	-14899
▁回眸	-14900
▁圆盘	-14901
▁在这	-14902
▁地图	-14903
▁坏了	-14904
▁夏新	-14905
▁外服	-14906
▁多久	-14907
▁夜尽	-14908
▁大头	-14909
▁大气	-14910
▁天台	-14911
▁天哥	-14912
▁天地	-14913
▁天涯	-14914
▁天问	-14915
▁天霸	-14916
▁太不	-14917
▁太阳	-14918
▁头发	-14919
▁女神	-14920
▁她们	-14921
▁好嗨	-14922
▁嫂子	-14923
▁学渣	-14924
▁宋欣	-14925
▁客服	-14926
▁小佳	-14927
▁小孩	-14928
▁小州	-14929
▁小新	-14930
▁小短	-14931
▁小贝	-14932
▁小鸡	-14933
▁小鹿	-14934
▁少年	-14935
▁就看	-14936
▁就说	-14937
▁布欧	-14938
▁帝豪	-14939
▁带两	-14940
▁带了	-14941
▁平原	-14942
▁底下	-14943
▁开黑	-14944
▁很稳	-14945
▁心雨	-14946
▁快走	-14947
▁怀念	-14948
▁怒那	-14949
▁思域	-14950
▁怦然	-14951
▁想想	-14952
▁我信	-14953
▁我再	-14954
▁我压	-14955
▁我听	-14956
▁我咋	-14957
▁我带	-14958
▁我才	-14959
▁我最	-14960
▁我欲	-14961
▁我贼	-14962
▁我超	-14963
▁我跟	-14964
▁我连	-14965
▁战神	-14966
▁手机	-14967
▁打得	-14968
▁打枪	-14969
▁打架	-14970
▁找啥	-14971
▁把车	-14972
▁抖音	-14973
▁报点	-14974
▁挚爱	-14975
▁提醒	-14976
▁搜完	-14977
▁改天	-14978
▁教堂	-14979
▁新的	-14980
▁无言	-14981
▁无语	-14982
▁旺哥	-14983
▁旺葛	-14984
▁星耀	-14985
▁春天	-14986
▁春风	-14987
▁是有	-14988
▁是要	-14989
▁是谁	-14990
▁显卡	-14991
▁有病	-14992
▁有种	-14993
▁有请	-14994
▁有谁	-14995
▁有钱	-14996
▁机器	-14997
▁机枪	-14998
▁来波	-14999
▁来看	-15000
▁桌上	-15001
▁欢乐	-15002
▁正好	-15003
▁死在	-15004
▁毛毛	-15005
▁水下	-15006
▁求你	-15007
▁没啥	-15008
▁河里	-15009
▁油桶	-15010
▁消音	-15011
▁淡定	-15012
▁淡忘	-15013
▁淡然	-15014
▁清华	-15015
▁满地	-15016
▁火车	-15017
▁炮楼	-15018
▁点个	-15019
▁煭馬	-15020
▁牌面	-15021
▁物资	-15022
▁狗善	-15023
▁狗妹	-15024
▁狗惠	-15025
▁狗智	-15026
▁狗班	-15027
▁狗织	-15028
▁王总	-15029
▁瓜瓜	-15030
▁电子	-15031
▁电竞	-15032
▁盒家	-15033
▁盒王	-15034
▁相信	-15035
▁看完	-15036
▁眼睛	-15037
▁瞎浪	-15038
▁硬盒	-15039
▁确认	-15040
▁祈祷	-15041
▁神奇	-15042
▁神装	-15043
▁秀发	-15044
▁秀啊	-15045
▁科目	-15046
▁穿了	-15047
▁立马	-15048
▁笨蛋	-15049
▁第十	-15050
▁筱芮	-15051
▁粉色	-15052
▁精彩	-15053
▁红楼	-15054
▁组织	-15055
▁美美	-15056
▁老六	-15057
▁老天	-15058
▁老夫	-15059
▁老年	-15060
▁耳机	-15061
▁耻辱	-15062
▁联系	-15063
▁肥了	-15064
▁背后	-15065
▁胖丝	-15066
▁胖胖	-15067
▁胖魂	-15068
▁能带	-15069
▁舔了	-15070
▁花样	-15071
▁草衣	-15072
▁莽夫	-15073
▁萝卜	-15074
▁蓝天	-15075
▁蜡笔	-15076
▁要啥	-15077
▁言帅	-15078
▁记住	-15079
▁讲真	-15080
▁诗酒	-15081
▁说换	-15082
▁说话	-15083
▁豆豆	-15084
▁貌似	-15085
▁赶快	-15086
▁起码	-15087
▁跑了	-15088
▁跟着	-15089
▁路边	-15090
▁还剩	-15091
▁还带	-15092
▁这下	-15093
▁这回	-15094
▁这帮	-15095
▁这群	-15096
▁这跟	-15097
▁进圈	-15098
▁迟早	-15099
▁迟暮	-15100
▁迷人	-15101
▁退役	-15102
▁退订	-15103
▁送了	-15104
▁逗比	-15105
▁遇见	-15106
▁那有	-15107
▁那朵	-15108
▁重庆	-15109
▁野生	-15110
▁闭嘴	-15111
▁问下	-15112
▁阳台	-15113
▁陈盒	-15114
▁雨ヾ	-15115
▁雪图	-15116
▁雾天	-15117
▁震惊	-15118
▁静静	-15119
▁顺便	-15120
▁风哥	-15121
▁风裂	-15122
▁飞天	-15123
▁马欧	-15124
▁骑着	-15125
▁鬼子	-15126
▁鬼火	-15127
▁魂哥	-15128
▁鱼塘	-15129
▁黑暗	-15130
▁鼻炎	-15131
▁🇨🇳	-15132
☂☁☀	-15133
♪❃❁	-15134
一丝血	-15135
一个啊	-15136
一个我	-15137
一千个	-15138
一把枪	-15139
一枪就	-15140
一枪打	-15141
一枪死	-15142
一点啊	-15143
一直不	-15144
一直看	-15145
一穿三	-15146
一粒球	-15147
一起来	-15148
一车人	-15149
一边走	-15150
三人组	-15151
三分钟	-15152
三打一	-15153
上头了	-15154
上树去	-15155
上班啊	-15156
下车了	-15157
不习惯	-15158
不了了	-15159
不了的	-15160
不会死	-15161
不会用	-15162
不会被	-15163
不减速	-15164
不好使	-15165
不好玩	-15166
不好退	-15167
不屏息	-15168
不应该	-15169
不打药	-15170
不是白	-15171
不来了	-15172
不正常	-15173
不死人	-15174
不留神	-15175
不给你	-15176
不能换	-15177
不虚传	-15178
不要说	-15179
不规范	-15180
不逮你	-15181
专业户	-15182
专业的	-15183
东西了	-15184
东西的	-15185
丢了啊	-15186
个全息	-15187
个火箭	-15188
个血拼	-15189
个订阅	-15190
个问题	-15191
个饮料	-15192
丶啊荣	-15193
丶老头	-15194
为裸奔	-15195
主播打	-15196
也不捡	-15197
也不错	-15198
也是死	-15199
也没了	-15200
也知道	-15201
也行啊	-15202
了一盒	-15203
事可乐	-15204
二十五	-15205
云送的	-15206
人家都	-15207
什么是	-15208
今天是	-15209
从车上	-15210
他不会	-15211
他们也	-15212
他自己	-15213
以前的	-15214
会玩的	-15215
会飞的	-15216
伤害高	-15217
低分段	-15218
低端局	-15219
你个鬼	-15220
你什么	-15221
你以前	-15222
你们别	-15223
你保镖	-15224
你厉害	-15225
你又要	-15226
你吃鸡	-15227
你怕是	-15228
你成盒	-15229
你是我	-15230
你有点	-15231
你来了	-15232
你没拿	-15233
你玩过	-15234
你的小	-15235
你看看	-15236
你竟然	-15237
你胎没	-15238
你试试	-15239
你这个	-15240
你这种	-15241
你这里	-15242
你需要	-15243
佣兵丶	-15244
俗友丶	-15245
保安不	-15246
保镖上	-15247
保镖么	-15248
保镖也	-15249
信号弹	-15250
倍开镜	-15251
倍镜好	-15252
倍镜看	-15253
做不到	-15254
做保镖	-15255
儿八经	-15256
儿送的	-15257
先跑毒	-15258
全世界	-15259
关声音	-15260
再跑毒	-15261
冒火了	-15262
军团丶	-15263
出开车	-15264
出现了	-15265
出车祸	-15266
刚刚的	-15267
刚刚那	-15268
刚开车	-15269
别上车	-15270
别打脸	-15271
别的枪	-15272
到处跑	-15273
制裁他	-15274
刷多少	-15275
前面是	-15276
加消音	-15277
加速器	-15278
包好像	-15279
十一点	-15280
单排的	-15281
卡圈边	-15282
卡尾缀	-15283
厉害吗	-15284
压压惊	-15285
压枪的	-15286
压的好	-15287
压的稳	-15288
厕所门	-15289
去了吗	-15290
双排的	-15291
发盒饭	-15292
发车了	-15293
变声器	-15294
变颜色	-15295
只开车	-15296
只能说	-15297
叫保安	-15298
叫跑毒	-15299
可上车	-15300
可以抗	-15301
可以看	-15302
可以让	-15303
可能要	-15304
可获得	-15305
右上角	-15306
右下角	-15307
号上车	-15308
吃个鸡	-15309
吃药就	-15310
吃过鸡	-15311
吕美味	-15312
君团丶	-15313
吸铁石	-15314
告诉他	-15315
咋不开	-15316
和他们	-15317
和文哥	-15318
咚咚咚	-15319
哈士奇	-15320
哒哒哒	-15321
哥哥我	-15322
哥大驾	-15323
哥还是	-15324
哪知道	-15325
哪里的	-15326
啊盒勇	-15327
啥也没	-15328
喜老师	-15329
喝送的	-15330
喝酒了	-15331
喷子们	-15332
嘟嘟嘟	-15333
噶的为	-15334
嚣张了	-15335
四排啊	-15336
回来就	-15337
回首道	-15338
因为你	-15339
国家队	-15340
圈直接	-15341
在你这	-15342
在圈外	-15343
在暗示	-15344
在油桶	-15345
在空中	-15346
在行车	-15347
地图能	-15348
地飞猪	-15349
声音了	-15350
多个人	-15351
多久了	-15352
多喝水	-15353
多开车	-15354
夜店扛	-15355
大佬的	-15356
大哥们	-15357
大多数	-15358
大家都	-15359
大老婆	-15360
大送的	-15361
天天开	-15362
天天来	-15363
太假了	-15364
太喜欢	-15365
太帅了	-15366
太年轻	-15367
太弱了	-15368
太强了	-15369
太惨了	-15370
太累了	-15371
奏乐撒	-15372
女人的	-15373
好主播	-15374
好可怜	-15375
好用的	-15376
好看啊	-15377
好难啊	-15378
好难用	-15379
子上了	-15380
子弹吗	-15381
子弹要	-15382
子旁边	-15383
子窝吗	-15384
学一下	-15385
学不到	-15386
守护者	-15387
家的惊	-15388
容易啊	-15389
富贵村	-15390
对得起	-15391
对疾风	-15392
小主播	-15393
小时了	-15394
小时候	-15395
小逗比	-15396
就倒了	-15397
就只能	-15398
就完事	-15399
就是了	-15400
就是要	-15401
就直接	-15402
就说挂	-15403
就走了	-15404
就跑了	-15405
尽力了	-15406
居然没	-15407
左上角	-15408
已上路	-15409
已上车	-15410
已备好	-15411
带上身	-15412
带我们	-15413
带走了	-15414
干嘛不	-15415
干嘛呢	-15416
干嘛啊	-15417
应该会	-15418
开坦克	-15419
开始练	-15420
开水里	-15421
开电视	-15422
开直播	-15423
开翻倍	-15424
开翻车	-15425
开起来	-15426
开车也	-15427
开车压	-15428
开车咯	-15429
开车杀	-15430
开车溜	-15431
开车王	-15432
开透视	-15433
强多了	-15434
当盒子	-15435
当空照	-15436
当老王	-15437
当靶子	-15438
彼岸花	-15439
很关键	-15440
很难受	-15441
得一匹	-15442
得成盒	-15443
必吃鸡	-15444
快快快	-15445
怎么开	-15446
怎么选	-15447
怕轰炸	-15448
怪别人	-15449
怪握把	-15450
恒送的	-15451
想不开	-15452
想你了	-15453
意思是	-15454
感觉好	-15455
感谢小	-15456
成年人	-15457
我一个	-15458
我不信	-15459
我们家	-15460
我发现	-15461
我好像	-15462
我就要	-15463
我心里	-15464
我昨天	-15465
我爱你	-15466
我睡了	-15467
我要去	-15468
我要是	-15469
我都能	-15470
我马上	-15471
或舰队	-15472
房子了	-15473
所有人	-15474
手就是	-15475
手速快	-15476
才好玩	-15477
才炫目	-15478
扎中心	-15479
打一把	-15480
打不着	-15481
打不赢	-15482
打人吗	-15483
打全息	-15484
打四排	-15485
打圈边	-15486
打坏了	-15487
打死他	-15488
打的是	-15489
打路人	-15490
打车胎	-15491
扔了吧	-15492
扔了啊	-15493
扛不住	-15494
扣分吗	-15495
把声音	-15496
抢装备	-15497
抽不到	-15498
拉手刹	-15499
按自动	-15500
挡一枪	-15501
挨一枪	-15502
挺难的	-15503
换保镖	-15504
换全息	-15505
换号了	-15506
掌握了	-15507
接客了	-15508
搜房子	-15509
搜装备	-15510
摄像师	-15511
放产假	-15512
教一下	-15513
文家军	-15514
新赛季	-15515
无别事	-15516
早退瓜	-15517
时间是	-15518
明显了	-15519
是不能	-15520
是全息	-15521
是我的	-15522
是粉色	-15523
是翻车	-15524
是这个	-15525
是随机	-15526
暖自知	-15527
暧灬訫	-15528
暴露了	-15529
最基本	-15530
最牛逼	-15531
有位置	-15532
有几种	-15533
有声音	-15534
有好多	-15535
有实力	-15536
有本事	-15537
有毒吧	-15538
有沵っ	-15539
有点惨	-15540
有牌子	-15541
有缘人	-15542
有缘者	-15543
有船呀	-15544
机动车	-15545
杀人吗	-15546
杀人王	-15547
杀的人	-15548
来一发	-15549
来亚服	-15550
来玩啊	-15551
架枪的	-15552
柠檬片	-15553
楼楼顶	-15554
正常的	-15555
死的盒	-15556
死胖子	-15557
死自己	-15558
比你还	-15559
比较快	-15560
水宝地	-15561
没停过	-15562
没关系	-15563
没出过	-15564
没小药	-15565
没得玩	-15566
没得说	-15567
没找到	-15568
法拉利	-15569
波礼盒	-15570
注意到	-15571
洅烀伱	-15572
活生生	-15573
流局的	-15574
流成盒	-15575
游戏啊	-15576
满耐久	-15577
满能量	-15578
炸队友	-15579
炸鱼么	-15580
炸鱼也	-15581
炸鱼呗	-15582
热汽水	-15583
然后就	-15584
爆不了	-15585
爆头了	-15586
爱开车	-15587
特别快	-15588
狙击枪	-15589
狙消音	-15590
王先森	-15591
玩一局	-15592
玩手游	-15593
玩玩吧	-15594
玩红点	-15595
玩这个	-15596
现在有	-15597
现在都	-15598
生送的	-15599
用垂直	-15600
电子狗	-15601
电视没	-15602
百米外	-15603
的一生	-15604
的下场	-15605
的去看	-15606
的图图	-15607
的子弹	-15608
的差距	-15609
的成盒	-15610
的技术	-15611
的操作	-15612
的枪法	-15613
的炸鱼	-15614
的要死	-15615
的还是	-15616
的队伍	-15617
皮皮华	-15618
皮皮虾	-15619
盒仙人	-15620
盒子抽	-15621
盒子没	-15622
盒子王	-15623
盒子能	-15624
盒泡面	-15625
盒饭了	-15626
盒饭的	-15627
直接去	-15628
直接死	-15629
直握把	-15630
直播呀	-15631
看不刷	-15632
看了吗	-15633
看你了	-15634
看你打	-15635
看到他	-15636
看清楚	-15637
真刺激	-15638
真厉害	-15639
真可爱	-15640
着你的	-15641
着开车	-15642
着火了	-15643
知道的	-15644
石头上	-15645
礼盒出	-15646
礼盒坑	-15647
礼盒抽	-15648
秒不了	-15649
秒成盒	-15650
稳吃鸡	-15651
空战舰	-15652
空投的	-15653
站起来	-15654
等他们	-15655
等风来	-15656
简单的	-15657
米压枪	-15658
米红点	-15659
紧张了	-15660
红点扫	-15661
级头吧	-15662
级头呀	-15663
级头和	-15664
级头好	-15665
级头就	-15666
组保镖	-15667
给他们	-15668
给我个	-15669
给自己	-15670
统计过	-15671
美国队	-15672
翻车吗	-15673
翻车哦	-15674
翻车被	-15675
肯定会	-15676
肯定要	-15677
胡小贱	-15678
能打死	-15679
脑子呢	-15680
自己是	-15681
自闭的	-15682
舒服不	-15683
舰队了	-15684
节奏大	-15685
苟活着	-15686
菜花花	-15687
落地成	-15688
葫芦娃	-15689
蛆兄弟	-15690
蜗牛去	-15691
血不满	-15692
被保镖	-15693
被反杀	-15694
被发现	-15695
被打了	-15696
被打的	-15697
被踩了	-15698
装备的	-15699
要上树	-15700
要是不	-15701
见人就	-15702
见长安	-15703
角遇到	-15704
解释下	-15705
让人家	-15706
让我想	-15707
试试水	-15708
说出来	-15709
说开车	-15710
说的话	-15711
说自己	-15712
说话啊	-15713
请楼上	-15714
请注意	-15715
诺诺丶	-15716
谁说的	-15717
谢谢阿	-15718
贡献值	-15719
走水路	-15720
超可爱	-15721
跑毒王	-15722
跟雨墨	-15723
车开的	-15724
车炸了	-15725
轰炸的	-15726
轿车了	-15727
辛苦苦	-15728
过河了	-15729
过礼盒	-15730
还不让	-15731
还是没	-15732
还没出	-15733
还能活	-15734
这主播	-15735
这么准	-15736
这么晚	-15737
这么肥	-15738
这么说	-15739
这些人	-15740
这小子	-15741
这技术	-15742
这把枪	-15743
这操作	-15744
这时候	-15745
这样玩	-15746
这盒子	-15747
这距离	-15748
这队友	-15749
追着你	-15750
送外卖	-15751
那么强	-15752
那么慢	-15753
那盒子	-15754
都不怕	-15755
都不想	-15756
都不是	-15757
都不爱	-15758
都扔了	-15759
都没事	-15760
都没开	-15761
都没死	-15762
都能打	-15763
配全息	-15764
里有船	-15765
重要性	-15766
针对我	-15767
键盘侠	-15768
队友了	-15769
队友包	-15770
降礼盒	-15771
随便压	-15772
雷自己	-15773
需谨慎	-15774
靓的仔	-15775
飞飞黄	-15776
高分段	-15777
鱼卵局	-15778
鱼塘的	-15779
鱼塘里	-15780
黄色的	-15781
黑送的	-15782
	-15783
🎁🎁🎁	-15784
💊💊💊	-15785
,200	-15786
,521	-15787
-...	-15788
0000	-15789
1897	-15790
3333	-15791
6000	-15792
Hunk	-15793
KASK	-15794
PUBG	-15795
anic	-15796
baby	-15797
dear	-15798
erat	-15799
hhhh	-15800
lala	-15801
lron	-15802
only	-15803
tain	-15804
upup	-15805
•...	-15806
⊙∀⊙!	-15807
▁(`′	-15808
▁.❀.	-15809
▁0.0	-15810
▁110	-15811
▁400	-15812
▁963	-15813
▁App	-15814
▁Aug	-15815
▁CPU	-15816
▁Jun	-15817
▁XDD	-15818
▁___	-15819
▁ark	-15820
▁bgm	-15821
▁lyb	-15822
▁一小时	-15823
▁一盒烟	-15824
▁上一把	-15825
▁上车吃	-15826
▁上车咋	-15827
▁上车没	-15828
▁上车车	-15829
▁不愧是	-15830
▁不控圈	-15831
▁不要说	-15832
▁为啥他	-15833
▁主播不	-15834
▁主播要	-15835
▁也可以	-15836
▁书声这	-15837
▁今天我	-15838
▁他不是	-15839
▁他开着	-15840
▁他这个	-15841
▁伟大爷	-15842
▁你不能	-15843
▁你以后	-15844
▁你们说	-15845
▁你握把	-15846
▁你特么	-15847
▁你看他	-15848
▁你看我	-15849
▁你绝对	-15850
▁你还有	-15851
▁你需要	-15852
▁保镖哥	-15853
▁保镖榜	-15854
▁保镖胃	-15855
▁保镖能	-15856
▁保镖那	-15857
▁保镖都	-15858
▁僵尸能	-15859
▁全息太	-15860
▁全明星	-15861
▁全自动	-15862
▁八月仙	-15863
▁冰可乐	-15864
▁刘飞龙	-15865
▁刚不是	-15866
▁刚枪时	-15867
▁刚说完	-15868
▁别给他	-15869
▁前两天	-15870
▁前几天	-15871
▁医疗箱	-15872
▁十三妹	-15873
▁厉害了	-15874
▁原来是	-15875
▁又准备	-15876
▁发工资	-15877
▁叫什么	-15878
▁吃药没	-15879
▁后面有	-15880
▁哪里有	-15881
▁啊啊啊	-15882
▁啥条件	-15883
▁喝药了	-15884
▁四连盒	-15885
▁因为他	-15886
▁在亚服	-15887
▁在现场	-15888
▁坐船绕	-15889
▁多开车	-15890
▁大家别	-15891
▁大脸猫	-15892
▁大部分	-15893
▁大镖客	-15894
▁女朋友	-15895
▁好像是	-15896
▁好厉害	-15897
▁安大花	-15898
▁实锤了	-15899
▁宫明帝	-15900
▁小仙女	-15901
▁小比克	-15902
▁小海我	-15903
▁小爱酱	-15904
▁小红点	-15905
▁小老弟	-15906
▁小胖子	-15907
▁小诸葛	-15908
▁小轿车	-15909
▁小野驴	-15910
▁少开车	-15911
▁就上车	-15912
▁就是个	-15913
▁就没有	-15914
▁差一个	-15915
▁差一点	-15916
▁带上车	-15917
▁带不动	-15918
▁带不带	-15919
▁带带我	-15920
▁带粉丝	-15921
▁开上车	-15922
▁开挂了	-15923
▁开竞猜	-15924
▁开车么	-15925
▁开车从	-15926
▁开车到	-15927
▁开车喽	-15928
▁开车嘛	-15929
▁开车垫	-15930
▁开车带	-15931
▁开车彤	-15932
▁开车撵	-15933
▁开车杀	-15934
▁开车死	-15935
▁开车秀	-15936
▁开车贴	-15937
▁开车顶	-15938
▁很明显	-15939
▁快去找	-15940
▁怎么改	-15941
▁急救包	-15942
▁想上树	-15943
▁感觉是	-15944
▁感谢佛	-15945
▁感谢冷	-15946
▁感谢凉	-15947
▁感谢北	-15948
▁感谢启	-15949
▁感谢夏	-15950
▁感谢好	-15951
▁感谢威	-15952
▁感谢微	-15953
▁感谢梦	-15954
▁感谢浅	-15955
▁我一个	-15956
▁我一直	-15957
▁我今晚	-15958
▁我从来	-15959
▁我们都	-15960
▁我只要	-15961
▁我天天	-15962
▁我想学	-15963
▁我打赌	-15964
▁我明天	-15965
▁我是来	-15966
▁我晚上	-15967
▁我每天	-15968
▁我还以	-15969
▁我这个	-15970
▁房子里	-15971
▁托腮板	-15972
▁把自己	-15973
▁拉枪线	-15974
▁拿红点	-15975
▁握把呢	-15976
▁握把换	-15977
▁搞不懂	-15978
▁摩托艇	-15979
▁敢不敢	-15980
▁文家军	-15981
▁日本队	-15982
▁早知道	-15983
▁旺仔小	-15984
▁昨天的	-15985
▁昨天看	-15986
▁是猛男	-15987
▁曹大大	-15988
▁有上车	-15989
▁有些人	-15990
▁有位置	-15991
▁来一个	-15992
▁来不及	-15993
▁枪屁股	-15994
▁梦乂她	-15995
▁歪头了	-15996
▁求交往	-15997
▁江河溪	-15998
▁没关系	-15999
▁没小药	-16000
▁没心没	-16001
▁没时间	-16002
▁没油了	-16003
▁游戏里	-16004
▁火柴盒	-16005
▁炸鱼卵	-16006
▁炸鱼呢	-16007
▁炸鱼啦	-16008
▁炸鱼汤	-16009
▁炸鱼王	-16010
▁烟雾弹	-16011
▁然后你	-16012
▁爆舰队	-16013
▁特别是	-16014
▁狗上树	-16015
▁猪都会	-16016
▁现在有	-16017
▁盒子安	-16018
▁盒子宝	-16019
▁盒子的	-16020
▁看不见	-16021
▁看好了	-16022
▁看星魂	-16023
▁礼盒开	-16024
▁礼盒抽	-16025
▁礼盒有	-16026
▁笑着拿	-16027
▁第二个	-16028
▁等会儿	-16029
▁等着你	-16030
▁红点也	-16031
▁红点儿	-16032
▁红点就	-16033
▁红点当	-16034
▁红点来	-16035
▁红点狗	-16036
▁红点跟	-16037
▁红点还	-16038
▁红点那	-16039
▁纸巾三	-16040
▁给你们	-16041
▁翻车咯	-16042
▁老巫婆	-16043
▁老开车	-16044
▁老阿姨	-16045
▁茄子要	-16046
▁萧晓潇	-16047
▁蔡徐坤	-16048
▁被轰炸	-16049
▁要成盒	-16050
▁请大家	-16051
▁谢谢一	-16052
▁谢谢七	-16053
▁谢谢护	-16054
▁谢谢李	-16055
▁越南队	-16056
▁轰炸啊	-16057
▁过几天	-16058
▁还以为	-16059
▁还真是	-16060
▁这一局	-16061
▁这个点	-16062
▁这么菜	-16063
▁这位置	-16064
▁这六倍	-16065
▁这几个	-16066
▁这声音	-16067
▁这装备	-16068
▁这都能	-16069
▁这里有	-16070
▁那个包	-16071
▁那你还	-16072
▁那老外	-16073
▁都知道	-16074
▁队友是	-16075
▁队友有	-16076
▁队友菜	-16077
▁阿倪哥	-16078
▁飞机上	-16079
▁飞机哥	-16080
▁骑士城	-16081
▁鲨鱼局	-16082
▁鹿西西	-16083
▁黑凤梨	-16084
一下你的	-16085
一下保镖	-16086
一下红点	-16087
一個禮盒	-16088
一号上车	-16089
一孽送的	-16090
一本满足	-16091
一枪没开	-16092
一直成盒	-16093
七夕专属	-16094
三个保镖	-16095
三倍镜吗	-16096
三级头好	-16097
三级头是	-16098
三级头来	-16099
上车了吧	-16100
下个游戏	-16101
不上车呢	-16102
不上车的	-16103
不做备胎	-16104
不允许啊	-16105
不容易啊	-16106
不就完了	-16107
不应该是	-16108
不开车撞	-16109
不开车的	-16110
不换红点	-16111
不敢上车	-16112
不炸鱼的	-16113
不用吃药	-16114
不用开车	-16115
不知道猫	-16116
不能喝酒	-16117
不能让他	-16118
不要握把	-16119
不过去了	-16120
不长心存	-16121
两个保镖	-16122
两个开车	-16123
个盒子吗	-16124
个盒子就	-16125
个粉丝票	-16126
中奖记录	-16127
丶刘公子	-16128
主播上车	-16129
主播大哥	-16130
久伴卟离	-16131
久伴我琦	-16132
也出战舰	-16133
也太秀了	-16134
也就一枪	-16135
也是盒子	-16136
也没办法	-16137
也能开车	-16138
了一晚上	-16139
了一级头	-16140
二级头呢	-16141
二级头都	-16142
人上车啊	-16143
人在开车	-16144
人家怎么	-16145
人送快递	-16146
什么玩意	-16147
什么礼物	-16148
今天晚上	-16149
从天而降	-16150
他摩托车	-16151
他直播间	-16152
仙女辣条	-16153
会怎么样	-16154
位置杀人	-16155
你三级头	-16156
你们这些	-16157
你就死了	-16158
你开车啊	-16159
你怎么不	-16160
你的鱼鱼	-16161
你直播间	-16162
你能不能	-16163
你要开车	-16164
俗尤的花	-16165
保镖小篮	-16166
保镖就不	-16167
保镖这么	-16168
倍大菠萝	-16169
倍镜扫射	-16170
停车技术	-16171
先生送的	-16172
光脚开车	-16173
克的礼盒	-16174
全去洗脚	-16175
全是盒子	-16176
再也不怕	-16177
凉凉的心	-16178
别人上车	-16179
别致的苏	-16180
刷个礼盒	-16181
刷点礼盒	-16182
刷礼盒了	-16183
刷礼盒的	-16184
包厢入座	-16185
区别大吗	-16186
十个虎粮	-16187
十元三盒	-16188
千万不要	-16189
南瓜家的	-16190
又在跑毒	-16191
又开始了	-16192
又要跑毒	-16193
变成粉色	-16194
只抽盒子	-16195
只是炸鱼	-16196
叫你上车	-16197
可不可以	-16198
可以回血	-16199
可以坐船	-16200
可以直接	-16201
右眼红点	-16202
号快递员	-16203
吃药药了	-16204
吉利服不	-16205
名不虚传	-16206
告状权威	-16207
告诉队友	-16208
和二级甲	-16209
和你一起	-16210
和六倍镜	-16211
哥大姑娘	-16212
唯宠宝儿	-16213
喜欢全息	-16214
喜欢看你	-16215
在开车呢	-16216
多个盒子	-16217
多囤几个	-16218
多少上车	-16219
多少把了	-16220
多的地方	-16221
大哥送的	-16222
大师上车	-16223
大爷上车	-16224
大爷开车	-16225
天命圈吧	-16226
天命圈我	-16227
天命圈被	-16228
太真实了	-16229
夭的礼盒	-16230
奔跑的键	-16231
奖励规则	-16232
她在开车	-16233
好久不见	-16234
如影随形	-16235
学不会的	-16236
学会了吗	-16237
学校霸王	-16238
安的礼盒	-16239
官方认证	-16240
家的心软	-16241
寸草不生	-16242
小心翻车	-16243
小暖开车	-16244
就会开车	-16245
就可以防	-16246
就差你了	-16247
就带上车	-16248
就开车的	-16249
就开车跑	-16250
就是弟弟	-16251
就是红点	-16252
就是这样	-16253
就能戴上	-16254
带三级头	-16255
带我开车	-16256
干盒子了	-16257
开始一直	-16258
开礼盒吗	-16259
开船跑了	-16260
开船进圈	-16261
开车一样	-16262
开车不带	-16263
开车主播	-16264
开车了啊	-16265
开车切位	-16266
开车去接	-16267
开车回家	-16268
开车巡逻	-16269
开车才能	-16270
开车执法	-16271
开车来的	-16272
开车来送	-16273
开车的吧	-16274
开车路过	-16275
开车追人	-16276
御用保镖	-16277
微凉送的	-16278
快上车啊	-16279
快递到了	-16280
快递礼盒	-16281
怎么上的	-16282
怎么吃鸡	-16283
怎么回事	-16284
怎么认为	-16285
怎么这么	-16286
惹他干嘛	-16287
感觉牛逼	-16288
感谢支持	-16289
成盒子的	-16290
成盒子精	-16291
我不上车	-16292
我不适合	-16293
我太难了	-16294
我开车去	-16295
我想给你	-16296
房号多少	-16297
房间里啊	-16298
打一级防	-16299
打移动靶	-16300
扫摩托车	-16301
把一级头	-16302
把子小白	-16303
把车打爆	-16304
把车炸了	-16305
抢装甲车	-16306
拉风龙了	-16307
挂壁主播	-16308
挑战任务	-16309
挺厉害的	-16310
换三级头	-16311
掉下来了	-16312
摩托车吧	-16313
摩托车技	-16314
摩托车摇	-16315
摩托车飞	-16316
整整齐齐	-16317
新年快乐	-16318
时也超帅	-16319
明目张胆	-16320
是小魔王	-16321
是炸鱼塘	-16322
是真的丑	-16323
是送快递	-16324
最喜欢的	-16325
有个全息	-16326
有多菜了	-16327
本开飞机	-16328
来洗一下	-16329
来看你了	-16330
栀的礼盒	-16331
校长杀手	-16332
根本不用	-16333
梦的礼盒	-16334
欢迎入座	-16335
欺负辣条	-16336
止痛药和	-16337
正儿八经	-16338
正在派件	-16339
死在跑毒	-16340
死在路上	-16341
死的很惨	-16342
每天下午	-16343
每天免费	-16344
每次进来	-16345
比哪个好	-16346
水陆两栖	-16347
永远都是	-16348
求求你了	-16349
没上车了	-16350
没人上车	-16351
没意思了	-16352
没看见吗	-16353
浪波丸丶	-16354
淡然莫离	-16355
炸炸鱼吧	-16356
炸鱼塘么	-16357
点起来啊	-16358
爆出战舰	-16359
爱吃红烧	-16360
爱的礼盒	-16361
牛奶当水	-16362
狗的日常	-16363
狙击扩容	-16364
王子送的	-16365
玩摩托车	-16366
现在上车	-16367
珍爱生命	-16368
琪家的惊	-16369
瑟瑟发抖	-16370
白ペ送的	-16371
白茶清欢	-16372
的三倍镜	-16373
的假老练	-16374
的手榴弹	-16375
的时候了	-16376
的时候才	-16377
的男朋友	-16378
的礼盒和	-16379
盒子都是	-16380
盒子里的	-16381
盒子马上	-16382
盒永生了	-16383
直接没了	-16384
直播炸鱼	-16385
直播间了	-16386
看不到了	-16387
看不到你	-16388
看你成盒	-16389
看保镖的	-16390
看摩托车	-16391
看着难受	-16392
真的厉害	-16393
真的好吗	-16394
真的牛皮	-16395
知不知道	-16396
科技炸鱼	-16397
移动爆头	-16398
空投里面	-16399
空空送滴	-16400
笑的礼盒	-16401
第三人称	-16402
等天命圈	-16403
米的红点	-16404
粉丝勋章	-16405
红握把吗	-16406
红点干嘛	-16407
级头被打	-16408
经验宝宝	-16409
给中国队	-16410
给我看看	-16411
绝不苟活	-16412
绝对翻车	-16413
群里开车	-16414
翻车了吧	-16415
老是成盒	-16416
能上车了	-16417
能上车嘛	-16418
能不能别	-16419
能炸鱼塘	-16420
脾气一样	-16421
自我修养	-16422
花花来个	-16423
苟活于世	-16424
莫名激动	-16425
萌面大婶	-16426
蓬莱农场	-16427
表演盒子	-16428
被人开车	-16429
被打死了	-16430
被爆头了	-16431
被轰炸了	-16432
装上全息	-16433
装八倍镜	-16434
装甲车吧	-16435
装甲车呢	-16436
装甲车都	-16437
要吉利服	-16438
要成盒了	-16439
解释一下	-16440
订阅一下	-16441
让他上车	-16442
让你上车	-16443
让你开车	-16444
说话算话	-16445
诺的礼盒	-16446
谁敢开车	-16447
谢谢心愿	-16448
谢谢我小	-16449
谢谢老板	-16450
跑毒就是	-16451
跑毒打完	-16452
跟我一样	-16453
车门焊死	-16454
轩哥来了	-16455
轮摩托车	-16456
软妹币噢	-16457
轰炸区吗	-16458
轰炸区在	-16459
过天命圈	-16460
还上车吗	-16461
还不是挂	-16462
还会开车	-16463
还是直接	-16464
还没开车	-16465
还炸鱼塘	-16466
这个时间	-16467
这个版本	-16468
这个颜色	-16469
这么多人	-16470
这装甲车	-16471
这轰炸区	-16472
远离女人	-16473
连个血瓶	-16474
连夜坐车	-16475
连炸带补	-16476
送三级头	-16477
送快递哦	-16478
送礼只送	-16479
那个主播	-16480
那个老外	-16481
都不一样	-16482
都是直接	-16483
钟情小刘	-16484
队友车技	-16485
随机礼盒	-16486
集体轰炸	-16487
雨的礼盒	-16488
韦神指挥	-16489
飞天遁地	-16490
首开翻倍	-16491
骂骂咧咧	-16492
鸡你太美	-16493
👍👍👍👍	-16494
,6666	-16495
90327	-16496
Devil	-16497
Guard	-16498
Smile	-16499
china	-16500
endan	-16501
esign	-16502
seiya	-16503
▁....	-16504
▁::??	-16505
▁FATE	-16506
▁GODV	-16507
▁PUBG	-16508
▁Soul	-16509
▁mumu	-16510
▁solo	-16511
▁◞◟ˇ◕	-16512
▁一个人头	-16513
▁一个宝图	-16514
▁一个开车	-16515
▁一个血瓶	-16516
▁一亩三分	-16517
▁一叶知秋	-16518
▁一天一个	-16519
▁一楼红点	-16520
▁一直开车	-16521
▁一言不和	-16522
▁一起坐车	-16523
▁三级头了	-16524
▁三级头换	-16525
▁三级头的	-16526
▁上车刷啥	-16527
▁上车需要	-16528
▁下面盒子	-16529
▁下面还有	-16530
▁不刷礼物	-16531
▁不如怀念	-16532
▁不是开车	-16533
▁不知不觉	-16534
▁不见长安	-16535
▁专业盒子	-16536
▁严重怀疑	-16537
▁主播主播	-16538
▁主播喜欢	-16539
▁主楼二楼	-16540
▁二级头你	-16541
▁二级头吧	-16542
▁二级头呀	-16543
▁从头到尾	-16544
▁他想上车	-16545
▁仙女握把	-16546
▁伏地拜谢	-16547
▁会开车吗	-16548
▁你不知道	-16549
▁你以为是	-16550
▁你们喜欢	-16551
▁你们知道	-16552
▁你们这些	-16553
▁你吉利服	-16554
▁你换红点	-16555
▁你是保镖	-16556
▁你是我的	-16557
▁你没握把	-16558
▁你看这个	-16559
▁你要上车	-16560
▁你还不如	-16561
▁你这是要	-16562
▁保安队长	-16563
▁保镖上班	-16564
▁保镖不会	-16565
▁保镖人气	-16566
▁保镖加油	-16567
▁保镖喊你	-16568
▁保镖大号	-16569
▁保镖天天	-16570
▁保镖差点	-16571
▁保镖是个	-16572
▁保镖没钱	-16573
▁保镖的号	-16574
▁保镖肯定	-16575
▁保镖说你	-16576
▁保镖都不	-16577
▁保镖飘了	-16578
▁倁洅烀伱	-16579
▁全场跑毒	-16580
▁全息好用	-16581
▁八倍镜来	-16582
▁冷暖自知	-16583
▁准备成盒	-16584
▁凉凉夜色	-16585
▁别送盒子	-16586
▁十二今天	-16587
▁半夜开车	-16588
▁又是跑毒	-16589
▁又是轰炸	-16590
▁只会炸鱼	-16591
▁只看不刷	-16592
▁只能开车	-16593
▁叫保镖吧	-16594
▁可以可以	-16595
▁吃止痛药	-16596
▁吃药吃药	-16597
▁吉利服你	-16598
▁吉利服拿	-16599
▁吉利服穿	-16600
▁呼叫保镖	-16601
▁命途自闯	-16602
▁喜欢主播	-16603
▁喜欢忽悠	-16604
▁嘎子窝吗	-16605
▁四号盒子	-16606
▁回家吃药	-16607
▁在轰炸区	-16608
▁大地飞猪	-16609
▁大家一起	-16610
▁大家不要	-16611
▁大师暗示	-16612
▁天天跑毒	-16613
▁宁为裸奔	-16614
▁小姐姐是	-16615
▁小州潇潇	-16616
▁小暖开车	-16617
▁居然开车	-16618
▁差点成盒	-16619
▁帝都盒饭	-16620
▁带保镖吧	-16621
▁平底翻车	-16622
▁开始炸鱼	-16623
▁开开心心	-16624
▁开船走了	-16625
▁开船跑了	-16626
▁开船过去	-16627
▁开车上山	-16628
▁开车不要	-16629
▁开车到处	-16630
▁开车去找	-16631
▁开车去接	-16632
▁开车堵住	-16633
▁开车开到	-16634
▁开车打药	-16635
▁开车撞啊	-16636
▁开车无证	-16637
▁开车来了	-16638
▁开车没有	-16639
▁开车游戏	-16640
▁开车白给	-16641
▁开车的好	-16642
▁开车的锅	-16643
▁开车绝对	-16644
▁开车被扫	-16645
▁开车走啦	-16646
▁开车过桥	-16647
▁开车还能	-16648
▁强行上车	-16649
▁当场翻车	-16650
▁怎么开车	-16651
▁怦然心动	-16652
▁感觉全息	-16653
▁感谢十二	-16654
▁感谢叫我	-16655
▁感谢咖喱	-16656
▁感谢唯一	-16657
▁感谢在下	-16658
▁感谢天晨	-16659
▁感谢小小	-16660
▁感谢影杀	-16661
▁感谢月下	-16662
▁感谢楛澀	-16663
▁感谢渣渣	-16664
▁感谢温柔	-16665
▁感谢男神	-16666
▁感谢红点	-16667
▁感谢老七	-16668
▁感谢莫言	-16669
▁感谢这个	-16670
▁感谢酷酷	-16671
▁感谢长桥	-16672
▁成盒成盒	-16673
▁我一来就	-16674
▁我不喜欢	-16675
▁我想和你	-16676
▁我抽盒子	-16677
▁我是一只	-16678
▁我是不是	-16679
▁我是红点	-16680
▁我榜轩辕	-16681
▁我没上车	-16682
▁我没开车	-16683
▁我的豆子	-16684
▁我给你刷	-16685
▁我要看你	-16686
▁战术翻车	-16687
▁扎止痛药	-16688
▁打信号枪	-16689
▁扔手榴弹	-16690
▁托马斯的	-16691
▁找保镖玩	-16692
▁把吉利服	-16693
▁把装甲车	-16694
▁抽盒子有	-16695
▁抽礼盒送	-16696
▁拉面师傅	-16697
▁拿三级头	-16698
▁按时吃药	-16699
▁换一级头	-16700
▁掐指一算	-16701
▁描边大法	-16702
▁握把枪口	-16703
▁摩托车切	-16704
▁摩托车吧	-16705
▁摩托车好	-16706
▁摩托车油	-16707
▁摩托车追	-16708
▁摩托车那	-16709
▁故意翻车	-16710
▁文明开车	-16711
▁新号炸鱼	-16712
▁新疆大电	-16713
▁日常跑毒	-16714
▁明天上车	-16715
▁昨天晚上	-16716
▁是不是要	-16717
▁晚睡早起	-16718
▁最后一把	-16719
▁月光宝盒	-16720
▁有三极甲	-16721
▁有上车的	-16722
▁有为有为	-16723
▁有二级甲	-16724
▁有什么用	-16725
▁本来就是	-16726
▁来轰炸区	-16727
▁桥下有船	-16728
▁榜十秀发	-16729
▁欣姐开车	-16730
▁止痛药啊	-16731
▁死于跑圈	-16732
▁死鱼跑毒	-16733
▁温馨提示	-16734
▁激光握把	-16735
▁火锅上车	-16736
▁炸鱼塘呢	-16737
▁炸鱼塘局	-16738
▁炸鱼真的	-16739
▁煭馬如風	-16740
▁爱成盒的	-16741
▁牌面走起	-16742
▁猪上树了	-16743
▁现场开车	-16744
▁用装甲车	-16745
▁电子竞技	-16746
▁盒子盒子	-16747
▁盒子还有	-16748
▁看了你的	-16749
▁看摩托车	-16750
▁瞬间开车	-16751
▁礼盒不能	-16752
▁礼盒礼盒	-16753
▁礼盒里的	-16754
▁礼盒里面	-16755
▁突然翻车	-16756
▁红点不换	-16757
▁红点不用	-16758
▁红点可以	-16759
▁红点满配	-16760
▁红点迷你	-16761
▁红点都不	-16762
▁红点颜色	-16763
▁红色握把	-16764
▁给我翻车	-16765
▁老司机呀	-16766
▁老司机的	-16767
▁老板大气	-16768
▁职业比赛	-16769
▁自从看了	-16770
▁苟排名分	-16771
▁莫回首道	-16772
▁蒙娜丽莎	-16773
▁藏三级头	-16774
▁蘇的味道	-16775
▁虎牙不让	-16776
▁血瓶上车	-16777
▁要开车吗	-16778
▁要开车的	-16779
▁要跑毒了	-16780
▁让他上车	-16781
▁让他开车	-16782
▁证据确凿	-16783
▁请求上车	-16784
▁谁的盒子	-16785
▁谁还记得	-16786
▁谢谢各位	-16787
▁谢谢周慕	-16788
▁谢谢猫猫	-16789
▁赶紧跑毒	-16790
▁跑毒回放	-16791
▁跑毒就是	-16792
▁跑毒死了	-16793
▁车技本人	-16794
▁轰炸区呢	-16795
▁轰炸区在	-16796
▁轰炸区挂	-16797
▁轰炸死了	-16798
▁辛辛苦苦	-16799
▁还不开车	-16800
▁还是开车	-16801
▁还是红点	-16802
▁还有老板	-16803
▁这个保镖	-16804
▁这个地图	-16805
▁这个就是	-16806
▁这个翻车	-16807
▁这个距离	-16808
▁这波盒子	-16809
▁这盒子有	-16810
▁这礼盒真	-16811
▁这种打法	-16812
▁退役车技	-16813
▁送三级头	-16814
▁送装甲车	-16815
▁遇到高手	-16816
▁那吉利服	-16817
▁都不知道	-16818
▁问问魔王	-16819
▁随时上车	-16820
▁随时开车	-16821
▁高级盒子	-16822
▁麻将馆丶	-16823
一个一级头	-16824
一个六倍镜	-16825
一天一个号	-16826
一开车我就	-16827
一次天命圈	-16828
一直在跑圈	-16829
一起玩游戏	-16830
七夕礼盒啊	-16831
三极甲救命	-16832
上保镖扣一	-16833
不为一级防	-16834
不开车进圈	-16835
不拿二级头	-16836
不捡二级头	-16837
不捡吉利服	-16838
不是在跑毒	-16839
不是摩托车	-16840
不是装甲车	-16841
不知道多少	-16842
不要开车了	-16843
不让我上车	-16844
个会开车的	-16845
个高级礼盒	-16846
丶糖糖宝贝	-16847
丶糖糖男票	-16848
为什么痴迷	-16849
也是老司机	-16850
也没吃鸡啊	-16851
习惯用红点	-16852
二级头没了	-16853
二级头没拿	-16854
五百星好评	-16855
今天吃药了	-16856
会无期送的	-16857
你个老司机	-16858
你会开车吗	-16859
俗友丶溺爱	-16860
倍镜不要了	-16861
倍镜不要啊	-16862
倍镜全自动	-16863
倍镜大菠萝	-16864
倍镜都不要	-16865
切座位开枪	-16866
别穿吉利服	-16867
刷个天命圈	-16868
十个平底锅	-16869
压不住红点	-16870
又要成盒了	-16871
叔叔的礼盒	-16872
叫你上车了	-16873
叫你不开车	-16874
可以上车玩	-16875
可以开车了	-16876
可以用红点	-16877
可以防老婆	-16878
可是没证据	-16879
号落地成盒	-16880
吃不到信息	-16881
君团丶安梦	-16882
听风的礼盒	-16883
和垂直握把	-16884
啥时候开车	-16885
喜欢看炸鱼	-16886
四倍镜压枪	-16887
回国炸鱼塘	-16888
在你直播间	-16889
在哪里直播	-16890
在线秀车技	-16891
在这里竞猜	-16892
块钱的盒子	-16893
大佬的礼盒	-16894
大哥想上车	-16895
大妈上车了	-16896
大师要上车	-16897
大花猫媳妇	-16898
女朋友大人	-16899
子弹太少了	-16900
子弹袋干嘛	-16901
寒冰大魔王	-16902
对身体不好	-16903
小姐姐生日	-16904
小白快递员	-16905
小盒才是你	-16906
小黑盒上面	-16907
就变盒子了	-16908
就是送快递	-16909
就没意思了	-16910
尾巴被踩了	-16911
左手有船啊	-16912
已准备就绪	-16913
带水友开杀	-16914
开了描边挂	-16915
开出钞票枪	-16916
开车很危险	-16917
开车摔死了	-16918
开车来的吗	-16919
开车追人杀	-16920
心动带上身	-16921
怎么上车呢	-16922
思慕的礼盒	-16923
成盒的姿势	-16924
我上我也行	-16925
我就想知道	-16926
我能上车吗	-16927
我要上车了	-16928
我要开礼盒	-16929
我还没上车	-16930
才是老司机	-16931
打他们就是	-16932
扯淡的信仰	-16933
拿个三级头	-16934
换个一级头	-16935
换个三级头	-16936
换号直播了	-16937
搞个装甲车	-16938
摩托车大赛	-16939
文英的礼盒	-16940
新来的宝贝	-16941
是在开车吗	-16942
是真的厉害	-16943
是真的牛逼	-16944
是认真的吗	-16945
最佳快递员	-16946
有三级头吗	-16947
有三级头啊	-16948
有个吉利服	-16949
有二级头吗	-16950
有二级头啊	-16951
有摩托车了	-16952
有舰队的哦	-16953
有节目效果	-16954
有轻型握把	-16955
来个八倍镜	-16956
来把天命圈	-16957
来看开车的	-16958
横幅上车嘛	-16959
次次天命圈	-16960
死于轰炸区	-16961
比二级头好	-16962
比红点都稳	-16963
水平后坐力	-16964
没有灵魂的	-16965
没有装甲车	-16966
浮生若梦丶	-16967
清酒的礼盒	-16968
漆黑才炫目	-16969
潘多拉魔盒	-16970
爱穿吉利服	-16971
男的直播间	-16972
的一波礼盒	-16973
的二级头好	-16974
的差距大吗	-16975
的盒子下面	-16976
直接开车冲	-16977
直播炸鱼塘	-16978
直播间开车	-16979
破片手榴弹	-16980
礼盒多少钱	-16981
礼盒就有了	-16982
神话的礼盒	-16983
穿上二级甲	-16984
突如其来的	-16985
红点和全息	-16986
红点都没有	-16987
级头不要了	-16988
级头不要吗	-16989
级头都不要	-16990
绕地球一圈	-16991
老落地成盒	-16992
能不能炸毁	-16993
腻碍的礼盒	-16994
自己开车了	-16995
舍得丶送的	-16996
落地三级头	-16997
落地成盒呀	-16998
被毒死系列	-16999
被轰炸炸死	-17000
要是能上树	-17001
跑毒被毒死	-17002
跟我差不多	-17003
跟我走一趟	-17004
车技不行啊	-17005
过客的礼盒	-17006
还不上车啊	-17007
还不如红点	-17008
还好意思说	-17009
这个摩托车	-17010
这个直播间	-17011
这把天命圈	-17012
进入直播间	-17013
进来就开车	-17014
连个二级甲	-17015
追爱总动员	-17016
送七个礼盒	-17017
送快递来的	-17018
送快递的吧	-17019
送送小礼物	-17020
那个小姐姐	-17021
那个是不是	-17022
那个盒子有	-17023
那个老司机	-17024
都不上车了	-17025
都是三级头	-17026
都是摩托车	-17027
都是炸鱼的	-17028
配什么握把	-17029
队友好菜啊	-17030
韭菜盒子吗	-17031
骑摩托车了	-17032
Johnny	-17033
amupup	-17034
anicer	-17035
arlene	-17036
hiahia	-17037
▁Smile	-17038
▁。◕‿◕。	-17039
▁一个钞票枪	-17040
▁一发入魂丶	-17041
▁一本书上车	-17042
▁一枪三级头	-17043
▁一楼止痛药	-17044
▁一级头吃鸡	-17045
▁七夕礼盒抽	-17046
▁万里捡空投	-17047
▁万里送快递	-17048
▁三级头救命	-17049
▁三级头没捡	-17050
▁三级头瞬秒	-17051
▁上车啥意思	-17052
▁上车怎么上	-17053
▁不穿鞋开车	-17054
▁不要装甲车	-17055
▁不让你开车	-17056
▁世界级红点	-17057
▁两瓶止痛药	-17058
▁两辆装甲车	-17059
▁中国队一直	-17060
▁为什么不捡	-17061
▁为什么不要	-17062
▁为什么每次	-17063
▁为什么没有	-17064
▁主播小姐姐	-17065
▁二级头不是	-17066
▁二级头坏了	-17067
▁二级头换成	-17068
▁二级甲遇上	-17069
▁人体描边了	-17070
▁人体描边大	-17071
▁他们天命圈	-17072
▁他有三级头	-17073
▁你会开车吗	-17074
▁你又在开车	-17075
▁你应该上车	-17076
▁你是三级头	-17077
▁你的吉利服	-17078
▁你的四倍镜	-17079
▁你的红点呢	-17080
▁你穿吉利服	-17081
▁你要上车吗	-17082
▁保镖一个月	-17083
▁保镖你直播	-17084
▁保镖在哪里	-17085
▁保镖在那里	-17086
▁保镖怎么了	-17087
▁全息和红点	-17088
▁全息比红点	-17089
▁全息都不要	-17090
▁八倍镜怎么	-17091
▁六倍镜不要	-17092
▁军用二级甲	-17093
▁准备送快递	-17094
▁刚刚那个人	-17095
▁刚才有红点	-17096
▁刚才盒子里	-17097
▁别翻车了啊	-17098
▁十个荧光棒	-17099
▁半仙丶久伴	-17100
▁去拿三级头	-17101
▁去拿吉利服	-17102
▁又特么开车	-17103
▁叫保镖一起	-17104
▁可以开车了	-17105
▁可以装红点	-17106
▁吉利服不拿	-17107
▁吉利服扔了	-17108
▁吉利服给他	-17109
▁吉利服那个	-17110
▁吊烧小弟弟	-17111
▁大妈上车不	-17112
▁大妈上车吗	-17113
▁大家给保镖	-17114
▁大师快上车	-17115
▁太阳当空照	-17116
▁子弹袋不要	-17117
▁小妹不上车	-17118
▁就喜欢看你	-17119
▁就是天命圈	-17120
▁带水友上车	-17121
▁干嘛不上车	-17122
▁开了开车了	-17123
▁开始秀车技	-17124
▁开车一时爽	-17125
▁开车不看路	-17126
▁开车不穿鞋	-17127
▁开车压过去	-17128
▁开车带队友	-17129
▁开车抢空投	-17130
▁开车撞一下	-17131
▁开车模拟器	-17132
▁开车注意点	-17133
▁开车的老哥	-17134
▁德国天命圈	-17135
▁快去送快递	-17136
▁快递员上线	-17137
▁快递员小石	-17138
▁怎么样上车	-17139
▁想看你开车	-17140
▁感谢我凨雲	-17141
▁感谢星期五	-17142
▁感谢有缘者	-17143
▁感谢李晓兵	-17144
▁感谢榜十后	-17145
▁感谢胡椒粉	-17146
▁感谢陈辰辰	-17147
▁我一进来就	-17148
▁我就想知道	-17149
▁我是快递员	-17150
▁我是来看你	-17151
▁我榜梦乂她	-17152
▁我能上车不	-17153
▁我还是喜欢	-17154
▁把把在圈边	-17155
▁拆高级礼盒	-17156
▁捡个三级头	-17157
▁接下来请看	-17158
▁握把装错了	-17159
▁摩托车就是	-17160
▁摩托车没有	-17161
▁摩托车特技	-17162
▁昊昊不网恋	-17163
▁昨天天命圈	-17164
▁昨天沙漠图	-17165
▁是保镖厉害	-17166
▁有人统计过	-17167
▁有人要上车	-17168
▁有什么区别	-17169
▁有吉利服啊	-17170
▁有垂直握把	-17171
▁有摩托车啊	-17172
▁有没有女粉	-17173
▁杀人不舔包	-17174
▁来个二级头	-17175
▁果然翻车了	-17176
▁梅花桩开车	-17177
▁楼酱的慧儿	-17178
▁止痛药不要	-17179
▁死人包里有	-17180
▁江河溪海流	-17181
▁没心没肺啊	-17182
▁没有摩托车	-17183
▁满地的盒子	-17184
▁然后送快递	-17185
▁盒子精闭嘴	-17186
▁直接开车撞	-17187
▁省队天命圈	-17188
▁看到他开车	-17189
▁礼盒倒计时	-17190
▁礼盒冲一冲	-17191
▁礼轻情意重	-17192
▁笑着拿五杀	-17193
▁第一次看见	-17194
▁红点不要了	-17195
▁红点在手枪	-17196
▁红点灵敏度	-17197
▁给个天命圈	-17198
▁绿色三级头	-17199
▁翻车现场啊	-17200
▁考拉小姐姐	-17201
▁肥龙在开车	-17202
▁自带轰炸区	-17203
▁落地就成盒	-17204
▁落地成盒算	-17205
▁薄荷柠檬片	-17206
▁装甲车不能	-17207
▁装甲车单排	-17208
▁装甲车翻了	-17209
▁装甲车轮胎	-17210
▁要落地成盒	-17211
▁让开船飞啊	-17212
▁请问这里是	-17213
▁谢谢小虎牙	-17214
▁跑毒的时候	-17215
▁车技感人啊	-17216
▁轰炸区倒地	-17217
▁轰炸区只炸	-17218
▁输入三级头	-17219
▁过来送快递	-17220
▁还好三级头	-17221
▁还是炸鱼塘	-17222
▁还有三级头	-17223
▁还有个盒子	-17224
▁还有摩托车	-17225
▁这两个盒子	-17226
▁这个人开车	-17227
▁这个快递员	-17228
▁这人体描边	-17229
▁这把天命圈	-17230
▁这把我看了	-17231
▁这是三级头	-17232
▁这红点压的	-17233
▁这车技可以	-17234
▁这车技牛逼	-17235
▁这队友好菜	-17236
▁送七夕盒子	-17237
▁那个吉利服	-17238
▁那个盒子有	-17239
▁那个装甲车	-17240
▁那是轰炸区	-17241
▁马欧小姐姐	-17242
▁骑个摩托车	-17243
▁骑着摩托车	-17244
、、、、、、	-17245
一个礼盒卡个	-17246
一个送快递的	-17247
一鸡定理三盒	-17248
三级甲二级头	-17249
三级甲在那边	-17250
不是落地成盒	-17251
不用红点全息	-17252
不用轻型握把	-17253
不留神就开车	-17254
不长心存善良	-17255
个礼盒多少钱	-17256
丶的七夕礼盒	-17257
为什么不上车	-17258
二郎神丶楊戩	-17259
人家直接爆头	-17260
今天没吃药吗	-17261
你连包都不舔	-17262
依的七夕礼盒	-17263
保安就看不见	-17264
保镖保镖保镖	-17265
保镖叫大镖客	-17266
刷礼物上车的	-17267
发工资发工资	-17268
可以带上车吗	-17269
可是我没证据	-17270
可获得天命圈	-17271
和警用二级甲	-17272
哥哥礼盒刷屏	-17273
哥大驾直播间	-17274
啊啊啊啊啊啊	-17275
喜欢垂直握把	-17276
喝饮料喝饮料	-17277
四号盒子欢迎	-17278
圈直接开车去	-17279
在线落地成盒	-17280
垂直握把最好	-17281
基本落地成盒	-17282
奖励规则火锅	-17283
官方认证老爸	-17284
小姐姐在开车	-17285
小心龙哥开车	-17286
就差摩托车了	-17287
就知道一级防	-17288
已经准备好了	-17289
已经是盒子了	-17290
度无死角翻车	-17291
开个透视炸鱼	-17292
开车追着人杀	-17293
怀疑主播开车	-17294
怎么看不到了	-17295
总是落地成盒	-17296
恩可的小星妹	-17297
恩可的小猪猪	-17298
恩可的小老乡	-17299
恩可的小菜狗	-17300
悲喜开挂炸鱼	-17301
感觉你在开车	-17302
感谢起风了丶	-17303
成语接龙模式	-17304
我可以上车吗	-17305
找到摩托车了	-17306
摩托车的声音	-17307
有什么技巧吗	-17308
杀吃鸡刺激吗	-17309
次西切圈连续	-17310
每把落地成盒	-17311
每次看你直播	-17312
永远不会翻车	-17313
没有游戏体验	-17314
然后落地成盒	-17315
琪家的惊叹号	-17316
画图狗的日常	-17317
的假老练送的	-17318
的好多个礼盒	-17319
的礼盒刷屏哦	-17320
皮皮鳝的礼盒	-17321
秋名山老司机	-17322
穿绿色吉利服	-17323
第一个成盒的	-17324
级头换一级头	-17325
绿色的一级头	-17326
绿色的吉利服	-17327
老司机带带我	-17328
老司机开车了	-17329
老是落地成盒	-17330
而且还有证据	-17331
能不能上车啊	-17332
荧光棒跟礼盒	-17333
菜花花飞飞黄	-17334
落地成盒也是	-17335
落地成盒子了	-17336
被轰炸区炸了	-17337
装什么握把好	-17338
要去送快递了	-17339
谢谢仓鼠球球	-17340
谢谢南柯一梦	-17341
跑毒被卡死的	-17342
边开车边杀人	-17343
过去的我送的	-17344
还不是送快递	-17345
这把死于跑毒	-17346
迪安不做备胎	-17347
那个会开车的	-17348
那些炸鱼主播	-17349
都是有福利的	-17350
需要多少枪吗	-17351
Liberat	-17352
dearest	-17353
evendan	-17354
▁888888	-17355
▁一个虎粮上车	-17356
▁一级甲有几种	-17357
▁一级防有啥用	-17358
▁一进来就开车	-17359
▁一进来就看见	-17360
▁三级甲三级头	-17361
▁三级甲二级头	-17362
▁上车开空调啊	-17363
▁不要吉利服吗	-17364
▁二十个礼盒抽	-17365
▁人体描边宗师	-17366
▁人体描边枪法	-17367
▁人体描边艺术	-17368
▁今天吃药了吗	-17369
▁你家缺保安吗	-17370
▁保镖直播间号	-17371
▁八倍镜不要了	-17372
▁八倍镜八倍镜	-17373
▁八倍镜都不要	-17374
▁关键时刻就靠	-17375
▁准备送快递了	-17376
▁几个血瓶上车	-17377
▁刚刚盒子里有	-17378
▁刚刚那个盒子	-17379
▁刚进来就看到	-17380
▁刷什么能上车	-17381
▁又开始开车了	-17382
▁可以上车了吗	-17383
▁吉利服不要么	-17384
▁吉利服拉仇恨	-17385
▁吉利服给队友	-17386
▁吐鼻浪波丸丶	-17387
▁大妈还不上车	-17388
▁好久没当老王	-17389
▁子弹袋不要嘛	-17390
▁子弹袋都不要	-17391
▁小哥哥小姐姐	-17392
▁就差摩托车了	-17393
▁开车啦开车啦	-17394
▁开车找人杀啊	-17395
▁开车技术不行	-17396
▁开车换位杀人	-17397
▁怎么不开车了	-17398
▁怎么不开车啊	-17399
▁感谢别致的苏	-17400
▁感谢启轩送的	-17401
▁感谢大猫送的	-17402
▁感谢流年似水	-17403
▁感谢牛奶当水	-17404
▁感谢盒子精的	-17405
▁感谢落地成盒	-17406
▁感谢魔佳军团	-17407
▁我要上车游戏	-17408
▁星运保镖大队	-17409
▁有没有小哥哥	-17410
▁欢迎收看大型	-17411
▁毫无游戏体验	-17412
▁没时间解释了	-17413
▁玲玲家丶无心	-17414
▁疯狂落地成盒	-17415
▁盒子精别说话	-17416
▁直接保镖小篮	-17417
▁礼盒开出战舰	-17418
▁红点红点红点	-17419
▁红点都不要了	-17420
▁纸巾三元一盒	-17421
▁翻车了翻车了	-17422
▁莫回首道心殇	-17423
▁落地成盒主播	-17424
▁落地成盒模式	-17425
▁装甲车不要了	-17426
▁装甲车不要吗	-17427
▁装甲车削弱了	-17428
▁装甲车装甲车	-17429
▁要落地成盒了	-17430
▁言大师想上车	-17431
▁谢谢小保安的	-17432
▁谢谢送的礼盒	-17433
▁轰炸区又来了	-17434
▁这一集我看过	-17435
▁这个距离红点	-17436
▁这把死于跑毒	-17437
▁这是七夕礼盒	-17438
▁这车技可以啊	-17439
▁这车技牛逼啊	-17440
▁送礼盒卡后缀	-17441
▁都是送快递的	-17442
▁高级礼盒才能	-17443
▁魔法书上车吗	-17444
一与的七夕礼盒	-17445
一个魔法书上车	-17446
一直开车一直爽	-17447
一看就是老司机	-17448
一笑奈何的礼盒	-17449
三级头也是一枪	-17450
不悔的七夕礼盒	-17451
中国一个天命圈	-17452
为什么不用红点	-17453
他带着盒子来了	-17454
但是又没有证据	-17455
你是我的小坏蛋	-17456
制造人工轰炸区	-17457
四小天盒的图图	-17458
夜店扛把子小白	-17459
小白快递员老生	-17460
就可以防出轨吗	-17461
就是个送快递的	-17462
开了人体描边挂	-17463
开车把自己撞死	-17464
开车换座位杀人	-17465
怎么变成白色呀	-17466
感谢社会我榜五	-17467
按自动奔跑的键	-17468
摩托车加维克托	-17469
新玥宝贝的礼盒	-17470
最可爱的小迷妹	-17471
有三级甲也没用	-17472
有个好的二级头	-17473
来洗一下这一波	-17474
没有一把天命圈	-17475
白茶清欢无别事	-17476
的红点点是什么	-17477
看回放跑毒打完	-17478
米儿的七夕礼盒	-17479
绝地求生丶老头	-17480
英国小姐姐生日	-17481
落地成盒就流局	-17482
落地成盒的那种	-17483
被爆头也是一枪	-17484
请楼上包厢入座	-17485
这是人干的事吗	-17486
那个保安叫小海	-17487
都可以装红点了	-17488
++++++++	-17489
▁???????	-17490
▁一级甲和二级甲	-17491
▁一顿操作猛如虎	-17492
▁三级头就差你了	-17493
▁不拿吉利服退订	-17494
▁不控圈也打不过	-17495
▁中国主播炸鱼塘	-17496
▁为什么不开车啊	-17497
▁为什么不用红点	-17498
▁二级头都是一枪	-17499
▁二级甲和三级甲	-17500
▁二级甲看不到吗	-17501
▁人体描边烦不烦	-17502
▁什么时候能上车	-17503
▁你是我的维他命	-17504
▁保镖在哪直播啊	-17505
▁保镖干嘛给封了	-17506
▁保镖我就想知道	-17507
▁光脚开车扣几分	-17508
▁叔叔我们不开车	-17509
▁可以免费上车吗	-17510
▁哈哈哈落地成盒	-17511
▁天命圈反向吃鸡	-17512
▁好的二级头不要	-17513
▁富送快递穷吃鸡	-17514
▁左边红点是什么	-17515
▁怎么才可以上车	-17516
▁怎么样才能上车	-17517
▁感谢大灏的礼盒	-17518
▁感谢大白的礼盒	-17519
▁感谢拜白ペ送的	-17520
▁感谢楛澀的礼盒	-17521
▁我榜小景很迷茫	-17522
▁我榜木易小沙弥	-17523
▁我红点都压不住	-17524
▁把把给你天命圈	-17525
▁抽礼盒啦兄弟萌	-17526
▁没有牌子的宝贝	-17527
▁电子竞技老司机	-17528
▁老司机又开车了	-17529
▁谢谢周慕云送的	-17530
▁谢谢妖夭的礼盒	-17531
▁车技粉一本满足	-17532
▁这个二级头皮肤	-17533
▁这就是传说中的	-17534
▁这是落地成盒的	-17535
▁送一个七夕礼盒	-17536
▁风声可以上车吗	-17537
▁鹿西西家的心软	-17538
三级甲都莫名激动	-17539
个七夕礼盒真的是	-17540
五斤麻辣油的礼盒	-17541
他骑着摩托车来了	-17542
但是我又没有证据	-17543
保镖你又是文老三	-17544
可以防老婆出轨吗	-17545
告状权威每天下午	-17546
天命圈也没吃鸡啊	-17547
就傻傻的七夕礼盒	-17548
就是在跑毒的路上	-17549
开车把自己撞死了	-17550
打二级头还是一枪	-17551
欢迎欢迎热烈欢迎	-17552
歆大大的七夕礼盒	-17553
没有名字的老司机	-17554
炸鱼塘的感觉牛逼	-17555
珍爱生命远离女人	-17556
生命不长心存善良	-17557
红红火火恍恍惚惚	-17558
花一块钱送个礼盒	-17559
钟情小刘恋的礼盒	-17560
hiahiahia	-17561
~~~~~~~~~	-17562
▁Charlene	-17563
▁一个人头一个礼盒	-17564
▁上车上车上车上车	-17565
▁保镖直播间是多少	-17566
▁十二今天吃鸡了吗	-17567
▁感谢大家送的礼盒	-17568
▁感谢月下风声送的	-17569
▁感谢涛爷老司机的	-17570
▁感谢老板们的礼盒	-17571
▁我怀疑弹幕在开车	-17572
▁我怀疑翻译在开车	-17573
▁我经常连个二级甲	-17574
▁有没有人和我一样	-17575
▁本直播间禁止开车	-17576
▁榜六喜妹家的北鼻	-17577
▁第一次在这里竞猜	-17578
▁红点好用还是全息	-17579
▁翻车翻车翻车翻车	-17580
▁老司机开车污污污	-17581
▁落地成盒落地成盒	-17582
▁言帅官方认证老爸	-17583
▁轰炸区五百星好评	-17584
▁问问魔王怎么认为	-17585
一笑而过的七夕礼盒	-17586
仓鼠球球的七夕礼盒	-17587
俗友丶溺爱俗尤的花	-17588
出钞票枪战舰有福利	-17589
吃鸡送你一个钞票枪	-17590
坐车打药被毒死系列	-17591
感谢我是一颗小虎牙	-17592
感谢明明家的巧克力	-17593
感谢社会我榜一麻将	-17594
臭臭大帅逼独爱甜甜	-17595
送七夕礼盒拿挂件哦	-17596
领虎粮免费弹幕抽奖	-17597
!!!!!!!!!!	-17598
Liberation	-17599
▁一本魔法书即可上车	-17600
▁刚枪时就知道一级防	-17601
▁又不是跑毒被卡死的	-17602
▁感谢余生舍得丶送的	-17603
▁感谢别致的苏生送的	-17604
▁感谢大白的七夕礼盒	-17605
▁感谢有缘者一孽送的	-17606
▁感谢牛奶当水喝送的	-17607
▁我家我是一颗小虎牙	-17608
▁欢迎我是误造老司机	-17609
▁歪头了保安就看不见	-17610
▁比心小姐姐点起来啊	-17611
▁给你天命圈有什么用	-17612
和警用二级甲有区别吗	-17613
哈哈哈哈哈哈哈哈哈哈	-17614
喜欢主播就送送小礼物	-17615
感谢社会我榜三小可爱	-17616
感谢社会我榜六小可爱	-17617
打一级防需要多少枪吗	-17618
谢谢我我是一颗小虎牙	-17619
谢谢社会我榜六小可爱	-17620
蹲着歪着头保安不逮你	-17621
送礼只送荧光棒跟礼盒	-17622
confessions	-17623
evendanwang	-17624
▁你喝药蹲起怎么那么快	-17625
▁好像有个三级甲在那边	-17626
▁开车切座位怎么不减速	-17627
▁感谢我新玥宝贝的礼盒	-17628
▁感谢榜十后会无期送的	-17629
▁感谢起风了丶难言送的	-17630
▁感谢酷酷的假老练送的	-17631
大家可以拆拆高级礼盒哦	-17632
小白护束一世的七夕礼盒	-17633
送个礼盒卡个忽吹牌子吧	-17634
▁一级甲和二级甲区别大吗	-17635
▁一级防可以防老婆出轨吗	-17636
▁关键时刻就靠三极甲救命	-17637
▁感谢南柯一梦的七夕礼盒	-17638
▁感谢我是一颗小虎牙送的	-17639
▁有三极甲被爆头也是一枪	-17640
▁遇到高手有三级甲也没用	-17641
一枪一个小哥哥的七夕礼盒	-17642
吉利服吉利服吉利服吉利服	-17643
开船开船开船开船开船开船	-17644
盒子精盒子精盒子精盒子精	-17645
穿上二级甲就可以防出轨吗	-17646
▁二级甲和三级甲的差距大吗	-17647
▁感谢中奖是不可能中奖的啦	-17648
▁感谢小小火柴棒的七夕礼盒	-17649
▁感谢社会我榜二过客的礼盒	-17650
▁感谢起风了丶恍然如梦送的	-17651
▁我怀疑你在开车但我没证据	-17652
▁我经常连个二级甲都搜不到	-17653
▁每次看到三级甲都莫名激动	-17654
打他们就是炸鱼塘的感觉牛逼	-17655
??????????????	-17656
▁刚枪时就知道一级防有多菜了	-17657
▁大花猫媳妇走了我们开车去了	-17658
▁感谢社会我榜七小可爱的礼盒	-17659
▁感谢社会我榜二小可爱的礼盒	-17660
▁感谢社会我榜六小可爱的礼盒	-17661
▁昨天沙漠图天命圈也没吃鸡啊	-17662
▁盒盒盒盒盒盒盒盒盒盒盒盒盒	-17663
今天没吃药起不来让孤存来萎神	-17664
▁我怀疑你在开车可是我没有证据	-17665
▁没有忽吹牌子的宝宝花一个礼盒	-17666
▁没牌子的宝贝花一块钱送个礼盒	-17667
▁军用二级甲和警用二级甲有区别吗	-17668
▁感谢社会我榜一就傻傻的七夕礼盒	-17669
!.	-17670
!4	-17671
(¬	-17672
(∩	-17673
(✿	-17674
(。	-17675
)☍	-17676
**	-17677
+5	-17678
,7	-17679
-1	-17680
-3	-17681
-ˇ	-17682
0❷	-17683
2.	-17684
34	-17685
49	-17686
54	-17687
59	-17688
73	-17689
91	-17690
:4	-17691
=)	-17692
?3	-17693
?@	-17694
AE	-17695
AV	-17696
BL	-17697
Bo	-17698
CD	-17699
Ch	-17700
DY	-17701
Dk	-17702
EZ	-17703
FT	-17704
Fu	-17705
GI	-17706
JE	-17707
LG	-17708
Me	-17709
Ro	-17710
SH	-17711
UI	-17712
VP	-17713
YB	-17714
ZH	-17715
ZS	-17716
_,	-17717
_→	-17718
_∩	-17719
bm	-17720
ci	-17721
ec	-17722
fu	-17723
gb	-17724
iu	-17725
kg	-17726
kl	-17727
lt	-17728
ma	-17729
ms	-17730
na	-17731
tm	-17732
tr	-17733
vc	-17734
xi	-17735
yn	-17736
yo	-17737
¬)	-17738
کي	-17739
ั็	-17740
ั๑	-17741
——	-17742
”,	-17743
↪1	-17744
≧△	-17745
⊰⋌	-17746
⊱⋋	-17747
▁;	-17748
▁·	-17749
▁ˇ	-17750
▁̅	-17751
▁๓	-17752
▁༺	-17753
▁“	-17754
▁•	-17755
▁▓	-17756
▁◈	-17757
▁♀	-17758
▁♡	-17759
▁♨	-17760
▁♪	-17761
▁✿	-17762
▁❶	-17763
▁】	-17764
▁乱	-17765
▁亚	-17766
▁众	-17767
▁侧	-17768
▁俊	-17769
▁俗	-17770
▁倍	-17771
▁儿	-17772
▁兂	-17773
▁免	-17774
▁典	-17775
▁凄	-17776
▁刺	-17777
▁劳	-17778
▁勤	-17779
▁升	-17780
▁取	-17781
▁咯	-17782
▁唱	-17783
▁嗨	-17784
▁噢	-17785
▁圣	-17786
▁坚	-17787
▁坤	-17788
▁埋	-17789
▁堆	-17790
▁墙	-17791
▁复	-17792
▁姜	-17793
▁威	-17794
▁季	-17795
▁密	-17796
▁尚	-17797
▁忆	-17798
▁忘	-17799
▁忧	-17800
▁恰	-17801
▁悲	-17802
▁扣	-17803
▁抗	-17804
▁护	-17805
▁拦	-17806
▁挖	-17807
▁掉	-17808
▁控	-17809
▁插	-17810
▁昨	-17811
▁期	-17812
▁未	-17813
▁末	-17814
▁朱	-17815
▁权	-17816
▁查	-17817
▁柴	-17818
▁樂	-17819
▁母	-17820
▁毓	-17821
▁汐	-17822
▁汪	-17823
▁沃	-17824
▁沈	-17825
▁沫	-17826
▁法	-17827
▁泡	-17828
▁派	-17829
▁涛	-17830
▁灬	-17831
▁灯	-17832
▁炒	-17833
▁焚	-17834
▁然	-17835
▁燕	-17836
▁父	-17837
▁爹	-17838
▁爽	-17839
▁现	-17840
▁瓶	-17841
▁皮	-17842
▁盲	-17843
▁瞄	-17844
▁砖	-17845
▁碎	-17846
▁磕	-17847
▁立	-17848
▁竞	-17849
▁竹	-17850
▁简	-17851
▁粘	-17852
▁粥	-17853
▁綕	-17854
▁纵	-17855
▁继	-17856
▁缩	-17857
▁缴	-17858
▁群	-17859
▁翼	-17860
▁耶	-17861
▁肉	-17862
▁脏	-17863
▁脸	-17864
▁舌	-17865
▁苍	-17866
▁苜	-17867
▁药	-17868
▁荷	-17869
▁荼	-17870
▁董	-17871
▁蒗	-17872
▁蓦	-17873
▁蚊	-17874
▁蛋	-17875
▁蠢	-17876
▁补	-17877
▁解	-17878
▁证	-17879
▁语	-17880
▁谷	-17881
▁赠	-17882
▁赢	-17883
▁赫	-17884
▁趁	-17885
▁达	-17886
▁這	-17887
▁速	-17888
▁遗	-17889
▁還	-17890
▁郝	-17891
▁酸	-17892
▁銘	-17893
▁鑫	-17894
▁铛	-17895
▁镖	-17896
▁闲	-17897
▁防	-17898
▁離	-17899
▁须	-17900
▁默	-17901
▁龟	-17902
▁꧁	-17903
▁🐭	-17904
◡)	-17905
♛,	-17906
✭⋆	-17907
❁*	-17908
、8	-17909
。👿	-17910
。😂	-17911
【8	-17912
】、	-17913
か名	-17914
ノ愚	-17915
一丝	-17916
一份	-17917
一体	-17918
一共	-17919
一到	-17920
一品	-17921
一夜	-17922
一家	-17923
一对	-17924
一想	-17925
一抽	-17926
一拉	-17927
一杀	-17928
一款	-17929
一气	-17930
一盘	-17931
一笔	-17932
一者	-17933
一试	-17934
一趟	-17935
一趴	-17936
一躲	-17937
一进	-17938
一键	-17939
万人	-17940
万花	-17941
三圈	-17942
三年	-17943
三杀	-17944
三落	-17945
上呀	-17946
上场	-17947
上我	-17948
上是	-17949
上桥	-17950
上网	-17951
上舟	-17952
上船	-17953
下地	-17954
下坡	-17955
下棋	-17956
下联	-17957
下雨	-17958
不也	-17959
不偏	-17960
不再	-17961
不减	-17962
不卡	-17963
不发	-17964
不变	-17965
不回	-17966
不屑	-17967
不忍	-17968
不愧	-17969
不才	-17970
不扔	-17971
不按	-17972
不撤	-17973
不料	-17974
不明	-17975
不沾	-17976
不消	-17977
不热	-17978
不缺	-17979
不都	-17980
不飘	-17981
不骑	-17982
不黑	-17983
且过	-17984
东京	-17985
丝毫	-17986
丝袜	-17987
丢包	-17988
丢的	-17989
丢雷	-17990
两位	-17991
两分	-17992
两千	-17993
两发	-17994
两只	-17995
两杀	-17996
两点	-17997
两瓶	-17998
个啊	-17999
个头	-18000
个脸	-18001
丫的	-18002
中文	-18003
中断	-18004
中舔	-18005
中黄	-18006
串三	-18007
临死	-18008
丶南	-18009
丶孤	-18010
丶艾	-18011
丶阡	-18012
丶颠	-18013
丶默	-18014
为您	-18015
义乌	-18016
之力	-18017
之恋	-18018
之鹰	-18019
乖哥	-18020
乘机	-18021
九局	-18022
九菜	-18023
也叫	-18024
也多	-18025
也快	-18026
也打	-18027
也敢	-18028
书了	-18029
买房	-18030
乱世	-18031
了下	-18032
了呗	-18033
了点	-18034
事后	-18035
二个	-18036
二树	-18037
二营	-18038
二蛋	-18039
云箭	-18040
云舒	-18041
五点	-18042
井由	-18043
亚子	-18044
享受	-18045
亮了	-18046
亮的	-18047
亲爹	-18048
人员	-18049
人在	-18050
人形	-18051
人物	-18052
人男	-18053
人造	-18054
今年	-18055
从下	-18056
从那	-18057
他也	-18058
他去	-18059
他又	-18060
付费	-18061
代理	-18062
以南	-18063
以老	-18064
以解	-18065
们的	-18066
价了	-18067
优惠	-18068
会凉	-18069
会出	-18070
会吧	-18071
会员	-18072
会封	-18073
会掉	-18074
会来	-18075
伤了	-18076
伤痕	-18077
伴世	-18078
似海	-18079
似雪	-18080
但你	-18081
低保	-18082
何勇	-18083
佛慈	-18084
佛系	-18085
作了	-18086
作死	-18087
作风	-18088
你买	-18089
你人	-18090
你嘛	-18091
你惹	-18092
你爬	-18093
你脸	-18094
你莫	-18095
你车	-18096
佳啊	-18097
依冰	-18098
依赖	-18099
信我	-18100
俩人	-18101
個粉	-18102
個螢	-18103
倍好	-18104
倍当	-18105
倒吗	-18106
倒数	-18107
倒的	-18108
倒闭	-18109
倔强	-18110
倜傥	-18111
借口	-18112
值了	-18113
假的	-18114
做了	-18115
健康	-18116
偶像	-18117
偷袭	-18118
偷过	-18119
傍边	-18120
傻吗	-18121
傻瓜	-18122
充值	-18123
兇弚	-18124
先打	-18125
先把	-18126
先死	-18127
光速	-18128
克星	-18129
兜兜	-18130
全压	-18131
全系	-18132
八杀	-18133
公主	-18134
公举	-18135
公交	-18136
关机	-18137
关门	-18138
具体	-18139
具盒	-18140
兽兽	-18141
兽比	-18142
内个	-18143
内心	-18144
再打	-18145
再次	-18146
再烂	-18147
写的	-18148
军用	-18149
冠名	-18150
冬天	-18151
冰冷	-18152
冲动	-18153
凌飞	-18154
减少	-18155
几万	-18156
几包	-18157
凯西	-18158
出个	-18159
出事	-18160
出国	-18161
出毒	-18162
分享	-18163
分吗	-18164
分局	-18165
分心	-18166
分百	-18167
切坐	-18168
切枪	-18169
初夜	-18170
初恋	-18171
利奈	-18172
别光	-18173
别动	-18174
别吵	-18175
别挤	-18176
别捡	-18177
别玩	-18178
别给	-18179
到人	-18180
到吧	-18181
到家	-18182
到没	-18183
到高	-18184
到鸡	-18185
制盒	-18186
刷卡	-18187
刷吗	-18188
刷毒	-18189
削的	-18190
前先	-18191
前大	-18192
前期	-18193
前轮	-18194
剧情	-18195
力过	-18196
办卡	-18197
加入	-18198
加分	-18199
加群	-18200
动过	-18201
助攻	-18202
劲儿	-18203
势力	-18204
勇士	-18205
包子	-18206
包的	-18207
包装	-18208
匆匆	-18209
十次	-18210
十盒	-18211
十米	-18212
十级	-18213
半个	-18214
半管	-18215
半蹲	-18216
华曦	-18217
卑微	-18218
单狙	-18219
卖的	-18220
南哥	-18221
南辞	-18222
博才	-18223
卡卡	-18224
卫生	-18225
印象	-18226
压成	-18227
原名	-18228
原型	-18229
去别	-18230
去撞	-18231
又会	-18232
又说	-18233
友人	-18234
友友	-18235
双人	-18236
双拼	-18237
双鹰	-18238
反串	-18239
反驳	-18240
发炎	-18241
发生	-18242
取了	-18243
叙述	-18244
口红	-18245
只想	-18246
叫场	-18247
叫她	-18248
叫小	-18249
叫来	-18250
叮当	-18251
可无	-18252
台北	-18253
号还	-18254
吊了	-18255
吊打	-18256
同事	-18257
同志	-18258
名单	-18259
名誉	-18260
后羿	-18261
后腿	-18262
后视	-18263
后轮	-18264
向你	-18265
吓的	-18266
吨位	-18267
听歌	-18268
听的	-18269
听着	-18270
吴峥	-18271
吵了	-18272
吹的	-18273
吹雪	-18274
告辞	-18275
呼百	-18276
咋个	-18277
咋们	-18278
咋玩	-18279
咋算	-18280
和小	-18281
和甲	-18282
品心	-18283
哄哄	-18284
哇塞	-18285
哈批	-18286
哔啵	-18287
哥了	-18288
哦哦	-18289
哪了	-18290
哪天	-18291
哪把	-18292
啊这	-18293
啥吗	-18294
喝完	-18295
喷啊	-18296
嗨了	-18297
嘲笑	-18298
嘴强	-18299
嘴炮	-18300
嘴里	-18301
四匣	-18302
四杀	-18303
四百	-18304
回声	-18305
回想	-18306
团子	-18307
团宠	-18308
国民	-18309
圆圆	-18310
圈刷	-18311
圈围	-18312
在人	-18313
在他	-18314
在公	-18315
在刷	-18316
在啊	-18317
在地	-18318
在找	-18319
在捡	-18320
在水	-18321
在石	-18322
在练	-18323
在问	-18324
地了	-18325
地瓜	-18326
均衡	-18327
坐在	-18328
坐好	-18329
坐着	-18330
坐等	-18331
坑的	-18332
坨坨	-18333
城里	-18334
基友	-18335
堡垒	-18336
堪称	-18337
堵了	-18338
堵人	-18339
塊錢	-18340
增幅	-18341
墨墨	-18342
墨迹	-18343
声优	-18344
壳虫	-18345
备用	-18346
复杂	-18347
多发	-18348
多远	-18349
夜空	-18350
够快	-18351
大半	-18352
大圈	-18353
大奖	-18354
大小	-18355
大巴	-18356
大星	-18357
大熊	-18358
大片	-18359
大药	-18360
大连	-18361
大长	-18362
大门	-18363
天明	-18364
天的	-18365
天禄	-18366
天黑	-18367
太小	-18368
太近	-18369
太长	-18370
太飘	-18371
太黑	-18372
夫君	-18373
头大	-18374
头就	-18375
头接	-18376
头猪	-18377
夹着	-18378
夹道	-18379
套餐	-18380
奢侈	-18381
奥利	-18382
女友	-18383
女王	-18384
奶爸	-18385
她了	-18386
好少	-18387
好抖	-18388
好盒	-18389
好肥	-18390
好脆	-18391
好运	-18392
如初	-18393
如戏	-18394
如此	-18395
妈耶	-18396
妹盒	-18397
妹纸	-18398
始于	-18399
委员	-18400
姗姗	-18401
娜美	-18402
嫉妒	-18403
子姐	-18404
子盒	-18405
孟宝	-18406
孤少	-18407
孤影	-18408
孤狼	-18409
学啊	-18410
守護	-18411
完就	-18412
宝子	-18413
实了	-18414
实属	-18415
寸灰	-18416
对他	-18417
对啊	-18418
对白	-18419
对角	-18420
对象	-18421
对过	-18422
导员	-18423
寿命	-18424
小偷	-18425
小北	-18426
小妱	-18427
小希	-18428
小彤	-18429
小熊	-18430
小益	-18431
小队	-18432
小鬼	-18433
小鱼	-18434
尐錍	-18435
尬的	-18436
就下	-18437
就带	-18438
就流	-18439
就浪	-18440
就滚	-18441
就留	-18442
就神	-18443
就等	-18444
就让	-18445
就跟	-18446
尽管	-18447
尽量	-18448
局都	-18449
屁话	-18450
屋子	-18451
山河	-18452
山路	-18453
川枫	-18454
工号	-18455
工地	-18456
布丁	-18457
带头	-18458
带师	-18459
带油	-18460
带点	-18461
带飞	-18462
干的	-18463
干脆	-18464
平凡	-18465
平地	-18466
平等	-18467
年之	-18468
年代	-18469
年驾	-18470
幻想	-18471
幼稚	-18472
广场	-18473
庆祝	-18474
废铁	-18475
度了	-18476
建国	-18477
开会	-18478
开啊	-18479
开啥	-18480
开火	-18481
开盒	-18482
弄他	-18483
弓箭	-18484
张嘴	-18485
张图	-18486
弯的	-18487
强人	-18488
强势	-18489
强化	-18490
强烈	-18491
强的	-18492
强者	-18493
当个	-18494
当当	-18495
当成	-18496
当船	-18497
录屏	-18498
彦祖	-18499
彩虹	-18500
彭金	-18501
往下	-18502
很慢	-18503
很烦	-18504
很肥	-18505
律师	-18506
得意	-18507
得瑟	-18508
得看	-18509
得着	-18510
微微	-18511
心丶	-18512
心丸	-18513
心脏	-18514
必出	-18515
忙着	-18516
忠胜	-18517
快了	-18518
快线	-18519
快说	-18520
怕了	-18521
思恋	-18522
性命	-18523
性格	-18524
怪谁	-18525
怪车	-18526
总会	-18527
总比	-18528
总监	-18529
恋你	-18530
恶灵	-18531
惊讶	-18532
惨死	-18533
想了	-18534
想多	-18535
想夸	-18536
想起	-18537
感冒	-18538
感动	-18539
感超	-18540
愤怒	-18541
慎独	-18542
慢啊	-18543
懂吧	-18544
懒得	-18545
懵了	-18546
懵柒	-18547
戏精	-18548
我再	-18549
我教	-18550
我更	-18551
我老	-18552
我走	-18553
我输	-18554
我送	-18555
我选	-18556
我饿	-18557
戒烟	-18558
或许	-18559
战为	-18560
战吗	-18561
战歌	-18562
战败	-18563
战非	-18564
戴着	-18565
房里	-18566
手上	-18567
手指	-18568
手摸	-18569
手术	-18570
扌旨	-18571
才好	-18572
打动	-18573
打手	-18574
打满	-18575
打点	-18576
打赢	-18577
扛着	-18578
执念	-18579
扫死	-18580
扭的	-18581
找了	-18582
把枪	-18583
抓走	-18584
投诉	-18585
投资	-18586
抢点	-18587
抢着	-18588
护体	-18589
护士	-18590
报名	-18591
报应	-18592
报销	-18593
披萨	-18594
押了	-18595
抽中	-18596
拉我	-18597
拉近	-18598
拒绝	-18599
拘留	-18600
拦你	-18601
拼命	-18602
拿上	-18603
拿去	-18604
拿走	-18605
持续	-18606
挂少	-18607
挂挡	-18608
按住	-18609
[...]
